/**
* 5-Bit weight 'mnist' model
*/

#include "mnist_packed_5.h"



// We need to keep the data array aligned on some architectures.
#ifdef __has_attribute
#define HAVE_ATTRIBUTE(x) __has_attribute(x)
#else
#define HAVE_ATTRIBUTE(x) 0
#endif
#if HAVE_ATTRIBUTE(aligned) || (defined(__GNUC__) && !defined(__clang__))
#define DATA_ALIGN_ATTRIBUTE __attribute__((aligned(4)))
#else
#define DATA_ALIGN_ATTRIBUTE
#endif
const uint8_t mnist_packed_5_data[] DATA_ALIGN_ATTRIBUTE =
{
0x24, 0x00, 0x00, 0x00, 0x54, 0x46, 0x4c, 0x33, 0x00, 0x00, 0x00, 0x00, 0x00, 0x00, 0x00, 0x00, 0x00, 0x00, 0x12, 0x00, 
0x1c, 0x00, 0x04, 0x00, 0x08, 0x00, 0x0c, 0x00, 0x10, 0x00, 0x14, 0x00, 0x00, 0x00, 0x18, 0x00, 0x12, 0x00, 0x00, 0x00, 
0x03, 0x00, 0x00, 0x00, 0x14, 0x00, 0x00, 0x00, 0x2c, 0x00, 0x00, 0x00, 0xe4, 0x00, 0x00, 0x00, 0x2c, 0x00, 0x00, 0x00, 
0x8c, 0x00, 0x00, 0x00, 0x06, 0x00, 0x00, 0x00, 0x94, 0x71, 0x00, 0x00, 0xa8, 0x70, 0x00, 0x00, 0x70, 0x6c, 0x00, 0x00, 
0x38, 0x66, 0x00, 0x00, 0x74, 0x04, 0x00, 0x00, 0xd0, 0x01, 0x00, 0x00, 0x01, 0x00, 0x00, 0x00, 0xdc, 0x00, 0x00, 0x00, 
0x18, 0x00, 0x00, 0x00, 0xd4, 0x7c, 0x00, 0x00, 0xd0, 0x7c, 0x00, 0x00, 0xec, 0x7b, 0x00, 0x00, 0xd4, 0x7a, 0x00, 0x00, 
0x48, 0x79, 0x00, 0x00, 0xb0, 0x78, 0x00, 0x00, 0x14, 0x77, 0x00, 0x00, 0x78, 0x75, 0x00, 0x00, 0x44, 0x72, 0x00, 0x00, 
0xb0, 0x7c, 0x00, 0x00, 0xac, 0x7c, 0x00, 0x00, 0x74, 0x6d, 0x00, 0x00, 0xa4, 0x7c, 0x00, 0x00, 0xa0, 0x7c, 0x00, 0x00, 
0x74, 0x68, 0x00, 0x00, 0x98, 0x7c, 0x00, 0x00, 0x94, 0x7c, 0x00, 0x00, 0x90, 0x7c, 0x00, 0x00, 0xc8, 0x04, 0x00, 0x00, 
0x88, 0x7c, 0x00, 0x00, 0x94, 0x02, 0x00, 0x00, 0x80, 0x7c, 0x00, 0x00, 0x7c, 0x7c, 0x00, 0x00, 0x38, 0x00, 0x00, 0x00, 
0x01, 0x00, 0x00, 0x00, 0x0c, 0x00, 0x00, 0x00, 0x08, 0x00, 0x0c, 0x00, 0x04, 0x00, 0x08, 0x00, 0x08, 0x00, 0x00, 0x00, 
0x08, 0x00, 0x00, 0x00, 0x17, 0x00, 0x00, 0x00, 0x13, 0x00, 0x00, 0x00, 0x6d, 0x69, 0x6e, 0x5f, 0x72, 0x75, 0x6e, 0x74, 
0x69, 0x6d, 0x65, 0x5f, 0x76, 0x65, 0x72, 0x73, 0x69, 0x6f, 0x6e, 0x00, 0xa6, 0x84, 0xff, 0xff, 0x04, 0x00, 0x00, 0x00, 
0x10, 0x00, 0x00, 0x00, 0x31, 0x2e, 0x35, 0x2e, 0x30, 0x00, 0x00, 0x00, 0x00, 0x00, 0x00, 0x00, 0x00, 0x00, 0x00, 0x00, 
0x0f, 0x00, 0x00, 0x00, 0x4d, 0x4c, 0x49, 0x52, 0x20, 0x43, 0x6f, 0x6e, 0x76, 0x65, 0x72, 0x74, 0x65, 0x64, 0x2e, 0x00, 
0x00, 0x00, 0x0e, 0x00, 0x18, 0x00, 0x04, 0x00, 0x08, 0x00, 0x0c, 0x00, 0x10, 0x00, 0x14, 0x00, 0x0e, 0x00, 0x00, 0x00, 
0x14, 0x00, 0x00, 0x00, 0x6c, 0x00, 0x00, 0x00, 0x70, 0x00, 0x00, 0x00, 0x74, 0x00, 0x00, 0x00, 0x9c, 0x00, 0x00, 0x00, 
0x16, 0x00, 0x00, 0x00, 0x70, 0x7b, 0x00, 0x00, 0x14, 0x7b, 0x00, 0x00, 0x74, 0x7a, 0x00, 0x00, 0x68, 0x79, 0x00, 0x00, 
0xd8, 0x77, 0x00, 0x00, 0x34, 0x77, 0x00, 0x00, 0x98, 0x75, 0x00, 0x00, 0xa4, 0x73, 0x00, 0x00, 0x6c, 0x70, 0x00, 0x00, 
0x80, 0x6f, 0x00, 0x00, 0x20, 0x6e, 0x00, 0x00, 0x44, 0x6b, 0x00, 0x00, 0x6c, 0x6a, 0x00, 0x00, 0x20, 0x69, 0x00, 0x00, 
0x68, 0x66, 0x00, 0x00, 0xa8, 0x65, 0x00, 0x00, 0xfc, 0x64, 0x00, 0x00, 0xe8, 0x63, 0x00, 0x00, 0x34, 0x03, 0x00, 0x00, 
0x0c, 0x02, 0x00, 0x00, 0x14, 0x01, 0x00, 0x00, 0x88, 0x00, 0x00, 0x00, 0x01, 0x00, 0x00, 0x00, 0x00, 0x00, 0x00, 0x00, 
0x01, 0x00, 0x00, 0x00, 0x15, 0x00, 0x00, 0x00, 0x0a, 0x00, 0x00, 0x00, 0xc0, 0x6f, 0x00, 0x00, 0xd8, 0x6e, 0x00, 0x00, 
0x9c, 0x6a, 0x00, 0x00, 0xe4, 0x69, 0x00, 0x00, 0xe0, 0x65, 0x00, 0x00, 0x24, 0x65, 0x00, 0x00, 0x88, 0x64, 0x00, 0x00, 
0xa8, 0x02, 0x00, 0x00, 0xa4, 0x00, 0x00, 0x00, 0x10, 0x00, 0x00, 0x00, 0x04, 0x00, 0x00, 0x00, 0x6d, 0x61, 0x69, 0x6e, 
0x00, 0x00, 0x00, 0x00, 0x52, 0x96, 0xff, 0xff, 0x00, 0x00, 0x00, 0x09, 0x05, 0x00, 0x00, 0x00, 0x1c, 0x00, 0x00, 0x00, 
0x10, 0x00, 0x00, 0x00, 0x04, 0x00, 0x00, 0x00, 0xba, 0x85, 0xff, 0xff, 0x00, 0x00, 0x80, 0x3f, 0x01, 0x00, 0x00, 0x00, 
0x15, 0x00, 0x00, 0x00, 0x01, 0x00, 0x00, 0x00, 0x14, 0x00, 0x00, 0x00, 0x5a, 0x90, 0xff, 0xff, 0x00, 0x00, 0x00, 0x19, 
0x01, 0x00, 0x00, 0x00, 0x7a, 0x85, 0xff, 0xff, 0x00, 0x00, 0x00, 0x03, 0x10, 0x00, 0x00, 0x00, 0x16, 0x00, 0x00, 0x00, 
0x14, 0x00, 0x00, 0x00, 0x20, 0x00, 0x00, 0x00, 0x02, 0x00, 0x00, 0x00, 0x01, 0x00, 0x00, 0x00, 0x02, 0x00, 0x00, 0x00, 
0x08, 0x00, 0x00, 0x00, 0x49, 0x64, 0x65, 0x6e, 0x74, 0x69, 0x74, 0x79, 0x00, 0x00, 0x00, 0x00, 0x5c, 0x85, 0xff, 0xff, 
0x08, 0x00, 0x00, 0x00, 0x0c, 0x00, 0x00, 0x00, 0x01, 0x00, 0x00, 0x00, 0x00, 0x00, 0x80, 0x3b, 0x01, 0x00, 0x00, 0x00, 
0x00, 0x00, 0x00, 0x00, 0x00, 0x00, 0x00, 0x00, 0xe2, 0x96, 0xff, 0xff, 0x00, 0x00, 0x00, 0x08, 0x04, 0x00, 0x00, 0x00, 
0x18, 0x00, 0x00, 0x00, 0x0c, 0x00, 0x00, 0x00, 0x04, 0x00, 0x00, 0x00, 0x68, 0x85, 0xff, 0xff, 0x01, 0x00, 0x00, 0x00, 
0x14, 0x00, 0x00, 0x00, 0x03, 0x00, 0x00, 0x00, 0x12, 0x00, 0x00, 0x00, 0x13, 0x00, 0x00, 0x00, 0x04, 0x00, 0x00, 0x00, 
0x02, 0x86, 0xff, 0xff, 0x00, 0x00, 0x00, 0x03, 0x10, 0x00, 0x00, 0x00, 0x15, 0x00, 0x00, 0x00, 0x14, 0x00, 0x00, 0x00, 
0x58, 0x00, 0x00, 0x00, 0x02, 0x00, 0x00, 0x00, 0x01, 0x00, 0x00, 0x00, 0x02, 0x00, 0x00, 0x00, 0x40, 0x00, 0x00, 0x00, 
0x73, 0x65, 0x71, 0x75, 0x65, 0x6e, 0x74, 0x69, 0x61, 0x6c, 0x2f, 0x71, 0x75, 0x61, 0x6e, 0x74, 0x5f, 0x64, 0x65, 0x6e, 
0x73, 0x65, 0x5f, 0x31, 0x2f, 0x4d, 0x61, 0x74, 0x4d, 0x75, 0x6c, 0x3b, 0x73, 0x65, 0x71, 0x75, 0x65, 0x6e, 0x74, 0x69, 
0x61, 0x6c, 0x2f, 0x71, 0x75, 0x61, 0x6e, 0x74, 0x5f, 0x64, 0x65, 0x6e, 0x73, 0x65, 0x5f, 0x31, 0x2f, 0x42, 0x69, 0x61, 
0x73, 0x41, 0x64, 0x64, 0x00, 0x00, 0x00, 0x00, 0x1c, 0x86, 0xff, 0xff, 0x08, 0x00, 0x00, 0x00, 0x0c, 0x00, 0x00, 0x00, 
0x01, 0x00, 0x00, 0x00, 0xab, 0x20, 0xd0, 0x3d, 0x01, 0x00, 0x00, 0x00, 0x72, 0x00, 0x00, 0x00, 0x00, 0x00, 0x00, 0x00, 
0x00, 0x00, 0x00, 0x00, 0xf6, 0x86, 0xff, 0xff, 0x04, 0x00, 0x00, 0x00, 0x58, 0x00, 0x00, 0x00, 0x2a, 0x55, 0xdb, 0x62, 
0xe0, 0x54, 0xc8, 0x6a, 0x81, 0x17, 0x2c, 0x5f, 0x94, 0x5f, 0x02, 0x72, 0xf7, 0x3d, 0x58, 0x26, 0xca, 0x1b, 0xda, 0x2e, 
0x7d, 0x1b, 0xd8, 0x0e, 0xfa, 0x00, 0x63, 0x5d, 0xb8, 0x1d, 0x6a, 0x5f, 0xca, 0x5c, 0xb3, 0x4d, 0x31, 0x6c, 0x08, 0x00, 
0x5d, 0x0d, 0x25, 0x0a, 0x3f, 0x19, 0x68, 0x3c, 0xf5, 0x58, 0x7b, 0x38, 0xfd, 0x35, 0x56, 0x3a, 0x26, 0x3c, 0x8c, 0x78, 
0x78, 0x4e, 0x83, 0x13, 0xc1, 0x6d, 0xe7, 0x65, 0xcf, 0x3e, 0x1d, 0x15, 0xe5, 0x51, 0x25, 0x1c, 0xb3, 0x2b, 0x16, 0x51, 
0x37, 0x2b, 0x18, 0x00, 0xf6, 0x86, 0xff, 0xff, 0x00, 0x00, 0x00, 0x03, 0x10, 0x00, 0x00, 0x00, 0x14, 0x00, 0x00, 0x00, 
0x14, 0x00, 0x00, 0x00, 0x74, 0x00, 0x00, 0x00, 0x02, 0x00, 0x00, 0x00, 0x02, 0x00, 0x00, 0x00, 0x40, 0x00, 0x00, 0x00, 
0x5e, 0x00, 0x00, 0x00, 0x73, 0x65, 0x71, 0x75, 0x65, 0x6e, 0x74, 0x69, 0x61, 0x6c, 0x2f, 0x71, 0x75, 0x61, 0x6e, 0x74, 
0x5f, 0x64, 0x65, 0x6e, 0x73, 0x65, 0x5f, 0x31, 0x2f, 0x4d, 0x61, 0x74, 0x4d, 0x75, 0x6c, 0x3b, 0x73, 0x65, 0x71, 0x75, 
0x65, 0x6e, 0x74, 0x69, 0x61, 0x6c, 0x2f, 0x71, 0x75, 0x61, 0x6e, 0x74, 0x5f, 0x64, 0x65, 0x6e, 0x73, 0x65, 0x5f, 0x31, 
0x2f, 0x4d, 0x61, 0x74, 0x4d, 0x75, 0x6c, 0x2f, 0x6b, 0x71, 0x75, 0x61, 0x6e, 0x74, 0x2f, 0x46, 0x61, 0x6b, 0x65, 0x51, 
0x75, 0x61, 0x6e, 0x74, 0x57, 0x69, 0x74, 0x68, 0x4d, 0x69, 0x6e, 0x4d, 0x61, 0x78, 0x56, 0x61, 0x72, 0x73, 0x00, 0x00, 
0x90, 0x8e, 0xff, 0xff, 0x00, 0x00, 0x00, 0x01, 0x0c, 0x00, 0x00, 0x00, 0x10, 0x00, 0x00, 0x00, 0x1c, 0x00, 0x00, 0x00, 
0x01, 0x00, 0x00, 0x00, 0x33, 0xc8, 0xe6, 0x3c, 0x01, 0x00, 0x00, 0x00, 0x0f, 0x00, 0x00, 0x00, 0x00, 0x00, 0x00, 0x00, 
0x00, 0x00, 0x00, 0x00, 0x0e, 0x88, 0xff, 0xff, 0x04, 0x00, 0x00, 0x00, 0x0c, 0x00, 0x00, 0x00, 0x92, 0x2d, 0x59, 0xa4, 
0x05, 0x10, 0x01, 0x00, 0x00, 0x00, 0x00, 0x00, 0x00, 0x00, 0x00, 0x00, 0x00, 0x00, 0x00, 0x00, 0x00, 0x00, 0x00, 0x00, 
0xf6, 0x93, 0xff, 0xff, 0x00, 0x00, 0x00, 0x08, 0x04, 0x00, 0x00, 0x00, 0x24, 0x00, 0x00, 0x00, 0x18, 0x00, 0x00, 0x00, 
0x0c, 0x00, 0x00, 0x00, 0x00, 0x00, 0x06, 0x00, 0x08, 0x00, 0x07, 0x00, 0x06, 0x00, 0x00, 0x00, 0x00, 0x00, 0x00, 0x01, 
0x01, 0x00, 0x00, 0x00, 0x12, 0x00, 0x00, 0x00, 0x03, 0x00, 0x00, 0x00, 0x10, 0x00, 0x00, 0x00, 0x11, 0x00, 0x00, 0x00, 
0x03, 0x00, 0x00, 0x00, 0xfa, 0x92, 0xff, 0xff, 0x00, 0x00, 0x00, 0x09, 0x01, 0x00, 0x00, 0x00, 0x1a, 0x88, 0xff, 0xff, 
0x00, 0x00, 0x00, 0x03, 0x10, 0x00, 0x00, 0x00, 0x13, 0x00, 0x00, 0x00, 0x14, 0x00, 0x00, 0x00, 0x70, 0x00, 0x00, 0x00, 
0x02, 0x00, 0x00, 0x00, 0x01, 0x00, 0x00, 0x00, 0x40, 0x00, 0x00, 0x00, 0x58, 0x00, 0x00, 0x00, 0x73, 0x65, 0x71, 0x75, 
0x65, 0x6e, 0x74, 0x69, 0x61, 0x6c, 0x2f, 0x71, 0x75, 0x61, 0x6e, 0x74, 0x5f, 0x64, 0x65, 0x6e, 0x73, 0x65, 0x2f, 0x4d, 
0x61, 0x74, 0x4d, 0x75, 0x6c, 0x3b, 0x73, 0x65, 0x71, 0x75, 0x65, 0x6e, 0x74, 0x69, 0x61, 0x6c, 0x2f, 0x71, 0x75, 0x61, 
0x6e, 0x74, 0x5f, 0x64, 0x65, 0x6e, 0x73, 0x65, 0x2f, 0x52, 0x65, 0x6c, 0x75, 0x3b, 0x73, 0x65, 0x71, 0x75, 0x65, 0x6e, 
0x74, 0x69, 0x61, 0x6c, 0x2f, 0x71, 0x75, 0x61, 0x6e, 0x74, 0x5f, 0x64, 0x65, 0x6e, 0x73, 0x65, 0x2f, 0x42, 0x69, 0x61, 
0x73, 0x41, 0x64, 0x64, 0x00, 0x00, 0x00, 0x00, 0x4c, 0x88, 0xff, 0xff, 0x08, 0x00, 0x00, 0x00, 0x0c, 0x00, 0x00, 0x00, 
0x01, 0x00, 0x00, 0x00, 0xde, 0x56, 0x7f, 0x3c, 0x01, 0x00, 0x00, 0x00, 0x00, 0x00, 0x00, 0x00, 0x00, 0x00, 0x00, 0x00, 
0x22, 0x89, 0xff, 0xff, 0x04, 0x00, 0x00, 0x00, 0x00, 0x60, 0x00, 0x00, 0x8e, 0x31, 0x90, 0x21, 0xce, 0x35, 0x6e, 0x29, 
0xd0, 0x31, 0xcc, 0x29, 0x6e, 0x3d, 0xee, 0x35, 0x10, 0x3a, 0x71, 0x39, 0x6f, 0x41, 0x4c, 0x2d, 0x0a, 0x46, 0xcb, 0x41, 
0xcd, 0x29, 0xb2, 0x31, 0xf1, 0x2d, 0x10, 0x32, 0x0e, 0x2a, 0xab, 0x29, 0x72, 0x3e, 0xed, 0x49, 0x2e, 0x4a, 0xee, 0x31, 
0x93, 0x31, 0xee, 0x31, 0x51, 0x39, 0x51, 0x2d, 0x90, 0x25, 0x8a, 0x31, 0x8f, 0x2d, 0x90, 0x3d, 0xef, 0x29, 0xee, 0x41, 
0x8e, 0x45, 0x6b, 0x41, 0x0f, 0x32, 0x31, 0x3a, 0xed, 0x3d, 0xcc, 0x39, 0xce, 0x41, 0x4b, 0x45, 0xad, 0x45, 0xd1, 0x39, 
0xef, 0x45, 0xed, 0x35, 0x4d, 0x29, 0xee, 0x39, 0xcc, 0x2d, 0xeb, 0x49, 0x6a, 0x32, 0x8e, 0x36, 0xad, 0x39, 0x73, 0x51, 
0xcf, 0x49, 0x8b, 0x3d, 0xc8, 0x3d, 0x4f, 0x3a, 0x0e, 0x36, 0x51, 0x35, 0x4d, 0x2d, 0xc7, 0x29, 0xef, 0x49, 0xb1, 0x2d, 
0x50, 0x42, 0x30, 0x42, 0x0c, 0x2a, 0x6c, 0x29, 0xcf, 0x1d, 0xab, 0x1d, 0xce, 0x39, 0x6f, 0x3d, 0xb0, 0x25, 0x0a, 0x3a, 
0x8d, 0x41, 0x0c, 0x42, 0x8a, 0x49, 0xeb, 0x49, 0xcc, 0x2d, 0x48, 0x39, 0xcd, 0x31, 0xef, 0x3d, 0x4e, 0x29, 0x8b, 0x31, 
0x6e, 0x35, 0xcc, 0x41, 0x31, 0x4a, 0xc7, 0x31, 0x71, 0x35, 0xad, 0x39, 0x74, 0x2d, 0xcf, 0x2d, 0xad, 0x3d, 0x8a, 0x35, 
0x93, 0x3d, 0x8b, 0x51, 0xf0, 0x45, 0xac, 0x41, 0x8c, 0x35, 0x12, 0x45, 0x13, 0x36, 0x72, 0x39, 0x0e, 0x2e, 0x8c, 0x41, 
0xed, 0x41, 0x91, 0x3d, 0x8c, 0x31, 0xd0, 0x39, 0xae, 0x39, 0x2c, 0x3d, 0x51, 0x3d, 0x4a, 0x42, 0xb2, 0x31, 0x6c, 0x45, 
0x90, 0x21, 0x4c, 0x41, 0x11, 0x3e, 0xe8, 0x25, 0xce, 0x3d, 0x4d, 0x35, 0x6c, 0x36, 0x50, 0x22, 0xf0, 0x4d, 0x6f, 0x2d, 
0xaf, 0x49, 0x2c, 0x35, 0xcd, 0x35, 0xcb, 0x29, 0xac, 0x3d, 0xeb, 0x31, 0x74, 0x29, 0xab, 0x39, 0x14, 0x22, 0x6f, 0x29, 
0x0f, 0x36, 0x10, 0x46, 0x8b, 0x31, 0xef, 0x41, 0xca, 0x29, 0xcc, 0x35, 0x51, 0x42, 0x8a, 0x45, 0xd2, 0x35, 0x8d, 0x45, 
0xaa, 0x39, 0xb0, 0x3d, 0xad, 0x25, 0x6e, 0x2d, 0x51, 0x3d, 0xcf, 0x55, 0x8b, 0x4a, 0xcf, 0x2c, 0xb1, 0x45, 0x0f, 0x31, 
0x9b, 0x45, 0xd2, 0x39, 0x4f, 0x3e, 0x27, 0x3a, 0x0d, 0x5a, 0x6e, 0x3d, 0xeb, 0x45, 0x8b, 0x25, 0xce, 0x35, 0xe8, 0x40, 
0x2c, 0x36, 0x8e, 0x3e, 0xac, 0x41, 0xf0, 0x49, 0xb0, 0x35, 0xd1, 0x39, 0x90, 0x49, 0x2e, 0x42, 0xe5, 0x39, 0x8b, 0x3a, 
0x8d, 0x39, 0xf0, 0x3d, 0x25, 0x31, 0x8e, 0x45, 0x2f, 0x12, 0x8c, 0x3d, 0xc8, 0x39, 0x92, 0x55, 0x8d, 0x41, 0xda, 0x3d, 
0x90, 0x4d, 0xea, 0x2d, 0x2e, 0x11, 0xe6, 0x3d, 0x4b, 0x41, 0x6f, 0x25, 0x2b, 0x26, 0xb1, 0x3d, 0xeb, 0x31, 0xca, 0x3d, 
0x4a, 0x2d, 0xeb, 0x31, 0x0e, 0x36, 0x70, 0x3d, 0x4a, 0x2d, 0x4c, 0x29, 0x4d, 0x35, 0xef, 0x31, 0xee, 0x35, 0xab, 0x3d, 
0xcc, 0x39, 0xca, 0x35, 0x8e, 0x2d, 0x4c, 0x35, 0xaf, 0x31, 0x8a, 0x35, 0xae, 0x31, 0xec, 0x2d, 0x8d, 0x31, 0xea, 0x2d, 
0x4d, 0x39, 0x70, 0x35, 0xcb, 0x31, 0xed, 0x2d, 0xcd, 0x3d, 0xcf, 0x35, 0xaf, 0x31, 0x8c, 0x41, 0x4c, 0x39, 0x0e, 0x3e, 
0x4d, 0x35, 0x6b, 0x35, 0x6d, 0x39, 0xae, 0x31, 0x0a, 0x42, 0x6e, 0x3d, 0xed, 0x29, 0xef, 0x31, 0x8c, 0x25, 0x8c, 0x2d, 
0x8d, 0x31, 0x90, 0x31, 0x8b, 0x31, 0xcc, 0x35, 0x6a, 0x39, 0xcf, 0x29, 0x6f, 0x39, 0xcd, 0x39, 0x6e, 0x31, 0x0a, 0x3a, 
0xcb, 0x35, 0x8a, 0x29, 0x0f, 0x3e, 0xad, 0x41, 0x6b, 0x35, 0x8c, 0x31, 0xcd, 0x35, 0x90, 0x29, 0xeb, 0x35, 0x89, 0x2d, 
0xeb, 0x2d, 0x0e, 0x2e, 0x4e, 0x31, 0xee, 0x3d, 0x8b, 0x39, 0x70, 0x29, 0x8b, 0x41, 0xec, 0x35, 0xad, 0x31, 0x0c, 0x2e, 
0xca, 0x2d, 0x0d, 0x3a, 0x4c, 0x29, 0x50, 0x39, 0xad, 0x35, 0xea, 0x39, 0xd0, 0x3d, 0x6a, 0x2d, 0xae, 0x35, 0x8d, 0x35, 
0xcf, 0x2d, 0xea, 0x31, 0x6c, 0x31, 0xcc, 0x41, 0x8f, 0x31, 0xed, 0x39, 0x8b, 0x39, 0x8d, 0x41, 0x6c, 0x41, 0x6e, 0x41, 
0x8e, 0x3d, 0xee, 0x39, 0x6d, 0x39, 0x0e, 0x3a, 0xe9, 0x31, 0x8b, 0x35, 0xf0, 0x2d, 0xac, 0x31, 0x8f, 0x29, 0x6f, 0x39, 
0x70, 0x3d, 0xcd, 0x31, 0x4a, 0x2d, 0xab, 0x39, 0x0d, 0x2a, 0xaa, 0x3d, 0xca, 0x3d, 0x6b, 0x35, 0xee, 0x25, 0x6f, 0x29, 
0x6a, 0x35, 0xef, 0x35, 0xac, 0x29, 0xcf, 0x3d, 0xce, 0x35, 0xad, 0x31, 0x6f, 0x35, 0x6f, 0x31, 0x4a, 0x35, 0x6e, 0x3d, 
0xef, 0x2d, 0xcf, 0x41, 0x0b, 0x36, 0x0e, 0x3a, 0x8f, 0x39, 0x69, 0x2d, 0x4d, 0x35, 0x6b, 0x3d, 0xaf, 0x39, 0x10, 0x2a, 
0x8c, 0x35, 0xcb, 0x39, 0x50, 0x31, 0xee, 0x2d, 0x0f, 0x42, 0xcb, 0x35, 0xee, 0x31, 0x0c, 0x3e, 0x0d, 0x3e, 0xec, 0x35, 
0xcd, 0x39, 0xaa, 0x39, 0x0c, 0x32, 0xeb, 0x39, 0x49, 0x29, 0xaf, 0x39, 0xca, 0x35, 0xf0, 0x2d, 0x4e, 0x35, 0xcc, 0x29, 
0xaa, 0x3d, 0x6e, 0x3d, 0xaf, 0x31, 0xac, 0x41, 0x4f, 0x39, 0xee, 0x3d, 0x4c, 0x41, 0x4c, 0x3d, 0x6b, 0x39, 0x8f, 0x31, 
0xed, 0x35, 0x8e, 0x35, 0xaf, 0x39, 0xcf, 0x39, 0xaf, 0x3d, 0x8f, 0x29, 0x6d, 0x31, 0xf0, 0x41, 0xec, 0x41, 0xca, 0x41, 
0x0a, 0x2a, 0xce, 0x35, 0x0d, 0x3e, 0x4c, 0x41, 0xed, 0x29, 0x4e, 0x41, 0x6f, 0x39, 0x8f, 0x41, 0x8b, 0x41, 0x6e, 0x29, 
0x0b, 0x32, 0x8b, 0x31, 0x90, 0x35, 0x6f, 0x39, 0x90, 0x2d, 0x90, 0x2d, 0x6d, 0x3d, 0xce, 0x2d, 0xcd, 0x3d, 0x8d, 0x39, 
0xaf, 0x31, 0x8d, 0x39, 0x0e, 0x3a, 0xed, 0x35, 0x89, 0x2d, 0x2e, 0x2d, 0xcc, 0x45, 0x90, 0x3d, 0x90, 0x39, 0x6a, 0x2e, 
0x0f, 0x2e, 0xed, 0x41, 0xad, 0x25, 0x30, 0x31, 0x8a, 0x3d, 0x8c, 0x3d, 0xcf, 0x40, 0x4a, 0x35, 0xc9, 0x3d, 0x0c, 0x3a, 
0x2a, 0x39, 0x4a, 0x22, 0x6c, 0x39, 0x87, 0x2d, 0x68, 0x41, 0xac, 0x29, 0x4b, 0x39, 0xcc, 0x35, 0x90, 0x2d, 0x2c, 0x32, 
0xad, 0x45, 0x90, 0x25, 0x6c, 0x35, 0xab, 0x35, 0x91, 0x39, 0xd0, 0x31, 0x4e, 0x29, 0x2f, 0x41, 0xcf, 0x41, 0x2a, 0x3e, 
0xee, 0x31, 0x4d, 0x3e, 0x4d, 0x19, 0x2a, 0x39, 0x6d, 0x39, 0x6f, 0x29, 0x0e, 0x32, 0x6e, 0x35, 0x2b, 0x29, 0x8c, 0x39, 
0x70, 0x31, 0x6e, 0x31, 0xcf, 0x2d, 0x6e, 0x25, 0xd0, 0x29, 0xd0, 0x39, 0xd0, 0x3d, 0x8c, 0x2c, 0x4c, 0x3d, 0x6b, 0x35, 
0xab, 0x45, 0xb0, 0x39, 0x4c, 0x35, 0x48, 0x2a, 0x4a, 0x2d, 0x4b, 0x25, 0xf3, 0x55, 0xf0, 0x3d, 0x4d, 0x41, 0x4f, 0x41, 
0xae, 0x45, 0x8f, 0x39, 0xca, 0x41, 0x90, 0x29, 0x4e, 0x3e, 0x93, 0x29, 0x4e, 0x2e, 0xcc, 0x2d, 0xd2, 0x41, 0x91, 0x31, 
0x6e, 0x39, 0x0f, 0x2e, 0x8b, 0x39, 0xb1, 0x41, 0xce, 0x45, 0x0c, 0x3d, 0x0c, 0x19, 0xb2, 0x29, 0xaa, 0x49, 0x90, 0x3d, 
0x69, 0x45, 0xe8, 0x29, 0x51, 0x3d, 0x8e, 0x2d, 0x48, 0x31, 0x6a, 0x2d, 0xf0, 0x38, 0x6b, 0x31, 0xeb, 0x39, 0x6d, 0x46, 
0x8b, 0x29, 0xac, 0x25, 0xeb, 0x35, 0x2b, 0x26, 0xea, 0x39, 0x6b, 0x35, 0xcc, 0x3d, 0x4b, 0x3a, 0x4f, 0x39, 0x2e, 0x36, 
0xec, 0x3d, 0x4e, 0x35, 0x8d, 0x41, 0xed, 0x2d, 0xe9, 0x41, 0xcf, 0x35, 0x8f, 0x41, 0x2f, 0x4e, 0xce, 0x21, 0xd3, 0x29, 
0x6c, 0x29, 0x30, 0x41, 0x6d, 0x29, 0xeb, 0x39, 0x30, 0x32, 0x11, 0x3a, 0x0e, 0x42, 0xb2, 0x31, 0xee, 0x39, 0xf1, 0x45, 
0x65, 0x59, 0x30, 0x3a, 0x67, 0x41, 0x8e, 0x3d, 0x4e, 0x35, 0x2d, 0x2e, 0xad, 0x45, 0x8b, 0x3d, 0xcf, 0x31, 0x70, 0x31, 
0xce, 0x3c, 0x4d, 0x35, 0x07, 0x2e, 0x6f, 0x31, 0xae, 0x29, 0xcf, 0x29, 0x10, 0x3e, 0x8b, 0x35, 0x8b, 0x45, 0xf0, 0x18, 
0x8c, 0x19, 0xb0, 0x4a, 0xea, 0x3d, 0xab, 0x31, 0x42, 0x3d, 0x09, 0x42, 0x8d, 0x2d, 0xb6, 0x34, 0xaa, 0x19, 0x2c, 0x21, 
0x4f, 0x1d, 0x4d, 0x55, 0x4e, 0x3d, 0xef, 0x4a, 0xd0, 0x39, 0x46, 0x35, 0x6a, 0x35, 0x4b, 0x32, 0x70, 0x45, 0x08, 0x3e, 
0xb0, 0x21, 0x32, 0x41, 0xb2, 0x2d, 0x6b, 0x21, 0xb3, 0x35, 0x8f, 0x39, 0xd0, 0x2d, 0xaf, 0x35, 0x6d, 0x49, 0x6f, 0x2d, 
0x13, 0x2e, 0xa9, 0x15, 0x90, 0x29, 0x82, 0x29, 0x90, 0x2e, 0xcb, 0x49, 0x4a, 0x5e, 0x93, 0x3d, 0x10, 0x2e, 0x11, 0x3e, 
0x52, 0x31, 0x0b, 0x3a, 0x0a, 0x3e, 0x4e, 0x3d, 0x2d, 0x2d, 0xce, 0x29, 0xcb, 0x2d, 0x8b, 0x39, 0xee, 0x35, 0x0c, 0x3a, 
0x0c, 0x2e, 0xae, 0x31, 0xea, 0x35, 0x2d, 0x42, 0x72, 0x29, 0x70, 0x45, 0x8b, 0x2d, 0xe8, 0x39, 0x69, 0x31, 0xac, 0x35, 
0x4d, 0x3d, 0x4c, 0x31, 0x09, 0x3d, 0xce, 0x29, 0x0e, 0x2e, 0xaa, 0x45, 0xe9, 0x2d, 0xf0, 0x39, 0x6b, 0x25, 0xf0, 0x2d, 
0x91, 0x3d, 0x6d, 0x29, 0x0f, 0x36, 0x0b, 0x3a, 0x70, 0x49, 0xec, 0x29, 0x4f, 0x25, 0x4f, 0x41, 0x70, 0x3d, 0x0b, 0x49, 
0x4d, 0x2d, 0xcd, 0x41, 0x8c, 0x2d, 0xae, 0x3d, 0xee, 0x1d, 0xa8, 0x3d, 0x0c, 0x26, 0x6e, 0x25, 0x6b, 0x39, 0x6a, 0x35, 
0xa9, 0x35, 0x8a, 0x21, 0xea, 0x24, 0x6d, 0x2d, 0xaa, 0x2d, 0x0a, 0x26, 0xd3, 0x19, 0xb0, 0x2d, 0x4c, 0x2d, 0x2b, 0x31, 
0x6b, 0x35, 0xca, 0x29, 0x6a, 0x39, 0xd2, 0x3d, 0x0f, 0x2d, 0xa9, 0x3d, 0x71, 0x3d, 0x4b, 0x11, 0x6d, 0x5d, 0x6e, 0x29, 
0xce, 0x45, 0xee, 0x39, 0xab, 0x41, 0xaf, 0x29, 0x8a, 0x31, 0xcc, 0x3d, 0x2b, 0x32, 0xf3, 0x3d, 0x0e, 0x2e, 0x8c, 0x35, 
0xb2, 0x35, 0x4f, 0x29, 0xcf, 0x35, 0x0c, 0x2a, 0x0d, 0x3a, 0xec, 0x31, 0x0f, 0x2e, 0x8e, 0x39, 0x4e, 0x2d, 0x92, 0x3d, 
0x86, 0x41, 0x8f, 0x39, 0x6c, 0x45, 0xac, 0x35, 0x6f, 0x3d, 0x6d, 0x41, 0x6e, 0x39, 0x0d, 0x2e, 0x8c, 0x3d, 0x4f, 0x31, 
0x4c, 0x2d, 0x8c, 0x29, 0x89, 0x3d, 0x0e, 0x36, 0x6b, 0x31, 0xf0, 0x25, 0xcd, 0x39, 0xaa, 0x2d, 0xed, 0x35, 0x2e, 0x36, 
0xad, 0x45, 0x0c, 0x32, 0xec, 0x3d, 0x8e, 0x35, 0x09, 0x2e, 0x6c, 0x25, 0xed, 0x39, 0x8f, 0x31, 0x4f, 0x29, 0xed, 0x55, 
0x8a, 0x21, 0x0d, 0x2a, 0x4a, 0x35, 0x2d, 0x2d, 0x6e, 0x29, 0x88, 0x41, 0xeb, 0x25, 0x8c, 0x41, 0xcc, 0x25, 0x70, 0x31, 
0x70, 0x3d, 0xce, 0x45, 0xc6, 0x41, 0xaf, 0x2d, 0xcd, 0x3d, 0x8f, 0x31, 0xec, 0x35, 0xf0, 0x3d, 0x0d, 0x42, 0xca, 0x3d, 
0xcb, 0x39, 0xb2, 0x35, 0xaa, 0x34, 0x4b, 0x2d, 0x28, 0x32, 0xce, 0x41, 0x8e, 0x41, 0x8c, 0x2d, 0x0d, 0x42, 0x6d, 0x39, 
0x70, 0x41, 0xd0, 0x0d, 0xd0, 0x2d, 0x6b, 0x4a, 0xcb, 0x3d, 0x2c, 0x2e, 0xc7, 0x41, 0x6d, 0x41, 0x6f, 0x29, 0x71, 0x2d, 
0xe9, 0x29, 0x8b, 0x2d, 0x10, 0x1d, 0xaa, 0x4d, 0xea, 0x3d, 0x53, 0x3e, 0x6d, 0x35, 0x2e, 0x2d, 0x8c, 0x3d, 0x8f, 0x2d, 
0xac, 0x39, 0x6c, 0x2d, 0x0f, 0x2e, 0x11, 0x2d, 0xd4, 0x39, 0x30, 0x29, 0x52, 0x35, 0x0a, 0x2e, 0x12, 0x36, 0x0a, 0x22, 
0x90, 0x44, 0x8f, 0x29, 0xb2, 0x2d, 0x6d, 0x25, 0x51, 0x21, 0xc4, 0x3d, 0x4e, 0x36, 0x0b, 0x46, 0xcf, 0x59, 0x13, 0x36, 
0x6d, 0x25, 0x8a, 0x41, 0x31, 0x3d, 0xa8, 0x3d, 0xf0, 0x2d, 0xcc, 0x30, 0x90, 0x29, 0x50, 0x41, 0x8c, 0x45, 0x8d, 0x29, 
0xea, 0x41, 0x4e, 0x25, 0x4f, 0x2d, 0xaa, 0x2d, 0x6d, 0x31, 0x6f, 0x3d, 0x32, 0x21, 0xaf, 0x41, 0xee, 0x45, 0x67, 0x31, 
0x2e, 0x3d, 0xaf, 0x2d, 0xcc, 0x31, 0xab, 0x45, 0x6c, 0x41, 0xb0, 0x09, 0xb0, 0x19, 0x8d, 0x39, 0x0a, 0x2a, 0xd0, 0x3d, 
0x6b, 0x2d, 0x8a, 0x41, 0x6b, 0x3d, 0x90, 0x35, 0x71, 0x35, 0x0b, 0x2a, 0x90, 0x3d, 0x90, 0x2d, 0x6b, 0x2d, 0x8f, 0x29, 
0x51, 0x41, 0x6f, 0x45, 0x10, 0x2a, 0x0b, 0x3a, 0xac, 0x45, 0x8c, 0x29, 0x0e, 0x26, 0xe4, 0x49, 0xab, 0x31, 0x6d, 0x35, 
0x6c, 0x35, 0xab, 0x45, 0x4d, 0x3d, 0x6b, 0x41, 0x2c, 0x2d, 0x6d, 0x2d, 0x6f, 0x41, 0x8d, 0x29, 0xef, 0x21, 0xcf, 0x29, 
0x8b, 0x39, 0x0e, 0x3d, 0x4b, 0x3d, 0xea, 0x35, 0x8b, 0x41, 0x91, 0x29, 0x2e, 0x35, 0x2d, 0x32, 0xcf, 0x35, 0x0c, 0x26, 
0xd0, 0x49, 0x10, 0x36, 0xcc, 0x39, 0x2b, 0x35, 0x8d, 0x31, 0xed, 0x35, 0x08, 0x4a, 0xcf, 0x2d, 0xaf, 0x29, 0x8e, 0x41, 
0x10, 0x26, 0xef, 0x35, 0x91, 0x49, 0x10, 0x42, 0x8a, 0x35, 0x0b, 0x36, 0xab, 0x36, 0x8f, 0x39, 0x4f, 0x32, 0x6d, 0x49, 
0xca, 0x00, 0xed, 0x51, 0xca, 0x35, 0xf0, 0x3d, 0x8a, 0x45, 0x6d, 0x35, 0x11, 0x2d, 0x2c, 0x3e, 0x09, 0x32, 0x6d, 0x29, 
0x0c, 0x3e, 0xae, 0x41, 0x4b, 0x35, 0xc8, 0x39, 0xea, 0x2d, 0x70, 0x39, 0x4f, 0x39, 0x8c, 0x2d, 0xca, 0x2d, 0x69, 0x2d, 
0xab, 0x5d, 0x25, 0x26, 0x0d, 0x3e, 0x4e, 0x3e, 0x8d, 0x31, 0x8c, 0x39, 0xad, 0x3d, 0x6b, 0x29, 0x50, 0x2e, 0xaf, 0x31, 
0xef, 0x41, 0xd4, 0x61, 0xec, 0x25, 0xf1, 0x29, 0x0a, 0x2e, 0x8f, 0x44, 0xae, 0x2d, 0xef, 0x41, 0xce, 0x2d, 0x71, 0x31, 
0xa9, 0x32, 0x12, 0x32, 0xcf, 0x45, 0xeb, 0x45, 0x65, 0x4a, 0xd0, 0x2d, 0x46, 0x31, 0x70, 0x31, 0x0b, 0x3e, 0x8a, 0x29, 
0x4a, 0x29, 0xed, 0x31, 0x2a, 0x2e, 0xcb, 0x41, 0xad, 0x3c, 0x8b, 0x31, 0xe6, 0x31, 0x8d, 0x3d, 0xed, 0x39, 0x8e, 0x31, 
0xad, 0x41, 0xae, 0x31, 0x4e, 0x31, 0x50, 0x19, 0xee, 0x20, 0x90, 0x4e, 0xed, 0x41, 0xec, 0x3d, 0x87, 0x31, 0xcb, 0x29, 
0xec, 0x34, 0x34, 0x35, 0xcd, 0x31, 0x8d, 0x39, 0x50, 0x11, 0xed, 0x41, 0x0d, 0x4a, 0x90, 0x36, 0xb2, 0x41, 0xec, 0x38, 
0x4e, 0x29, 0xee, 0x25, 0x4f, 0x35, 0x8b, 0x39, 0x6b, 0x2d, 0x6c, 0x31, 0x0e, 0x3e, 0xf0, 0x38, 0x91, 0x45, 0xf0, 0x2d, 
0xd4, 0x3d, 0x6f, 0x1d, 0x6b, 0x45, 0xac, 0x2d, 0x56, 0x39, 0xc6, 0x19, 0xef, 0x2d, 0x6a, 0x41, 0x0c, 0x2e, 0x6d, 0x39, 
0xad, 0x55, 0xcf, 0x2d, 0x0a, 0x32, 0x6d, 0x29, 0xcd, 0x34, 0x2b, 0x32, 0xac, 0x2d, 0xf0, 0x3d, 0x70, 0x35, 0x6c, 0x35, 
0xec, 0x2d, 0x89, 0x3d, 0x8d, 0x31, 0xcc, 0x35, 0x70, 0x41, 0x2e, 0x32, 0x8b, 0x31, 0x0a, 0x42, 0x32, 0x25, 0xac, 0x41, 
0xea, 0x3d, 0xc9, 0x35, 0x0b, 0x41, 0x6a, 0x31, 0x6a, 0x41, 0xee, 0x39, 0xc9, 0x41, 0x2c, 0x32, 0xb1, 0x31, 0x4b, 0x2d, 
0x6a, 0x41, 0x50, 0x39, 0x8f, 0x35, 0xaa, 0x3d, 0x71, 0x3d, 0x6f, 0x31, 0xf1, 0x31, 0x6d, 0x29, 0xac, 0x41, 0xee, 0x2d, 
0xaf, 0x29, 0xb1, 0x31, 0xad, 0x39, 0x0f, 0x3d, 0xcb, 0x2d, 0x2b, 0x42, 0xed, 0x35, 0xec, 0x41, 0x6d, 0x21, 0xe8, 0x41, 
0xeb, 0x2d, 0x4e, 0x35, 0xcc, 0x3d, 0xcf, 0x2d, 0x6c, 0x3d, 0x8e, 0x39, 0x6a, 0x39, 0x0a, 0x31, 0x6b, 0x2d, 0x8e, 0x2d, 
0xb3, 0x29, 0x0e, 0x42, 0x4f, 0x41, 0x0d, 0x3d, 0xab, 0x29, 0x8e, 0x29, 0xac, 0x41, 0x71, 0x39, 0xcc, 0x34, 0x87, 0x29, 
0x8f, 0x39, 0x0d, 0x25, 0xb3, 0x5d, 0x0e, 0x2e, 0xe9, 0x45, 0xce, 0x49, 0x6d, 0x31, 0xb2, 0x2d, 0x4d, 0x41, 0xb0, 0x41, 
0xcc, 0x2d, 0xee, 0x39, 0xd0, 0x25, 0x6f, 0x35, 0x32, 0x3e, 0xed, 0x35, 0xf1, 0x31, 0xb0, 0x2d, 0xcf, 0x3d, 0x8d, 0x39, 
0xf2, 0x35, 0x4c, 0x39, 0x4a, 0x1d, 0x92, 0x31, 0xa7, 0x45, 0xef, 0x35, 0x49, 0x35, 0x68, 0x39, 0x6d, 0x31, 0x6c, 0x3d, 
0x68, 0x39, 0x6c, 0x29, 0x6c, 0x2d, 0x8a, 0x25, 0x6c, 0x39, 0xeb, 0x2d, 0x8c, 0x3d, 0xeb, 0x2d, 0xeb, 0x2d, 0xec, 0x2d, 
0x8e, 0x29, 0x67, 0x39, 0x70, 0x49, 0x0d, 0x36, 0x31, 0x41, 0xce, 0x3d, 0x0a, 0x3e, 0x90, 0x41, 0xae, 0x3d, 0x0b, 0x2a, 
0x2a, 0x46, 0x0f, 0x3e, 0x8d, 0x35, 0x2e, 0x4e, 0xeb, 0x21, 0xd1, 0x39, 0xaa, 0x3d, 0x6d, 0x35, 0x2b, 0x2d, 0xed, 0x29, 
0xad, 0x35, 0x12, 0x32, 0x8d, 0x2d, 0xd0, 0x39, 0xb0, 0x41, 0x92, 0x31, 0xe5, 0x51, 0x8e, 0x2d, 0x0a, 0x3e, 0x6b, 0x41, 
0xcb, 0x3d, 0x6c, 0x2d, 0x50, 0x31, 0x0a, 0x2a, 0x2d, 0x4a, 0xd2, 0x2d, 0x8c, 0x40, 0x4c, 0x29, 0xaa, 0x31, 0x50, 0x31, 
0x2d, 0x3d, 0xca, 0x3d, 0xed, 0x49, 0xcc, 0x31, 0xae, 0x41, 0x2e, 0x15, 0x4b, 0x25, 0x2f, 0x32, 0x8c, 0x41, 0x0b, 0x36, 
0x06, 0x3a, 0x68, 0x41, 0xaf, 0x35, 0xd3, 0x34, 0x4d, 0x19, 0x50, 0x29, 0xed, 0x1c, 0x0e, 0x46, 0xaa, 0x35, 0xb3, 0x3e, 
0xd3, 0x39, 0xe7, 0x30, 0x4a, 0x29, 0xed, 0x2d, 0xeb, 0x3d, 0x69, 0x41, 0xed, 0x2d, 0x10, 0x3d, 0x36, 0x2d, 0x8b, 0x39, 
0x71, 0x49, 0xab, 0x29, 0xb5, 0x39, 0xcf, 0x31, 0x0b, 0x49, 0x4a, 0x3d, 0x11, 0x2a, 0x8a, 0x11, 0x71, 0x1d, 0x22, 0x39, 
0x6d, 0x26, 0xd0, 0x31, 0x0e, 0x66, 0xb0, 0x3d, 0xad, 0x31, 0xaf, 0x49, 0x0f, 0x49, 0x4f, 0x3e, 0x10, 0x36, 0xed, 0x2d, 
0xb1, 0x41, 0xb0, 0x31, 0x92, 0x35, 0xcf, 0x41, 0xcb, 0x41, 0x6f, 0x35, 0x70, 0x35, 0xca, 0x3d, 0xf0, 0x39, 0x91, 0x41, 
0x2a, 0x56, 0x4b, 0x2a, 0x8f, 0x2d, 0xcf, 0x41, 0x11, 0x36, 0x6d, 0x39, 0x8d, 0x2d, 0xe9, 0x41, 0x11, 0x46, 0x6b, 0x39, 
0xcd, 0x45, 0xd3, 0x39, 0xf2, 0x39, 0xcf, 0x39, 0x71, 0x35, 0xef, 0x2d, 0xf1, 0x2d, 0xab, 0x2d, 0xeb, 0x31, 0xb0, 0x49, 
0x2c, 0x3e, 0x6f, 0x39, 0x0c, 0x3a, 0x8b, 0x39, 0x6f, 0x35, 0x2e, 0x26, 0x6d, 0x31, 0xad, 0x35, 0xce, 0x31, 0xef, 0x3d, 
0xaf, 0x4d, 0xb3, 0x35, 0x8d, 0x4d, 0xb1, 0x2d, 0x6e, 0x31, 0xea, 0x39, 0xf0, 0x41, 0xf1, 0x39, 0x8d, 0x3e, 0x6c, 0x42, 
0xaf, 0x29, 0x93, 0x55, 0x8d, 0x55, 0x8d, 0x31, 0xc9, 0x35, 0xb0, 0x32, 0xcb, 0x2d, 0xcc, 0x41, 0x8d, 0x29, 0xca, 0x31, 
0x10, 0x3e, 0x52, 0x41, 0x2f, 0x3e, 0xd1, 0x55, 0xa9, 0x1d, 0xad, 0x35, 0xcf, 0x29, 0x2f, 0x2e, 0x0e, 0x3e, 0x8d, 0x3d, 
0xce, 0x25, 0xce, 0x3d, 0xaf, 0x45, 0xcc, 0x41, 0x4e, 0x3d, 0x4f, 0x31, 0xe9, 0x31, 0xcc, 0x41, 0xeb, 0x31, 0x0a, 0x3a, 
0xce, 0x35, 0x8d, 0x41, 0xe8, 0x41, 0x10, 0x36, 0xd1, 0x55, 0x07, 0x46, 0xb3, 0x3d, 0x0c, 0x42, 0xd3, 0x25, 0xd0, 0x3d, 
0x31, 0x2a, 0x8f, 0x2d, 0x92, 0x45, 0x6d, 0x51, 0x4c, 0x3e, 0x0f, 0x3a, 0x4b, 0x35, 0x51, 0x45, 0x2f, 0x3a, 0x2f, 0x49, 
0xae, 0x29, 0x6a, 0x49, 0xcd, 0x35, 0x34, 0x32, 0x10, 0x1e, 0xaf, 0x3d, 0xac, 0x3d, 0x6e, 0x35, 0xf0, 0x31, 0xac, 0x2e, 
0xb1, 0x29, 0x2f, 0x42, 0x6d, 0x25, 0xef, 0x28, 0x6f, 0x35, 0x4e, 0x29, 0xb0, 0x49, 0x2b, 0x29, 0x90, 0x45, 0x2d, 0x32, 
0xcc, 0x49, 0xed, 0x39, 0x8b, 0x41, 0xa8, 0x35, 0x8c, 0x35, 0x0e, 0x3a, 0xe8, 0x41, 0x0b, 0x2e, 0xf4, 0x2d, 0x2b, 0x3e, 
0x4f, 0x1d, 0x8e, 0x31, 0x6b, 0x3d, 0xb1, 0x45, 0xca, 0x39, 0x0d, 0x3e, 0x0b, 0x3d, 0x27, 0x42, 0xcc, 0x32, 0x30, 0x4e, 
0xb1, 0x49, 0x6c, 0x45, 0x4c, 0x2a, 0x8b, 0x2d, 0x88, 0x35, 0xec, 0x2d, 0x0e, 0x42, 0x4c, 0x52, 0xeb, 0x45, 0x0d, 0x35, 
0xd1, 0x3d, 0x70, 0x31, 0x59, 0x2d, 0x6f, 0x31, 0x2e, 0x3a, 0xa7, 0x3e, 0x8e, 0x4d, 0xaf, 0x3d, 0x70, 0x56, 0x2d, 0x1a, 
0x4d, 0x31, 0x28, 0x31, 0x0c, 0x2e, 0x30, 0x36, 0xaa, 0x35, 0xca, 0x41, 0x51, 0x3a, 0xf2, 0x31, 0xf0, 0x4d, 0xea, 0x41, 
0xc7, 0x45, 0x2d, 0x3a, 0x8b, 0x25, 0x70, 0x39, 0x88, 0x31, 0x8c, 0x4d, 0xcc, 0x12, 0xcd, 0x35, 0xa5, 0x31, 0x51, 0x55, 
0xec, 0x4d, 0x58, 0x3e, 0x8b, 0x51, 0xca, 0x31, 0xec, 0x15, 0x07, 0x2e, 0x4a, 0x35, 0xec, 0x31, 0x6a, 0x26, 0xf1, 0x29, 
0x6e, 0x3d, 0xeb, 0x31, 0x0a, 0x2e, 0x4f, 0x35, 0xea, 0x2d, 0x50, 0x2d, 0xd0, 0x3d, 0xcb, 0x39, 0xad, 0x35, 0xce, 0x29, 
0xf0, 0x2d, 0xca, 0x41, 0xed, 0x39, 0xed, 0x41, 0x6d, 0x31, 0x4f, 0x3d, 0x6f, 0x3d, 0xf0, 0x39, 0xce, 0x2d, 0x6b, 0x3d, 
0xaf, 0x41, 0x6d, 0x31, 0xcd, 0x39, 0x4a, 0x3d, 0x4b, 0x41, 0x8a, 0x31, 0xcb, 0x31, 0xef, 0x2d, 0x6a, 0x35, 0x8a, 0x39, 
0x8e, 0x3d, 0x4e, 0x29, 0x6e, 0x35, 0xae, 0x31, 0x6a, 0x31, 0x8f, 0x41, 0xaa, 0x35, 0x4c, 0x29, 0xed, 0x41, 0x6b, 0x3d, 
0xee, 0x31, 0xeb, 0x2d, 0xce, 0x35, 0x6e, 0x35, 0xae, 0x2d, 0x4b, 0x39, 0x8a, 0x35, 0xd0, 0x39, 0x2e, 0x31, 0xaf, 0x39, 
0x4e, 0x31, 0x4d, 0x35, 0x90, 0x31, 0xce, 0x35, 0xed, 0x3d, 0xec, 0x39, 0xec, 0x2d, 0xcd, 0x31, 0xac, 0x2d, 0x6e, 0x41, 
0x8b, 0x29, 0xcc, 0x29, 0xf0, 0x31, 0xcc, 0x3d, 0xf0, 0x29, 0xcf, 0x31, 0x0c, 0x32, 0x8c, 0x39, 0x8e, 0x3d, 0xed, 0x31, 
0x4b, 0x39, 0xad, 0x2d, 0x6d, 0x35, 0xaa, 0x41, 0xae, 0x39, 0x4d, 0x35, 0xce, 0x31, 0x8b, 0x3d, 0xad, 0x29, 0x6b, 0x3d, 
0x4f, 0x35, 0xeb, 0x31, 0xee, 0x31, 0xad, 0x29, 0x8d, 0x35, 0x8f, 0x3d, 0xed, 0x2d, 0x4b, 0x29, 0x4b, 0x39, 0x8d, 0x3d, 
0x6a, 0x2d, 0x0e, 0x32, 0xee, 0x29, 0x6a, 0x35, 0xcb, 0x31, 0x8b, 0x2d, 0xcd, 0x29, 0xea, 0x31, 0x0e, 0x2a, 0xa9, 0x29, 
0x6f, 0x41, 0x8c, 0x39, 0x70, 0x35, 0xf0, 0x41, 0x4d, 0x2d, 0xca, 0x31, 0xae, 0x31, 0xb0, 0x31, 0x6f, 0x41, 0x6d, 0x35, 
0x8c, 0x41, 0xae, 0x2d, 0xeb, 0x29, 0xce, 0x2d, 0x0c, 0x2e, 0x10, 0x3a, 0x8f, 0x3d, 0x8d, 0x2d, 0x4d, 0x41, 0x90, 0x35, 
0x0e, 0x2e, 0x30, 0x29, 0x8b, 0x31, 0xce, 0x39, 0x0d, 0x36, 0xef, 0x31, 0x4c, 0x31, 0xcf, 0x31, 0xaf, 0x31, 0xcc, 0x41, 
0x6f, 0x3d, 0xeb, 0x35, 0xca, 0x39, 0x8b, 0x29, 0x8e, 0x2d, 0xed, 0x2d, 0xae, 0x25, 0x90, 0x39, 0xab, 0x39, 0xa9, 0x2d, 
0x49, 0x31, 0x4a, 0x29, 0xcd, 0x2d, 0xef, 0x31, 0xae, 0x31, 0x8e, 0x35, 0xed, 0x3d, 0x6a, 0x3d, 0x6c, 0x39, 0xd0, 0x29, 
0xce, 0x3d, 0xb0, 0x39, 0xeb, 0x35, 0x6c, 0x39, 0x8a, 0x3d, 0x6c, 0x41, 0xaf, 0x29, 0x4a, 0x35, 0x8a, 0x3d, 0xf0, 0x3d, 
0xaa, 0x29, 0x8f, 0x31, 0xab, 0x29, 0xca, 0x35, 0xcb, 0x2d, 0xcf, 0x41, 0x6f, 0x3d, 0x8b, 0x29, 0xad, 0x39, 0xea, 0x29, 
0x6f, 0x35, 0xca, 0x41, 0x0d, 0x3a, 0x6d, 0x35, 0xab, 0x2d, 0x6b, 0x3d, 0xcd, 0x29, 0x0f, 0x3a, 0xad, 0x29, 0x90, 0x41, 
0x0b, 0x3a, 0x4d, 0x41, 0xac, 0x3d, 0x8b, 0x39, 0xcd, 0x2d, 0x8c, 0x3d, 0x0b, 0x36, 0xef, 0x29, 0xaa, 0x3d, 0x6e, 0x35, 
0x4b, 0x2d, 0x4c, 0x29, 0xef, 0x31, 0x91, 0x49, 0xee, 0x38, 0x8a, 0x31, 0xcf, 0x3d, 0xcc, 0x1d, 0xaa, 0x35, 0x4e, 0x31, 
0xd0, 0x35, 0x8e, 0x3e, 0x2e, 0x3e, 0xaf, 0x39, 0x0e, 0x2a, 0xed, 0x45, 0xb0, 0x39, 0x68, 0x49, 0xb1, 0x2d, 0xab, 0x39, 
0xe8, 0x3c, 0xef, 0x4d, 0x0f, 0x32, 0xeb, 0x39, 0x51, 0x36, 0xad, 0x41, 0x0f, 0x2e, 0xab, 0x41, 0x0e, 0x3e, 0xed, 0x3d, 
0x0d, 0x36, 0xae, 0x2d, 0x8d, 0x3d, 0xf0, 0x31, 0xb0, 0x3d, 0xce, 0x31, 0xec, 0x45, 0x4d, 0x42, 0x33, 0x42, 0xd1, 0x51, 
0xce, 0x29, 0x8d, 0x45, 0x0d, 0x36, 0x6f, 0x3e, 0xcd, 0x2d, 0xcb, 0x41, 0x33, 0x42, 0x6b, 0x3a, 0x8c, 0x3d, 0x6f, 0x3a, 
0x30, 0x29, 0x0d, 0x46, 0x0d, 0x39, 0x4b, 0x2d, 0xd0, 0x41, 0xcd, 0x4d, 0x73, 0x41, 0x94, 0x29, 0xb1, 0x3d, 0xcd, 0x49, 
0xb0, 0x45, 0x8e, 0x41, 0x4e, 0x31, 0xd0, 0x41, 0x91, 0x45, 0xcf, 0x3d, 0xb3, 0x41, 0x72, 0x42, 0x94, 0x4d, 0xcf, 0x35, 
0xb2, 0x41, 0x8e, 0x35, 0x6f, 0x41, 0xf1, 0x35, 0x4b, 0x41, 0xca, 0x39, 0x6b, 0x46, 0xd0, 0x41, 0xee, 0x3d, 0xee, 0x3d, 
0x70, 0x49, 0xcf, 0x35, 0x91, 0x2d, 0x70, 0x31, 0x8d, 0x32, 0x12, 0x3a, 0x4e, 0x46, 0xce, 0x3d, 0x32, 0x26, 0xef, 0x3d, 
0xaa, 0x39, 0xcb, 0x29, 0x10, 0x3e, 0xeb, 0x35, 0xad, 0x35, 0xaf, 0x39, 0x6c, 0x45, 0xcc, 0x39, 0xac, 0x49, 0x8c, 0x35, 
0xb2, 0x31, 0x8b, 0x2e, 0x8f, 0x31, 0x2c, 0x3e, 0xab, 0x3d, 0xaa, 0x31, 0x4b, 0x42, 0xe5, 0x31, 0x72, 0x49, 0x70, 0x36, 
0x34, 0x36, 0x88, 0x4e, 0xaf, 0x41, 0xca, 0x3d, 0x0b, 0x2e, 0xce, 0x39, 0x0f, 0x3e, 0x0b, 0x36, 0xce, 0x39, 0x52, 0x42, 
0x8c, 0x2d, 0xd4, 0x31, 0xf0, 0x3d, 0xd0, 0x3d, 0x2f, 0x3a, 0x6d, 0x41, 0x0f, 0x26, 0x14, 0x42, 0x0e, 0x4e, 0xb3, 0x31, 
0xad, 0x49, 0x92, 0x36, 0x8a, 0x41, 0xd1, 0x31, 0xf4, 0x49, 0xcc, 0x35, 0x70, 0x39, 0x0e, 0x3e, 0xaf, 0x45, 0x90, 0x31, 
0x0f, 0x52, 0xd0, 0x39, 0x90, 0x35, 0x2b, 0x36, 0x6b, 0x31, 0xed, 0x3d, 0xf0, 0x3d, 0xeb, 0x35, 0x34, 0x4e, 0x6d, 0x46, 
0x51, 0x3e, 0x6e, 0x35, 0xd2, 0x2d, 0x11, 0x42, 0xf0, 0x39, 0xae, 0x2a, 0x89, 0x39, 0x6f, 0x29, 0xb3, 0x29, 0xd4, 0x39, 
0x10, 0x1e, 0x50, 0x45, 0xef, 0x1d, 0x2b, 0x5a, 0xb2, 0x4d, 0x6f, 0x42, 0xad, 0x35, 0x72, 0x49, 0xb0, 0x29, 0xca, 0x2d, 
0xae, 0x4d, 0x29, 0x3a, 0xec, 0x3d, 0x4d, 0x32, 0xb1, 0x3d, 0xf0, 0x31, 0xf1, 0x41, 0x2d, 0x2e, 0xd5, 0x35, 0xab, 0x35, 
0x6f, 0x45, 0x2c, 0x2e, 0x13, 0x2a, 0xb1, 0x3d, 0x91, 0x35, 0xcc, 0x29, 0x0e, 0x36, 0x2e, 0x3e, 0xcb, 0x55, 0x10, 0x2a, 
0xb0, 0x21, 0x4e, 0x31, 0x94, 0x3d, 0x52, 0x36, 0x4e, 0x2d, 0xab, 0x3d, 0x8a, 0x3d, 0x70, 0x29, 0xcf, 0x3d, 0x8b, 0x39, 
0x6d, 0x41, 0x8b, 0x31, 0x6b, 0x41, 0x4f, 0x2d, 0xea, 0x39, 0x8b, 0x41, 0x0e, 0x3e, 0xb0, 0x35, 0x4e, 0x2d, 0x4c, 0x29, 
0x8b, 0x2d, 0x6d, 0x35, 0x6d, 0x31, 0x31, 0x2a, 0xab, 0x39, 0x6b, 0x41, 0xcf, 0x39, 0x6e, 0x29, 0x0c, 0x2a, 0xca, 0x39, 
0x8c, 0x35, 0x4a, 0x39, 0x8e, 0x3d, 0xaa, 0x41, 0x4a, 0x2d, 0xab, 0x3d, 0x6c, 0x2d, 0xef, 0x39, 0xea, 0x39, 0xca, 0x31, 
0x8d, 0x41, 0xaa, 0x3d, 0xce, 0x3d, 0xaf, 0x2d, 0x8a, 0x2d, 0xcd, 0x39, 0xef, 0x35, 0x51, 0x39, 0x49, 0x3d, 0x90, 0x39, 
0x6a, 0x31, 0x6d, 0x39, 0x2c, 0x31, 0xaa, 0x41, 0xad, 0x31, 0xce, 0x39, 0x8c, 0x35, 0x4b, 0x35, 0x8e, 0x39, 0xd0, 0x2d, 
0xe9, 0x29, 0x6b, 0x35, 0x90, 0x3d, 0xed, 0x39, 0x8f, 0x25, 0xcd, 0x3d, 0x4c, 0x39, 0x6e, 0x31, 0xee, 0x35, 0xcc, 0x39, 
0xc9, 0x29, 0x6c, 0x39, 0x4b, 0x31, 0x4b, 0x35, 0xf0, 0x35, 0x8c, 0x35, 0x6f, 0x2d, 0x10, 0x3e, 0xae, 0x3d, 0x8e, 0x41, 
0x8d, 0x2d, 0x4d, 0x29, 0xaa, 0x29, 0xca, 0x31, 0x6b, 0x39, 0x4f, 0x31, 0x4c, 0x31, 0x0c, 0x36, 0x4a, 0x3d, 0xae, 0x41, 
0xb0, 0x39, 0xac, 0x39, 0x4b, 0x3d, 0xab, 0x29, 0x8b, 0x29, 0xaf, 0x31, 0x8b, 0x31, 0x89, 0x31, 0x6f, 0x31, 0xea, 0x39, 
0x0c, 0x36, 0x6c, 0x29, 0x8b, 0x35, 0x4e, 0x35, 0xb0, 0x31, 0xf0, 0x39, 0x8e, 0x31, 0xcd, 0x35, 0xec, 0x31, 0xed, 0x29, 
0x6e, 0x29, 0x4b, 0x41, 0x8a, 0x29, 0x0d, 0x3d, 0x6c, 0x35, 0xcf, 0x39, 0x6d, 0x2d, 0xaf, 0x3d, 0x10, 0x3d, 0x4e, 0x2d, 
0x0b, 0x42, 0xe8, 0x1d, 0x8e, 0x2d, 0x4c, 0x39, 0xd0, 0x41, 0xab, 0x31, 0x2f, 0x42, 0x4e, 0x2d, 0xce, 0x41, 0xc9, 0x39, 
0x0c, 0x3e, 0x6a, 0x31, 0xaf, 0x3d, 0xeb, 0x3d, 0x90, 0x31, 0xab, 0x35, 0xae, 0x39, 0x6f, 0x3d, 0xae, 0x35, 0x8f, 0x39, 
0x09, 0x2a, 0x0f, 0x3e, 0x6f, 0x29, 0xae, 0x39, 0x6e, 0x2d, 0xab, 0x29, 0xeb, 0x3d, 0x4e, 0x2d, 0xed, 0x31, 0xae, 0x39, 
0x49, 0x29, 0x6f, 0x39, 0x0e, 0x26, 0x4f, 0x2d, 0xee, 0x41, 0xcf, 0x39, 0xb0, 0x3d, 0xce, 0x31, 0x11, 0x36, 0xeb, 0x29, 
0xcb, 0x3d, 0x8a, 0x31, 0x4a, 0x39, 0x50, 0x31, 0x0e, 0x32, 0x4b, 0x31, 0xec, 0x35, 0xaa, 0x3d, 0x2c, 0x3a, 0x8a, 0x35, 
0xec, 0x2d, 0xb0, 0x35, 0xec, 0x31, 0x6c, 0x3d, 0xec, 0x35, 0x8b, 0x35, 0x09, 0x36, 0xee, 0x25, 0x4c, 0x29, 0x8c, 0x3d, 
0xc8, 0x2d, 0x8b, 0x35, 0x2a, 0x32, 0xcb, 0x35, 0x4d, 0x39, 0x2e, 0x45, 0x0d, 0x3a, 0x8e, 0x31, 0x6c, 0x31, 0xaa, 0x2d, 
0xcb, 0x2d, 0xee, 0x3d, 0x8c, 0x31, 0x0d, 0x32, 0x2c, 0x2a, 0xcf, 0x35, 0xcd, 0x41, 0xcf, 0x39, 0x2f, 0x39, 0x10, 0x42, 
0x6a, 0x29, 0x2c, 0x29, 0x8f, 0x35, 0xb0, 0x35, 0x8d, 0x3d, 0x4b, 0x3a, 0xaf, 0x3d, 0xb0, 0x39, 0x91, 0x25, 0x6f, 0x35, 
0xcd, 0x39, 0x48, 0x45, 0xaf, 0x2c, 0xef, 0x29, 0x4a, 0x41, 0xaf, 0x3d, 0x8d, 0x35, 0xee, 0x21, 0x0f, 0x32, 0xa9, 0x31, 
0xab, 0x39, 0xd0, 0x31, 0xef, 0x25, 0xa9, 0x2d, 0xad, 0x3d, 0x8b, 0x41, 0x8c, 0x35, 0xab, 0x25, 0xae, 0x39, 0x6f, 0x25, 
0x71, 0x29, 0x11, 0x32, 0xec, 0x35, 0x2b, 0x35, 0xca, 0x29, 0xab, 0x31, 0x8c, 0x35, 0x51, 0x36, 0xef, 0x11, 0xcb, 0x41, 
0x4c, 0x25, 0xcb, 0x29, 0x4b, 0x31, 0x2b, 0x36, 0x2d, 0x35, 0xee, 0x2d, 0x6b, 0x35, 0xca, 0x30, 0x0d, 0x3a, 0x29, 0x2e, 
0x52, 0x25, 0x6e, 0x2a, 0x2f, 0x49, 0xee, 0x38, 0x4d, 0x3d, 0x69, 0x39, 0xab, 0x35, 0x73, 0x29, 0x2d, 0x29, 0x89, 0x29, 
0xee, 0x3d, 0xae, 0x19, 0x93, 0x49, 0x2e, 0x2e, 0xeb, 0x3d, 0x6c, 0x39, 0x4e, 0x45, 0x0c, 0x36, 0x0e, 0x46, 0x0b, 0x42, 
0xea, 0x35, 0x93, 0x3d, 0xf2, 0x2d, 0x8b, 0x41, 0x11, 0x42, 0x6d, 0x29, 0x70, 0x2d, 0x6f, 0x3d, 0xec, 0x39, 0x11, 0x36, 
0xae, 0x35, 0x90, 0x31, 0xef, 0x2c, 0xd0, 0x39, 0x87, 0x35, 0xac, 0x2d, 0xeb, 0x35, 0x67, 0x39, 0x8e, 0x3d, 0xac, 0x35, 
0xcc, 0x39, 0x50, 0x25, 0xad, 0x3d, 0x6b, 0x25, 0xab, 0x39, 0x09, 0x46, 0x68, 0x31, 0x4c, 0x3a, 0x0e, 0x3e, 0x4a, 0x29, 
0xcd, 0x35, 0xe8, 0x25, 0x4b, 0x51, 0xc9, 0x39, 0xb1, 0x3d, 0xf0, 0x29, 0x0d, 0x36, 0x6b, 0x2d, 0x2e, 0x2e, 0x0d, 0x2a, 
0x4a, 0x3a, 0x2a, 0x3a, 0xae, 0x2d, 0x91, 0x49, 0x4c, 0x2d, 0x4d, 0x2e, 0x2b, 0x29, 0x6c, 0x41, 0x4e, 0x1d, 0xcd, 0x39, 
0xcc, 0x29, 0xad, 0x39, 0x2b, 0x36, 0x6f, 0x39, 0xae, 0x45, 0x31, 0x46, 0x47, 0x55, 0x6d, 0x39, 0x0c, 0x52, 0xcc, 0x41, 
0x8d, 0x41, 0x8e, 0x31, 0xf0, 0x3d, 0x8f, 0x41, 0x8f, 0x3a, 0x50, 0x41, 0x09, 0x39, 0xac, 0x2d, 0xa6, 0x25, 0xef, 0x39, 
0x11, 0x2d, 0xaa, 0x31, 0xd2, 0x39, 0x6d, 0x31, 0x90, 0x35, 0x2e, 0x21, 0xb0, 0x15, 0x4d, 0x4a, 0xac, 0x35, 0xb0, 0x29, 
0x22, 0x35, 0xeb, 0x35, 0x10, 0x35, 0xd7, 0x38, 0x6b, 0x15, 0x0a, 0x22, 0xad, 0x25, 0xce, 0x4d, 0x4e, 0x3d, 0xf2, 0x3a, 
0xb1, 0x35, 0x87, 0x45, 0x4c, 0x3d, 0x4e, 0x2e, 0x8f, 0x39, 0x48, 0x31, 0x6e, 0x21, 0x6c, 0x39, 0xd3, 0x3d, 0x70, 0x1d, 
0x10, 0x42, 0xac, 0x2d, 0xd1, 0x41, 0x10, 0x32, 0x8b, 0x5c, 0x4f, 0x39, 0xd1, 0x3d, 0xac, 0x25, 0x8c, 0x21, 0x05, 0x35, 
0x6e, 0x22, 0xf0, 0x41, 0x2a, 0x5a, 0x74, 0x39, 0x70, 0x29, 0xce, 0x41, 0x53, 0x39, 0x08, 0x36, 0xea, 0x41, 0x0e, 0x3a, 
0x6c, 0x25, 0x0c, 0x3a, 0x8f, 0x35, 0x0d, 0x2d, 0xcf, 0x45, 0xd1, 0x3d, 0xeb, 0x41, 0xcc, 0x39, 0xae, 0x45, 0xb1, 0x2d, 
0x30, 0x15, 0x4f, 0x49, 0x4b, 0x45, 0xac, 0x39, 0x2c, 0x35, 0xad, 0x31, 0xad, 0x45, 0xd2, 0x3d, 0xab, 0x2d, 0xed, 0x19, 
0xcf, 0x31, 0xa7, 0x45, 0xea, 0x41, 0x90, 0x2d, 0xec, 0x2d, 0x6b, 0x25, 0xf1, 0x2d, 0x71, 0x29, 0x6d, 0x49, 0x0f, 0x36, 
0xac, 0x49, 0xae, 0x35, 0x8d, 0x2d, 0x70, 0x35, 0x8d, 0x31, 0xef, 0x38, 0x4d, 0x3d, 0x6f, 0x35, 0xaa, 0x3d, 0x32, 0x32, 
0x0f, 0x26, 0x67, 0x31, 0xcc, 0x21, 0xad, 0x29, 0x4e, 0x45, 0xcb, 0x2d, 0xca, 0x3d, 0x0a, 0x36, 0x4d, 0x29, 0xcb, 0x2c, 
0xef, 0x29, 0xe8, 0x1d, 0xd0, 0x15, 0x10, 0x32, 0x0e, 0x35, 0xcc, 0x34, 0xaf, 0x31, 0x0b, 0x36, 0x6b, 0x39, 0x94, 0x41, 
0xcf, 0x38, 0xcb, 0x31, 0x6d, 0x2d, 0xac, 0x2d, 0x94, 0x59, 0xcf, 0x41, 0x8a, 0x39, 0x70, 0x3d, 0x2e, 0x31, 0xed, 0x39, 
0x8a, 0x49, 0xd0, 0x41, 0x6d, 0x2a, 0x70, 0x3d, 0x4d, 0x2e, 0x6d, 0x39, 0x32, 0x42, 0xae, 0x35, 0xea, 0x41, 0xca, 0x3d, 
0x4c, 0x46, 0x70, 0x49, 0x10, 0x46, 0x2b, 0x31, 0x4e, 0x21, 0x71, 0x41, 0x68, 0x49, 0x0f, 0x36, 0xec, 0x31, 0x69, 0x39, 
0xb1, 0x29, 0x2b, 0x3e, 0x4b, 0x3d, 0x6a, 0x31, 0x0d, 0x35, 0x70, 0x39, 0xed, 0x3d, 0x4a, 0x32, 0x2d, 0x39, 0x0a, 0x3e, 
0x8d, 0x3d, 0x8d, 0x39, 0x0b, 0x3a, 0x27, 0x39, 0x10, 0x4a, 0xac, 0x25, 0x6e, 0x49, 0xcb, 0x2d, 0x0c, 0x36, 0x6c, 0x31, 
0xcb, 0x31, 0x6f, 0x1d, 0x70, 0x4e, 0xeb, 0x31, 0xad, 0x35, 0x32, 0x5a, 0xcb, 0x21, 0x11, 0x36, 0xcb, 0x39, 0x8e, 0x49, 
0x2a, 0x1d, 0xce, 0x29, 0x8d, 0x21, 0xd3, 0x2d, 0x50, 0x32, 0x0f, 0x2e, 0xef, 0x39, 0xed, 0x41, 0xe6, 0x45, 0x0f, 0x3e, 
0x88, 0x3d, 0x8c, 0x45, 0x4f, 0x2d, 0x8b, 0x31, 0xb1, 0x2d, 0x70, 0x31, 0xaf, 0x41, 0x4e, 0x3d, 0x4a, 0x34, 0x4e, 0x25, 
0xc7, 0x29, 0xd3, 0x31, 0x70, 0x31, 0xed, 0x41, 0x2d, 0x36, 0x4e, 0x35, 0xea, 0x31, 0x0d, 0x19, 0x8c, 0x25, 0x2b, 0x32, 
0xc7, 0x31, 0x0b, 0x36, 0x01, 0x3a, 0xc9, 0x39, 0x91, 0x29, 0xd2, 0x3c, 0x6d, 0x19, 0xcf, 0x2d, 0x8b, 0x21, 0x6d, 0x4d, 
0x6c, 0x45, 0xf2, 0x36, 0x0e, 0x39, 0x6a, 0x45, 0x6e, 0x39, 0x4a, 0x2e, 0xc9, 0x31, 0x0b, 0x32, 0x0b, 0x1e, 0x0e, 0x31, 
0x72, 0x3d, 0xea, 0x2c, 0xf4, 0x45, 0xcc, 0x39, 0x91, 0x2d, 0x6d, 0x21, 0x30, 0x61, 0x6c, 0x3d, 0xf2, 0x29, 0x29, 0x1a, 
0x0f, 0x22, 0x25, 0x29, 0xcf, 0x21, 0x0f, 0x32, 0x0b, 0x66, 0xd3, 0x2d, 0x70, 0x35, 0xb0, 0x49, 0xcf, 0x38, 0xab, 0x2d, 
0x6c, 0x35, 0xcf, 0x35, 0x71, 0x3d, 0x4e, 0x42, 0xad, 0x35, 0xed, 0x35, 0xad, 0x35, 0xcf, 0x35, 0x4b, 0x29, 0x8c, 0x35, 
0x8b, 0x2d, 0xb1, 0x3d, 0xcd, 0x55, 0x50, 0x32, 0x8d, 0x3d, 0x70, 0x31, 0x2f, 0x36, 0xaa, 0x2d, 0x30, 0x2a, 0xef, 0x29, 
0xec, 0x49, 0x4b, 0x3d, 0xef, 0x4d, 0x2e, 0x3e, 0x71, 0x2d, 0x4c, 0x31, 0x2e, 0x3a, 0x0c, 0x2e, 0x8d, 0x31, 0x0c, 0x2e, 
0x4f, 0x3d, 0x6c, 0x49, 0x2c, 0x3a, 0x4e, 0x35, 0x4b, 0x45, 0xaf, 0x3d, 0x6f, 0x39, 0x0f, 0x2e, 0xad, 0x2d, 0xea, 0x31, 
0x91, 0x35, 0x4d, 0x3d, 0x8d, 0x51, 0xf3, 0x25, 0xcc, 0x39, 0xee, 0x2d, 0x0b, 0x36, 0x8d, 0x39, 0x4c, 0x3a, 0x0c, 0x4e, 
0x2b, 0x46, 0x8a, 0x2a, 0xb1, 0x39, 0x11, 0x46, 0x0c, 0x5a, 0x2c, 0x2d, 0xaa, 0x3d, 0xac, 0x2e, 0xeb, 0x45, 0x50, 0x29, 
0x0d, 0x32, 0x09, 0x3a, 0x2c, 0x46, 0xae, 0x2d, 0xce, 0x35, 0xf1, 0x41, 0xcc, 0x21, 0xed, 0x35, 0x0f, 0x36, 0xaf, 0x29, 
0xcd, 0x35, 0xad, 0x41, 0xce, 0x29, 0x0a, 0x2a, 0x8d, 0x31, 0xe9, 0x41, 0xaa, 0x45, 0xef, 0x49, 0x89, 0x2d, 0x8c, 0x35, 
0xea, 0x3d, 0x10, 0x3e, 0x8a, 0x31, 0x8f, 0x2d, 0x49, 0x29, 0xed, 0x41, 0xf2, 0x49, 0x68, 0x41, 0x90, 0x35, 0xee, 0x39, 
0x92, 0x29, 0x72, 0x3d, 0xae, 0x41, 0x6f, 0x3d, 0xcf, 0x45, 0xce, 0x51, 0xee, 0x3d, 0xed, 0x31, 0xad, 0x31, 0xd2, 0x45, 
0x51, 0x36, 0x72, 0x3d, 0x6e, 0x31, 0x70, 0x49, 0xef, 0x35, 0xd1, 0x35, 0x8f, 0x2d, 0xce, 0x41, 0xcc, 0x2d, 0x4b, 0x3d, 
0x91, 0x35, 0x8d, 0x2e, 0x91, 0x35, 0xf1, 0x41, 0x0f, 0x21, 0xeb, 0x38, 0x6f, 0x2d, 0x4e, 0x25, 0xce, 0x51, 0xea, 0x39, 
0x2a, 0x3a, 0xab, 0x39, 0x2f, 0x46, 0x4f, 0x39, 0x6c, 0x49, 0x68, 0x39, 0x30, 0x49, 0xa9, 0x29, 0x0c, 0x3e, 0x6f, 0x35, 
0xf6, 0x19, 0xca, 0x3d, 0xd2, 0x31, 0x8c, 0x31, 0xed, 0x41, 0x52, 0x39, 0x8e, 0x25, 0xeb, 0x35, 0x8b, 0x29, 0x29, 0x36, 
0x11, 0x2f, 0xcc, 0x49, 0x34, 0x3e, 0x09, 0x42, 0x08, 0x3e, 0x0f, 0x2e, 0x2a, 0x3d, 0x70, 0x3d, 0x8c, 0x45, 0x6f, 0x5a, 
0xed, 0x55, 0xad, 0x38, 0xd0, 0x45, 0x4d, 0x2d, 0xb7, 0x39, 0x6e, 0x2d, 0xae, 0x31, 0x45, 0x2e, 0xef, 0x4d, 0x8a, 0x4d, 
0x2e, 0x4e, 0xd0, 0x29, 0xd0, 0x35, 0x08, 0x29, 0xcc, 0x29, 0xb3, 0x3a, 0xcd, 0x35, 0xcb, 0x3d, 0xec, 0x2d, 0x8d, 0x2d, 
0xce, 0x55, 0x29, 0x4a, 0x26, 0x46, 0xae, 0x4e, 0xc8, 0x31, 0xcd, 0x3d, 0xe8, 0x35, 0xed, 0x45, 0x2d, 0x0e, 0xab, 0x39, 
0xe8, 0x29, 0x2e, 0x4d, 0xef, 0x3d, 0xf4, 0x2d, 0x8f, 0x49, 0xf0, 0x25, 0xb0, 0x15, 0xa9, 0x31, 0x6f, 0x41, 0x0f, 0x3a, 
0x0b, 0x26, 0xce, 0x2d, 0xab, 0x31, 0xd0, 0x4d, 0x8d, 0x3d, 0x6a, 0x3d, 0x89, 0x41, 0x2c, 0x31, 0x4d, 0x31, 0x0d, 0x3e, 
0xcf, 0x31, 0x2f, 0x42, 0x0c, 0x2e, 0xec, 0x35, 0x4d, 0x2d, 0x2c, 0x3d, 0xab, 0x31, 0xed, 0x45, 0x30, 0x39, 0x4d, 0x41, 
0x2c, 0x41, 0x72, 0x39, 0x29, 0x41, 0x0e, 0x1e, 0x6f, 0x21, 0x8b, 0x35, 0x28, 0x2e, 0xf0, 0x41, 0x8f, 0x29, 0x8d, 0x39, 
0xac, 0x31, 0x8c, 0x41, 0xed, 0x49, 0x8e, 0x25, 0xf0, 0x3d, 0xec, 0x31, 0xef, 0x3d, 0x8d, 0x41, 0x0c, 0x2e, 0x0b, 0x49, 
0xaa, 0x35, 0xf0, 0x35, 0x0a, 0x3a, 0x2b, 0x2a, 0x8c, 0x1d, 0xca, 0x49, 0x2b, 0x21, 0x8c, 0x3d, 0x8a, 0x35, 0xb0, 0x35, 
0x0f, 0x31, 0xad, 0x35, 0x0e, 0x2d, 0x0f, 0x35, 0xed, 0x41, 0xee, 0x1d, 0xf1, 0x15, 0x30, 0x32, 0xae, 0x41, 0xee, 0x28, 
0x0c, 0x2d, 0x4f, 0x29, 0x8e, 0x45, 0xd1, 0x45, 0xcc, 0x30, 0xaa, 0x31, 0xab, 0x35, 0x4c, 0x15, 0x2e, 0x59, 0xaf, 0x29, 
0xcf, 0x3d, 0x50, 0x4d, 0x0a, 0x36, 0xf1, 0x31, 0x0b, 0x42, 0xae, 0x39, 0x8b, 0x39, 0x32, 0x2e, 0xb1, 0x39, 0xab, 0x29, 
0x8d, 0x49, 0xf3, 0x25, 0xf0, 0x29, 0x4f, 0x35, 0x0b, 0x3a, 0x91, 0x45, 0x32, 0x32, 0xeb, 0x28, 0x4f, 0x1d, 0x11, 0x32, 
0x8a, 0x49, 0xef, 0x41, 0xe8, 0x49, 0xec, 0x3d, 0x4d, 0x2d, 0xcb, 0x35, 0x0d, 0x42, 0x6a, 0x21, 0xeb, 0x2c, 0xab, 0x35, 
0x8c, 0x31, 0xeb, 0x3d, 0x2c, 0x3d, 0xca, 0x25, 0x4f, 0x3d, 0x2b, 0x2e, 0xad, 0x3d, 0x8c, 0x35, 0xcb, 0x51, 0x4a, 0x36, 
0x73, 0x4d, 0x6f, 0x3a, 0xab, 0x35, 0xcf, 0x34, 0xad, 0x35, 0xac, 0x2d, 0x8b, 0x4e, 0x2b, 0x42, 0x8c, 0x41, 0x0e, 0x3e, 
0xad, 0x35, 0xb3, 0x39, 0xd0, 0x29, 0x6e, 0x35, 0xcc, 0x1d, 0xe9, 0x35, 0x8b, 0x25, 0xf3, 0x39, 0x0e, 0x32, 0x73, 0x31, 
0xf3, 0x45, 0x2d, 0x3a, 0x44, 0x51, 0x70, 0x35, 0xe7, 0x4d, 0xec, 0x4d, 0x6d, 0x41, 0xec, 0x2d, 0xef, 0x31, 0x6e, 0x3d, 
0x2c, 0x4a, 0xef, 0x39, 0x69, 0x38, 0xcd, 0x39, 0x07, 0x2a, 0xf1, 0x41, 0x71, 0x31, 0x6a, 0x29, 0x4e, 0x36, 0x11, 0x3e, 
0xf0, 0x31, 0xf0, 0x10, 0xac, 0x2d, 0xce, 0x32, 0xe9, 0x35, 0x0c, 0x42, 0x60, 0x29, 0xa8, 0x41, 0xac, 0x29, 0x35, 0x2d, 
0xe8, 0x19, 0xce, 0x2d, 0x0e, 0x1d, 0xcf, 0x3d, 0xed, 0x31, 0xb2, 0x46, 0x6e, 0x2d, 0x07, 0x2d, 0xf0, 0x31, 0xca, 0x2d, 
0xab, 0x35, 0x6d, 0x35, 0x90, 0x21, 0x31, 0x31, 0x73, 0x31, 0x4b, 0x35, 0x91, 0x3d, 0x2e, 0x32, 0xd4, 0x35, 0xca, 0x31, 
0xac, 0x64, 0x6e, 0x31, 0x76, 0x3d, 0x4c, 0x1a, 0xaf, 0x1d, 0x21, 0x3d, 0x8e, 0x2e, 0x90, 0x45, 0x2b, 0x66, 0x35, 0x2e, 
0x6c, 0x2d, 0x0b, 0x46, 0x2e, 0x41, 0xa9, 0x29, 0x0f, 0x42, 0x2d, 0x42, 0x71, 0x2d, 0xcb, 0x41, 0xb0, 0x41, 0xec, 0x39, 
0x6a, 0x2d, 0xb1, 0x45, 0x8f, 0x41, 0xcc, 0x35, 0x8f, 0x45, 0x4f, 0x31, 0x2d, 0x42, 0x70, 0x3a, 0x2c, 0x36, 0x4f, 0x2d, 
0xf1, 0x35, 0x4a, 0x2d, 0x53, 0x2e, 0x4c, 0x32, 0x2f, 0x42, 0xd0, 0x51, 0x8a, 0x3d, 0xd2, 0x29, 0xf1, 0x45, 0x8f, 0x35, 
0x10, 0x3a, 0x52, 0x29, 0xaa, 0x29, 0xcc, 0x3d, 0xf1, 0x31, 0xec, 0x3d, 0x0e, 0x36, 0xca, 0x49, 0x4d, 0x3d, 0xef, 0x3d, 
0x2e, 0x42, 0x30, 0x3e, 0x4a, 0x31, 0xcd, 0x2d, 0xf2, 0x39, 0xeb, 0x39, 0x8c, 0x5d, 0xb3, 0x29, 0xcc, 0x45, 0xab, 0x41, 
0x50, 0x41, 0xaf, 0x41, 0xb0, 0x3e, 0x6c, 0x35, 0x6c, 0x36, 0x2a, 0x3e, 0x11, 0x3a, 0xce, 0x3d, 0x8a, 0x3d, 0x6d, 0x2d, 
0x0c, 0x32, 0x0e, 0x42, 0xcd, 0x4d, 0xb0, 0x35, 0xaa, 0x3d, 0xca, 0x35, 0x4e, 0x3a, 0xed, 0x3d, 0x71, 0x39, 0x6d, 0x41, 
0xaa, 0x31, 0xcc, 0x2d, 0x0f, 0x3a, 0x2a, 0x3e, 0xee, 0x41, 0xb1, 0x41, 0xf4, 0x39, 0x4d, 0x41, 0xea, 0x45, 0x49, 0x35, 
0x2e, 0x42, 0x90, 0x45, 0x0f, 0x3e, 0xea, 0x35, 0xcc, 0x41, 0x6d, 0x35, 0x8d, 0x45, 0x51, 0x32, 0x4e, 0x3d, 0xf0, 0x2d, 
0x4f, 0x4a, 0x2c, 0x42, 0xb5, 0x39, 0x0e, 0x32, 0x4f, 0x3d, 0xaf, 0x29, 0x0e, 0x32, 0x6e, 0x29, 0x91, 0x45, 0xcc, 0x45, 
0x4d, 0x2e, 0xef, 0x45, 0x6e, 0x35, 0xd0, 0x31, 0xce, 0x2d, 0xf0, 0x4d, 0xcf, 0x31, 0x4a, 0x36, 0xd1, 0x35, 0x12, 0x46, 
0xcb, 0x25, 0x8b, 0x4d, 0x2c, 0x26, 0x8f, 0x39, 0x70, 0x31, 0x2c, 0x26, 0x73, 0x3e, 0xce, 0x45, 0x2e, 0x29, 0xcf, 0x35, 
0x8c, 0x41, 0x89, 0x25, 0xef, 0x41, 0x2e, 0x39, 0xf2, 0x39, 0x6d, 0x36, 0x2d, 0x4e, 0x10, 0x42, 0xeb, 0x45, 0x4f, 0x36, 
0x2f, 0x39, 0x89, 0x31, 0xf0, 0x31, 0x4e, 0x41, 0x96, 0x39, 0x29, 0x3a, 0x8e, 0x29, 0xad, 0x31, 0xd0, 0x39, 0x0c, 0x4a, 
0xf2, 0x35, 0x90, 0x31, 0xcd, 0x35, 0x6b, 0x31, 0xce, 0x3e, 0xed, 0x41, 0xd3, 0x31, 0x90, 0x29, 0x10, 0x42, 0x0e, 0x2a, 
0xb1, 0x35, 0xb2, 0x3d, 0x6f, 0x2d, 0xab, 0x42, 0x0f, 0x52, 0x32, 0x29, 0x15, 0x2e, 0xcd, 0x29, 0xda, 0x45, 0x6d, 0x41, 
0xed, 0x3d, 0x66, 0x42, 0x6e, 0x41, 0x4a, 0x49, 0x2f, 0x62, 0x50, 0x35, 0xac, 0x31, 0x4a, 0x41, 0x27, 0x32, 0x8d, 0x42, 
0x90, 0x41, 0x4f, 0x3e, 0x6e, 0x46, 0x0f, 0x3a, 0x4b, 0x41, 0xaf, 0x45, 0x8e, 0x31, 0x4f, 0x32, 0x0b, 0x2a, 0x2f, 0x2e, 
0x06, 0x3a, 0x8a, 0x39, 0x6d, 0x12, 0x2a, 0x32, 0x49, 0x29, 0x35, 0x46, 0xcd, 0x4d, 0x39, 0x42, 0x32, 0x3d, 0x51, 0x41, 
0x70, 0x0d, 0xe8, 0x41, 0xeb, 0x55, 0xcd, 0x29, 0xaa, 0x2e, 0xae, 0x39, 0x0f, 0x46, 0x70, 0x21, 0xaf, 0x49, 0x4c, 0x3a, 
0x90, 0x31, 0xee, 0x31, 0xae, 0x41, 0xd0, 0x45, 0x6f, 0x2d, 0x6f, 0x41, 0x6d, 0x29, 0x6d, 0x41, 0xcb, 0x45, 0xcd, 0x41, 
0xcc, 0x35, 0xb0, 0x2d, 0x30, 0x36, 0xad, 0x39, 0xee, 0x39, 0xac, 0x29, 0x10, 0x32, 0x6f, 0x45, 0xb0, 0x45, 0x91, 0x41, 
0x52, 0x31, 0x70, 0x2d, 0x8f, 0x31, 0x51, 0x3d, 0xd0, 0x29, 0x0d, 0x3a, 0x0f, 0x32, 0x0b, 0x4e, 0xed, 0x39, 0xef, 0x3d, 
0x6f, 0x35, 0x0b, 0x3e, 0x0d, 0x32, 0x0f, 0x32, 0xac, 0x3d, 0x10, 0x36, 0x92, 0x31, 0xf0, 0x45, 0x0c, 0x56, 0x90, 0x39, 
0x50, 0x36, 0x2c, 0x3a, 0x0d, 0x3a, 0xab, 0x35, 0x2d, 0x32, 0xd0, 0x39, 0x2c, 0x42, 0xef, 0x31, 0x72, 0x31, 0x72, 0x41, 
0xa9, 0x59, 0xee, 0x40, 0x4b, 0x2e, 0xb0, 0x36, 0x6e, 0x46, 0xf2, 0x3d, 0x6c, 0x29, 0xab, 0x2d, 0xeb, 0x39, 0x50, 0x41, 
0xcf, 0x45, 0x2f, 0x46, 0x2d, 0x26, 0x0c, 0x36, 0x4f, 0x29, 0x6f, 0x25, 0xb0, 0x45, 0x8b, 0x41, 0xb0, 0x2d, 0x8c, 0x3d, 
0xcd, 0x39, 0x88, 0x31, 0x4a, 0x3d, 0xee, 0x31, 0x29, 0x32, 0x87, 0x31, 0x0d, 0x42, 0x8c, 0x29, 0x0e, 0x39, 0x0b, 0x32, 
0x4c, 0x39, 0x2b, 0x2e, 0x2d, 0x52, 0x07, 0x36, 0xf0, 0x31, 0xca, 0x41, 0xf1, 0x21, 0xd3, 0x2d, 0xcf, 0x41, 0x4a, 0x35, 
0xcf, 0x45, 0x0e, 0x52, 0x6d, 0x4a, 0xaf, 0x3d, 0xb0, 0x4d, 0xb0, 0x31, 0xee, 0x35, 0x8e, 0x45, 0x4c, 0x39, 0xaa, 0x35, 
0xef, 0x45, 0x0e, 0x3a, 0xb1, 0x31, 0x52, 0x45, 0x4c, 0x26, 0x8d, 0x35, 0x6f, 0x39, 0xab, 0x3a, 0x50, 0x35, 0x2e, 0x42, 
0x6c, 0x21, 0x0a, 0x2d, 0x53, 0x35, 0x8d, 0x15, 0x70, 0x51, 0x0a, 0x3d, 0xca, 0x49, 0xcc, 0x39, 0xea, 0x51, 0x92, 0x2d, 
0x8f, 0x39, 0x8c, 0x35, 0x6d, 0x39, 0xac, 0x41, 0x08, 0x2a, 0xae, 0x29, 0x95, 0x15, 0xca, 0x2d, 0xb2, 0x25, 0x8d, 0x21, 
0xee, 0x2d, 0xb0, 0x49, 0x0c, 0x2a, 0x2a, 0x32, 0xcb, 0x29, 0x89, 0x29, 0xb0, 0x3a, 0x6c, 0x35, 0xf7, 0x39, 0x6b, 0x39, 
0xce, 0x29, 0xd0, 0x35, 0x6b, 0x25, 0x0a, 0x3a, 0x90, 0x3d, 0x2a, 0x56, 0xed, 0x45, 0x4e, 0x39, 0x93, 0x31, 0xcc, 0x35, 
0x76, 0x31, 0x93, 0x31, 0x0b, 0x46, 0x8a, 0x42, 0x93, 0x4d, 0xaf, 0x41, 0x2c, 0x4a, 0xae, 0x25, 0x0c, 0x3a, 0x88, 0x28, 
0x49, 0x32, 0x70, 0x2a, 0x0e, 0x2e, 0x6f, 0x49, 0x2e, 0x3a, 0xad, 0x39, 0x0c, 0x42, 0xe9, 0x35, 0x26, 0x2e, 0x6c, 0x4a, 
0x0b, 0x36, 0xcf, 0x2d, 0x44, 0x31, 0x4d, 0x35, 0x4b, 0x1a, 0xcb, 0x2d, 0x0a, 0x2a, 0x72, 0x55, 0x6e, 0x55, 0x36, 0x36, 
0x2d, 0x51, 0x8d, 0x2d, 0x4e, 0x19, 0xe7, 0x2d, 0xab, 0x3d, 0x0f, 0x22, 0x28, 0x32, 0x91, 0x41, 0x10, 0x32, 0xad, 0x39, 
0xeb, 0x3d, 0xce, 0x31, 0x89, 0x35, 0x6d, 0x29, 0xd0, 0x3d, 0xeb, 0x39, 0x8e, 0x29, 0xd0, 0x31, 0xaa, 0x41, 0x31, 0x3e, 
0x2d, 0x29, 0xad, 0x45, 0x70, 0x39, 0x8c, 0x45, 0x30, 0x35, 0xec, 0x39, 0x8a, 0x39, 0x6c, 0x35, 0x88, 0x31, 0x8b, 0x29, 
0x6c, 0x25, 0x0d, 0x32, 0x0b, 0x3e, 0xaf, 0x29, 0x8a, 0x3d, 0x6d, 0x3d, 0xaf, 0x35, 0xd1, 0x39, 0x4e, 0x45, 0xaf, 0x39, 
0x8f, 0x3d, 0x2f, 0x3e, 0x0d, 0x2e, 0xf0, 0x29, 0x8d, 0x3d, 0x0c, 0x35, 0xb0, 0x35, 0xaf, 0x39, 0x4c, 0x31, 0x12, 0x36, 
0x6d, 0x21, 0xc8, 0x35, 0x6b, 0x25, 0x90, 0x3d, 0xef, 0x39, 0x6f, 0x2d, 0x2a, 0x3d, 0x2f, 0x32, 0x4d, 0x35, 0x2b, 0x3d, 
0xae, 0x31, 0xec, 0x21, 0x50, 0x1d, 0x6c, 0x32, 0x2f, 0x39, 0x0d, 0x39, 0x6d, 0x29, 0x8b, 0x35, 0x8e, 0x39, 0xb2, 0x3d, 
0xcc, 0x2c, 0x09, 0x2a, 0x50, 0x41, 0x6b, 0x21, 0xd2, 0x55, 0x6f, 0x39, 0x6f, 0x39, 0x6c, 0x3d, 0x70, 0x3d, 0x8e, 0x39, 
0xae, 0x31, 0x6a, 0x29, 0x4d, 0x3e, 0x33, 0x32, 0xec, 0x39, 0x2e, 0x36, 0x6d, 0x45, 0x0e, 0x42, 0x8f, 0x39, 0x0f, 0x2a, 
0x51, 0x42, 0x0c, 0x3e, 0xac, 0x45, 0xeb, 0x38, 0x8f, 0x15, 0x72, 0x41, 0x6b, 0x3d, 0x8c, 0x35, 0x0c, 0x3e, 0xcd, 0x29, 
0x6f, 0x35, 0xec, 0x35, 0x88, 0x35, 0x8a, 0x2d, 0x10, 0x31, 0x8c, 0x29, 0x6b, 0x29, 0x2c, 0x3e, 0x28, 0x39, 0xab, 0x39, 
0x8a, 0x35, 0x8c, 0x21, 0xe9, 0x31, 0x6a, 0x35, 0xac, 0x4d, 0x4a, 0x2a, 0x92, 0x35, 0x30, 0x32, 0xce, 0x25, 0xad, 0x2d, 
0xcf, 0x3d, 0x8d, 0x25, 0x2b, 0x46, 0x4b, 0x42, 0x8c, 0x2d, 0x91, 0x4d, 0xed, 0x2d, 0x12, 0x42, 0xae, 0x39, 0x6b, 0x41, 
0x4e, 0x25, 0x89, 0x2d, 0xcd, 0x31, 0xf1, 0x39, 0x0e, 0x3e, 0x72, 0x29, 0xd0, 0x41, 0x11, 0x3a, 0x68, 0x59, 0x93, 0x3d, 
0xad, 0x49, 0xeb, 0x35, 0x8e, 0x35, 0xca, 0x29, 0x0e, 0x42, 0x4f, 0x2d, 0x6f, 0x3e, 0x4f, 0x31, 0x0a, 0x3d, 0x4d, 0x2d, 
0x67, 0x29, 0x70, 0x35, 0x92, 0x39, 0xce, 0x29, 0xac, 0x41, 0xeb, 0x31, 0x30, 0x2e, 0x6a, 0x25, 0x6f, 0x29, 0x8a, 0x4a, 
0xa7, 0x41, 0x4d, 0x32, 0x82, 0x3d, 0x88, 0x39, 0x2b, 0x3d, 0x95, 0x35, 0x6d, 0x19, 0x6c, 0x2d, 0xf1, 0x24, 0xcc, 0x45, 
0xac, 0x41, 0x50, 0x46, 0x51, 0x35, 0xca, 0x44, 0x6f, 0x2d, 0xee, 0x25, 0xeb, 0x3d, 0xcb, 0x3d, 0x10, 0x2a, 0x91, 0x3d, 
0x74, 0x41, 0x10, 0x29, 0x71, 0x35, 0x6d, 0x29, 0x94, 0x3d, 0x6b, 0x35, 0x2f, 0x51, 0xcc, 0x3d, 0xd5, 0x41, 0x4a, 0x1e, 
0xee, 0x2d, 0xc5, 0x41, 0x4a, 0x36, 0xcd, 0x49, 0xad, 0x65, 0x72, 0x29, 0xd0, 0x29, 0xce, 0x3d, 0x30, 0x3d, 0x8e, 0x2d, 
0x0e, 0x3e, 0xae, 0x49, 0xee, 0x35, 0xee, 0x3d, 0xeb, 0x29, 0x4d, 0x41, 0xaf, 0x3d, 0x0e, 0x3e, 0xcb, 0x2d, 0x0d, 0x36, 
0x0b, 0x32, 0xf1, 0x2d, 0xd3, 0x1d, 0xaf, 0x39, 0xea, 0x41, 0x4b, 0x45, 0x4c, 0x3d, 0xca, 0x35, 0x8b, 0x41, 0x11, 0x32, 
0x0d, 0x3d, 0xce, 0x31, 0x6c, 0x25, 0x0b, 0x32, 0xaa, 0x3d, 0x2f, 0x2a, 0x0d, 0x2a, 0x69, 0x35, 0xaa, 0x41, 0xed, 0x29, 
0x51, 0x45, 0xec, 0x31, 0x4f, 0x31, 0x0e, 0x2a, 0x0d, 0x2a, 0xed, 0x3d, 0xaf, 0x31, 0x6d, 0x3d, 0xd0, 0x39, 0x0a, 0x2e, 
0x0d, 0x32, 0xcf, 0x39, 0x8c, 0x1d, 0x89, 0x41, 0x6d, 0x29, 0x8d, 0x31, 0xef, 0x2d, 0x0f, 0x2e, 0x28, 0x29, 0xf0, 0x39, 
0x50, 0x29, 0x70, 0x3d, 0xcc, 0x39, 0x0e, 0x22, 0x52, 0x29, 0xcc, 0x31, 0xd0, 0x39, 0x2f, 0x41, 0x4d, 0x3d, 0xce, 0x2d, 
0xcd, 0x3d, 0x14, 0x2e, 0xcb, 0x28, 0xa7, 0x3d, 0x4d, 0x31, 0x0f, 0x21, 0x4f, 0x5d, 0xcd, 0x39, 0xad, 0x4d, 0x6f, 0x41, 
0xeb, 0x41, 0x8e, 0x31, 0x88, 0x41, 0xcd, 0x31, 0x8c, 0x31, 0xb1, 0x31, 0xce, 0x3d, 0xf0, 0x2d, 0x91, 0x41, 0x50, 0x3d, 
0x6a, 0x3d, 0xac, 0x35, 0x0e, 0x2e, 0xef, 0x31, 0x90, 0x35, 0x2a, 0x41, 0xeb, 0x30, 0x10, 0x3a, 0xc7, 0x45, 0xcd, 0x2d, 
0xec, 0x49, 0xcd, 0x3d, 0x91, 0x3d, 0x2f, 0x3e, 0x6d, 0x35, 0x4d, 0x31, 0x6d, 0x35, 0x0f, 0x25, 0x6d, 0x39, 0x4b, 0x2e, 
0x6c, 0x31, 0xa9, 0x35, 0xee, 0x35, 0xcf, 0x2d, 0xa9, 0x39, 0x48, 0x2d, 0x90, 0x3d, 0x0b, 0x32, 0x8d, 0x35, 0x2d, 0x3a, 
0xcd, 0x35, 0xee, 0x40, 0x2b, 0x3a, 0x0e, 0x32, 0x8c, 0x46, 0xb0, 0x29, 0xab, 0x31, 0xd3, 0x51, 0xea, 0x29, 0x4f, 0x42, 
0x2c, 0x39, 0x71, 0x39, 0x50, 0x31, 0x4c, 0x2d, 0x10, 0x2a, 0x8e, 0x45, 0x0f, 0x32, 0xae, 0x41, 0xb0, 0x49, 0x8c, 0x49, 
0x87, 0x45, 0x70, 0x29, 0x07, 0x3a, 0xcd, 0x3d, 0x70, 0x41, 0xcf, 0x35, 0x10, 0x3e, 0xee, 0x3d, 0x30, 0x46, 0x6f, 0x35, 
0x2d, 0x2d, 0xaf, 0x35, 0xe4, 0x29, 0x8f, 0x41, 0x0e, 0x2d, 0x0b, 0x32, 0x73, 0x35, 0x50, 0x39, 0xed, 0x39, 0xee, 0x14, 
0x2f, 0x2d, 0x6c, 0x36, 0xaa, 0x35, 0xcb, 0x2d, 0x83, 0x31, 0xae, 0x39, 0xcc, 0x30, 0xf7, 0x3c, 0x8b, 0x15, 0x6e, 0x1d, 
0x0c, 0x15, 0x0d, 0x52, 0xed, 0x3d, 0xae, 0x42, 0x8e, 0x41, 0x49, 0x45, 0x4f, 0x3d, 0x2c, 0x2a, 0xa9, 0x35, 0xc9, 0x39, 
0xab, 0x15, 0x8d, 0x31, 0x91, 0x2d, 0xcd, 0x1c, 0x91, 0x39, 0xed, 0x3d, 0xd1, 0x29, 0x2f, 0x32, 0xaa, 0x5c, 0x8e, 0x39, 
0xf1, 0x29, 0xec, 0x1d, 0x91, 0x29, 0x46, 0x39, 0x31, 0x1e, 0x2c, 0x4a, 0x0e, 0x6a, 0x70, 0x29, 0xea, 0x39, 0x0d, 0x32, 
0x8d, 0x3c, 0xe8, 0x39, 0x6f, 0x3d, 0xf0, 0x35, 0xeb, 0x31, 0x8e, 0x31, 0x0d, 0x32, 0xcf, 0x31, 0x50, 0x35, 0xcb, 0x3d, 
0xcc, 0x39, 0x6f, 0x35, 0xcf, 0x3d, 0xaf, 0x3d, 0xe9, 0x49, 0x2a, 0x32, 0x8f, 0x35, 0xce, 0x2d, 0x0b, 0x2e, 0x8c, 0x3d, 
0x4c, 0x32, 0xcc, 0x35, 0xf2, 0x31, 0x4b, 0x41, 0x30, 0x46, 0xd1, 0x3d, 0xb0, 0x31, 0xaa, 0x41, 0x51, 0x31, 0x4d, 0x29, 
0x6f, 0x2d, 0x8d, 0x41, 0x8f, 0x3d, 0x6a, 0x39, 0x8e, 0x25, 0x4f, 0x35, 0xef, 0x45, 0x8c, 0x45, 0xcf, 0x2d, 0x30, 0x22, 
0x6f, 0x29, 0xea, 0x35, 0x90, 0x2d, 0x4b, 0x45, 0xef, 0x49, 0x0f, 0x32, 0x2f, 0x46, 0xea, 0x39, 0xf1, 0x35, 0xcd, 0x41, 
0x0d, 0x2a, 0x2d, 0x42, 0xd0, 0x42, 0x6f, 0x36, 0x71, 0x41, 0xef, 0x4d, 0xad, 0x49, 0x2c, 0x41, 0x4b, 0x3a, 0x4b, 0x2e, 
0x50, 0x36, 0xf2, 0x3d, 0xce, 0x29, 0x6a, 0x35, 0x2d, 0x3e, 0x92, 0x31, 0x4d, 0x32, 0x2c, 0x46, 0x8a, 0x25, 0x8e, 0x39, 
0xed, 0x19, 0xec, 0x21, 0xcb, 0x2d, 0x10, 0x42, 0xae, 0x35, 0x10, 0x42, 0x8c, 0x41, 0x68, 0x31, 0x8a, 0x35, 0x6e, 0x3d, 
0xca, 0x35, 0xe9, 0x3d, 0x70, 0x35, 0x6e, 0x39, 0x0d, 0x2d, 0x09, 0x3e, 0xe9, 0x39, 0x6a, 0x3a, 0x50, 0x52, 0x8a, 0x39, 
0xd5, 0x31, 0x0d, 0x32, 0xb0, 0x2d, 0x93, 0x41, 0x4e, 0x3e, 0xcf, 0x35, 0xaf, 0x39, 0xee, 0x4d, 0x0b, 0x3a, 0x30, 0x42, 
0xf0, 0x49, 0x72, 0x2d, 0x10, 0x32, 0x54, 0x45, 0xec, 0x29, 0xaf, 0x4d, 0x10, 0x42, 0xb1, 0x3d, 0x8f, 0x25, 0x0f, 0x41, 
0xcb, 0x2d, 0x4c, 0x29, 0x11, 0x42, 0x8d, 0x32, 0x2f, 0x3d, 0x0c, 0x52, 0x8e, 0x35, 0xae, 0x29, 0x90, 0x2d, 0x0a, 0x22, 
0xf0, 0x4d, 0xca, 0x2d, 0xcf, 0x3d, 0xcf, 0x21, 0xef, 0x49, 0xcd, 0x31, 0x8d, 0x35, 0xcb, 0x3d, 0x2e, 0x39, 0xeb, 0x3d, 
0x08, 0x36, 0x4b, 0x25, 0x31, 0x16, 0x2b, 0x2a, 0x90, 0x25, 0x6f, 0x2d, 0xeb, 0x31, 0x6f, 0x35, 0x0f, 0x2e, 0xae, 0x29, 
0x4e, 0x31, 0x29, 0x3e, 0xd0, 0x32, 0xcb, 0x4d, 0xb1, 0x3d, 0xed, 0x31, 0x4a, 0x2e, 0x4b, 0x31, 0x29, 0x35, 0xad, 0x39, 
0xad, 0x39, 0x10, 0x5a, 0xed, 0x4d, 0x11, 0x25, 0xd1, 0x3d, 0xeb, 0x2c, 0x9a, 0x31, 0x10, 0x2e, 0x0b, 0x32, 0x04, 0x3a, 
0x90, 0x55, 0x0a, 0x42, 0xec, 0x4d, 0xcc, 0x29, 0x6d, 0x3d, 0x0b, 0x35, 0xc8, 0x3d, 0xb4, 0x36, 0xeb, 0x31, 0x6d, 0x3d, 
0xb0, 0x41, 0x0c, 0x42, 0x8e, 0x41, 0x4b, 0x36, 0xa9, 0x39, 0xec, 0x4d, 0xc9, 0x21, 0x90, 0x35, 0x8a, 0x3d, 0x8d, 0x3d, 
0x4b, 0x1a, 0x90, 0x35, 0xa8, 0x2d, 0xd1, 0x49, 0xae, 0x41, 0xd6, 0x35, 0x4b, 0x51, 0xd1, 0x39, 0x6c, 0x11, 0x84, 0x41, 
0x6d, 0x3d, 0x0f, 0x22, 0x48, 0x26, 0xb3, 0x2d, 0x2e, 0x42, 0x11, 0x3e, 0x4b, 0x3d, 0x4a, 0x2d, 0xa9, 0x39, 0x4b, 0x31, 
0xaf, 0x35, 0x4c, 0x31, 0xcb, 0x35, 0x0a, 0x3a, 0x0f, 0x3e, 0xf0, 0x2d, 0xb3, 0x21, 0x4b, 0x49, 0xcf, 0x49, 0x0b, 0x46, 
0xeb, 0x30, 0x8c, 0x2d, 0x6b, 0x41, 0xee, 0x41, 0x8e, 0x39, 0xed, 0x25, 0xad, 0x2d, 0x4d, 0x2d, 0x08, 0x2e, 0x8a, 0x2d, 
0xd0, 0x25, 0x4b, 0x3d, 0x70, 0x31, 0x6b, 0x41, 0xcd, 0x35, 0xec, 0x31, 0xf1, 0x3d, 0x90, 0x35, 0xb1, 0x39, 0x70, 0x35, 
0x6f, 0x31, 0x6d, 0x3d, 0xce, 0x41, 0xcd, 0x31, 0x69, 0x49, 0xb0, 0x39, 0x6c, 0x11, 0x29, 0x41, 0xab, 0x35, 0x70, 0x3d, 
0xce, 0x45, 0xac, 0x29, 0x2e, 0x35, 0xeb, 0x35, 0x4c, 0x29, 0x2b, 0x35, 0x8e, 0x39, 0x0d, 0x16, 0x11, 0x1a, 0x6f, 0x3a, 
0x10, 0x35, 0x8b, 0x38, 0x8c, 0x41, 0xea, 0x3d, 0x6b, 0x3d, 0x8f, 0x35, 0xed, 0x20, 0xc7, 0x35, 0x2d, 0x39, 0x51, 0x25, 
0x72, 0x59, 0x90, 0x31, 0x0a, 0x4a, 0x8c, 0x35, 0xf0, 0x31, 0x4e, 0x2d, 0xae, 0x39, 0x6c, 0x2d, 0x10, 0x2e, 0x74, 0x2d, 
0x32, 0x36, 0xcf, 0x35, 0xf2, 0x4d, 0x73, 0x2d, 0xb0, 0x2d, 0x6f, 0x2d, 0x6e, 0x42, 0xd0, 0x3d, 0x32, 0x3e, 0x6f, 0x3d, 
0xaa, 0x19, 0xf0, 0x2d, 0xe5, 0x41, 0x70, 0x2d, 0x0c, 0x46, 0xad, 0x3d, 0x4d, 0x3d, 0xce, 0x35, 0xe7, 0x31, 0x8f, 0x2d, 
0x2c, 0x35, 0x2b, 0x35, 0xac, 0x2d, 0x69, 0x3e, 0x69, 0x3d, 0x4c, 0x2e, 0x8d, 0x35, 0x8f, 0x21, 0xaa, 0x35, 0x87, 0x35, 
0x0d, 0x4a, 0xe7, 0x25, 0x93, 0x35, 0x2a, 0x2e, 0x8e, 0x41, 0x6d, 0x29, 0x89, 0x2d, 0x2c, 0x2e, 0xcc, 0x35, 0x6e, 0x3e, 
0xed, 0x35, 0xf2, 0x55, 0xab, 0x21, 0xcd, 0x2d, 0xcf, 0x3d, 0xb0, 0x3d, 0x6a, 0x21, 0xc9, 0x2d, 0xcb, 0x35, 0x93, 0x2d, 
0xd0, 0x29, 0xd1, 0x31, 0xb2, 0x45, 0x0f, 0x3e, 0x49, 0x45, 0x6e, 0x31, 0x09, 0x42, 0xed, 0x41, 0x4b, 0x2d, 0x6f, 0x25, 
0x50, 0x35, 0x6a, 0x2d, 0x4d, 0x3e, 0x93, 0x3d, 0x8a, 0x34, 0xce, 0x39, 0x85, 0x25, 0xb2, 0x29, 0x6e, 0x39, 0xcd, 0x29, 
0x11, 0x46, 0x6e, 0x41, 0xaf, 0x45, 0x0a, 0x15, 0x10, 0x1d, 0x4e, 0x4a, 0x07, 0x2e, 0x6f, 0x3a, 0x41, 0x2d, 0x6e, 0x39, 
0x4c, 0x29, 0x37, 0x29, 0xe7, 0x1d, 0x70, 0x29, 0xeb, 0x1c, 0x90, 0x49, 0xcd, 0x35, 0xb2, 0x42, 0x93, 0x39, 0xeb, 0x44, 
0xcd, 0x3d, 0xee, 0x2d, 0x8e, 0x39, 0x4a, 0x3d, 0x4b, 0x19, 0x91, 0x2d, 0x73, 0x35, 0xcf, 0x2c, 0xd1, 0x41, 0xad, 0x2d, 
0xd5, 0x29, 0x6b, 0x29, 0xb0, 0x58, 0x70, 0x35, 0x50, 0x39, 0xe9, 0x1d, 0x4d, 0x19, 0x80, 0x35, 0x8c, 0x2e, 0x8e, 0x35, 
0x0d, 0x5a, 0x90, 0x41, 0xac, 0x29, 0x0c, 0x46, 0x53, 0x41, 0x4a, 0x36, 0x2b, 0x35, 0x4f, 0x35, 0x6c, 0x3d, 0x6f, 0x31, 
0x09, 0x36, 0x4d, 0x25, 0xed, 0x29, 0x8c, 0x31, 0x6d, 0x31, 0xaa, 0x31, 0x8c, 0x2d, 0x2d, 0x29, 0x6a, 0x31, 0xec, 0x41, 
0x4c, 0x3d, 0x0a, 0x26, 0xcd, 0x39, 0x8f, 0x3d, 0x4d, 0x35, 0x49, 0x3d, 0xac, 0x39, 0xcb, 0x3d, 0xcc, 0x39, 0x8b, 0x2d, 
0xec, 0x2d, 0x2a, 0x3d, 0x0c, 0x32, 0xcc, 0x29, 0x6e, 0x3d, 0xcd, 0x2d, 0x4b, 0x31, 0xac, 0x3d, 0xa9, 0x3d, 0x6a, 0x29, 
0xaf, 0x2d, 0x0c, 0x31, 0xce, 0x3d, 0x0f, 0x2d, 0x8f, 0x3d, 0x8f, 0x29, 0xb0, 0x25, 0xca, 0x35, 0x4f, 0x41, 0xac, 0x2d, 
0x6e, 0x29, 0x8f, 0x31, 0x6c, 0x35, 0xcc, 0x29, 0xad, 0x3d, 0x6d, 0x25, 0x50, 0x39, 0x8f, 0x2d, 0x8d, 0x2d, 0x10, 0x2e, 
0x4c, 0x25, 0xcb, 0x31, 0xac, 0x35, 0x6b, 0x35, 0xcc, 0x31, 0xaf, 0x2d, 0x8b, 0x35, 0x4f, 0x3d, 0xad, 0x29, 0x49, 0x39, 
0x8b, 0x25, 0x8c, 0x21, 0xed, 0x39, 0xad, 0x2d, 0x49, 0x39, 0xee, 0x31, 0xec, 0x29, 0x6f, 0x29, 0xad, 0x2d, 0xce, 0x39, 
0x0e, 0x39, 0xcd, 0x35, 0xec, 0x2d, 0x6e, 0x2d, 0xce, 0x31, 0xca, 0x2d, 0xce, 0x35, 0x70, 0x35, 0xac, 0x39, 0xce, 0x31, 
0xae, 0x29, 0xcf, 0x41, 0x6c, 0x29, 0xca, 0x31, 0xcb, 0x25, 0xca, 0x39, 0x8a, 0x35, 0xac, 0x39, 0x8a, 0x2d, 0x49, 0x39, 
0xcd, 0x29, 0x4b, 0x29, 0xaa, 0x39, 0xcf, 0x29, 0x0a, 0x32, 0x6c, 0x29, 0x8c, 0x31, 0xcb, 0x39, 0x6a, 0x29, 0xce, 0x39, 
0x4a, 0x39, 0xe9, 0x35, 0x0e, 0x3a, 0x4e, 0x2d, 0x4a, 0x2d, 0x8f, 0x2d, 0xa9, 0x2d, 0x4e, 0x31, 0xce, 0x3d, 0x8f, 0x41, 
0xed, 0x2d, 0xac, 0x2d, 0x6b, 0x35, 0xad, 0x29, 0xe9, 0x29, 0x4d, 0x3d, 0xcc, 0x31, 0x6c, 0x25, 0x2a, 0x29, 0xed, 0x29, 
0x70, 0x31, 0xc9, 0x3d, 0x4f, 0x41, 0x4f, 0x2d, 0x8e, 0x35, 0x4b, 0x35, 0xee, 0x39, 0x8b, 0x3d, 0x0a, 0x3a, 0x8c, 0x31, 
0xad, 0x3d, 0xad, 0x3d, 0xce, 0x2d, 0x6d, 0x39, 0x8e, 0x2d, 0x8e, 0x31, 0x4d, 0x3d, 0x90, 0x41, 0x8c, 0x25, 0x8e, 0x35, 
0xcb, 0x3d, 0xeb, 0x39, 0xac, 0x3d, 0xee, 0x21, 0xab, 0x35, 0xcd, 0x2d, 0x4b, 0x2d, 0xce, 0x35, 0xee, 0x31, 0xea, 0x2d, 
0x89, 0x31, 0x6e, 0x2d, 0x6a, 0x29, 0x2f, 0x3d, 0x6b, 0x2d, 0x4c, 0x2d, 0xa8, 0x31, 0x2d, 0x29, 0x6d, 0x25, 0xac, 0x35, 
0x6d, 0x29, 0x0d, 0x31, 0x4c, 0x29, 0x30, 0x35, 0xac, 0x25, 0x6a, 0x25, 0xeb, 0x35, 0x0b, 0x31, 0x0d, 0x29, 0xab, 0x39, 
0x4b, 0x31, 0xb0, 0x31, 0x4e, 0x39, 0x6e, 0x35, 0x8d, 0x39, 0xd0, 0x3d, 0xed, 0x35, 0x2a, 0x2d, 0x0b, 0x36, 0x8c, 0x29, 
0x09, 0x35, 0xce, 0x35, 0xaf, 0x3d, 0xea, 0x41, 0x50, 0x2d, 0xab, 0x29, 0xee, 0x29, 0x8b, 0x2d, 0xeb, 0x39, 0x30, 0x4a, 
0x8b, 0x39, 0x2f, 0x2e, 0xf0, 0x4d, 0xea, 0x31, 0x0a, 0x42, 0xce, 0x49, 0xed, 0x3d, 0x8d, 0x41, 0xeb, 0x35, 0xad, 0x41, 
0x30, 0x45, 0x0a, 0x36, 0xed, 0x35, 0x76, 0x31, 0x2f, 0x3e, 0x6d, 0x29, 0x71, 0x39, 0x2d, 0x46, 0x91, 0x45, 0x0f, 0x5e, 
0xee, 0x35, 0x2d, 0x26, 0xf5, 0x3d, 0xeb, 0x41, 0x73, 0x41, 0xd0, 0x2d, 0xed, 0x3d, 0x2b, 0x32, 0xf0, 0x31, 0x4c, 0x49, 
0x32, 0x36, 0x90, 0x35, 0xcd, 0x3d, 0xcb, 0x41, 0x4d, 0x2a, 0xf2, 0x35, 0x4b, 0x2d, 0x50, 0x36, 0xae, 0x39, 0x4d, 0x4e, 
0xcb, 0x51, 0xb0, 0x29, 0xf5, 0x41, 0xac, 0x3d, 0xad, 0x41, 0x30, 0x3e, 0xef, 0x39, 0xae, 0x3d, 0x8c, 0x42, 0x0b, 0x3e, 
0x73, 0x31, 0x4c, 0x3e, 0x07, 0x4a, 0x72, 0x35, 0x0d, 0x36, 0x30, 0x4e, 0x0e, 0x46, 0x70, 0x31, 0xad, 0x45, 0x10, 0x3e, 
0x10, 0x3e, 0x10, 0x3a, 0x0e, 0x36, 0xcd, 0x39, 0x8b, 0x3d, 0xce, 0x39, 0x6e, 0x39, 0x2a, 0x32, 0xf0, 0x35, 0xec, 0x39, 
0x93, 0x41, 0xee, 0x3d, 0xed, 0x41, 0x10, 0x2e, 0x50, 0x4e, 0x0f, 0x42, 0xee, 0x45, 0x6b, 0x45, 0x4e, 0x35, 0x4a, 0x35, 
0xd1, 0x49, 0xae, 0x45, 0xec, 0x35, 0x0b, 0x2e, 0xee, 0x61, 0xb0, 0x31, 0x77, 0x2d, 0x4a, 0x36, 0x71, 0x31, 0x51, 0x35, 
0x11, 0x42, 0xce, 0x29, 0x72, 0x2d, 0x0d, 0x52, 0x71, 0x22, 0x30, 0x3a, 0x0f, 0x36, 0xd1, 0x41, 0x32, 0x32, 0x6f, 0x42, 
0xce, 0x35, 0x2d, 0x3e, 0x6d, 0x39, 0x13, 0x46, 0xf0, 0x11, 0x73, 0x4d, 0x0d, 0x36, 0x4c, 0x29, 0xec, 0x49, 0x6a, 0x3d, 
0xd2, 0x2d, 0x2d, 0x32, 0x8c, 0x45, 0xce, 0x2d, 0xee, 0x31, 0xcb, 0x29, 0xb3, 0x35, 0xad, 0x35, 0x4f, 0x4e, 0x6f, 0x36, 
0xef, 0x39, 0xce, 0x3d, 0xac, 0x59, 0x2b, 0x3a, 0xcd, 0x34, 0xec, 0x29, 0xad, 0x49, 0x90, 0x39, 0xb5, 0x31, 0xa8, 0x35, 
0x6e, 0x35, 0x2b, 0x46, 0x0d, 0x32, 0x51, 0x39, 0xad, 0x45, 0x90, 0x35, 0xce, 0x41, 0x31, 0x2e, 0xaf, 0x42, 0x0c, 0x36, 
0xb2, 0x4d, 0x8d, 0x35, 0xeb, 0x39, 0x4c, 0x39, 0xae, 0x3d, 0x0c, 0x36, 0x4e, 0x3a, 0x6f, 0x52, 0x0a, 0x56, 0xf0, 0x28, 
0xb7, 0x45, 0x0d, 0x2e, 0xb2, 0x35, 0xef, 0x29, 0x11, 0x32, 0x09, 0x2a, 0x92, 0x4d, 0xaa, 0x45, 0x10, 0x63, 0x2d, 0x41, 
0x6d, 0x3d, 0x8f, 0x45, 0x4b, 0x42, 0x8d, 0x4a, 0xeb, 0x35, 0x8a, 0x41, 0x32, 0x46, 0xeb, 0x3d, 0x8e, 0x55, 0x8e, 0x36, 
0x6e, 0x3e, 0xef, 0x35, 0xea, 0x41, 0x30, 0x42, 0x6c, 0x3d, 0x0a, 0x4e, 0x8e, 0x2e, 0xcc, 0x39, 0x8a, 0x3d, 0x91, 0x49, 
0x8b, 0x41, 0xd5, 0x29, 0x2c, 0x55, 0xef, 0x41, 0x8f, 0x21, 0xcb, 0x41, 0x0d, 0x4e, 0xf0, 0x29, 0x4d, 0x2e, 0xce, 0x2d, 
0xaf, 0x35, 0x69, 0x39, 0x6e, 0x3d, 0xef, 0x35, 0xef, 0x39, 0xcf, 0x31, 0x8d, 0x3d, 0x4e, 0x35, 0xed, 0x39, 0x70, 0x2d, 
0x8d, 0x3d, 0x0d, 0x29, 0xae, 0x3d, 0xec, 0x2d, 0x4d, 0x35, 0x72, 0x29, 0x0e, 0x2e, 0x4c, 0x3d, 0xcc, 0x2d, 0x10, 0x2e, 
0x90, 0x31, 0x8e, 0x3d, 0x6d, 0x39, 0x8e, 0x31, 0x2d, 0x32, 0x8e, 0x35, 0x6c, 0x31, 0xcb, 0x41, 0xaa, 0x35, 0x2b, 0x29, 
0xeb, 0x3d, 0xec, 0x2d, 0xec, 0x29, 0x4c, 0x35, 0xeb, 0x3d, 0x0c, 0x3a, 0xcf, 0x35, 0x4e, 0x3e, 0xca, 0x35, 0x90, 0x2d, 
0x2b, 0x32, 0xc9, 0x31, 0x8b, 0x41, 0xad, 0x21, 0xef, 0x2d, 0x0c, 0x2e, 0x8f, 0x2d, 0x2b, 0x3d, 0xea, 0x41, 0xaa, 0x31, 
0xcb, 0x35, 0xad, 0x3d, 0xab, 0x3d, 0xf1, 0x3d, 0xe8, 0x35, 0x6f, 0x35, 0xac, 0x2d, 0x2b, 0x36, 0xee, 0x35, 0x0d, 0x2a, 
0x90, 0x2d, 0x2b, 0x46, 0x0d, 0x46, 0x8f, 0x29, 0xad, 0x29, 0x2b, 0x3a, 0x0c, 0x2e, 0xec, 0x39, 0xed, 0x21, 0xee, 0x2d, 
0xcd, 0x31, 0xaa, 0x2d, 0x4c, 0x41, 0xae, 0x35, 0xec, 0x31, 0xad, 0x39, 0xed, 0x2d, 0x8b, 0x41, 0xd0, 0x39, 0xcd, 0x2d, 
0xaf, 0x31, 0xae, 0x31, 0x8b, 0x41, 0xec, 0x25, 0xa9, 0x39, 0xac, 0x3d, 0xab, 0x39, 0x8b, 0x2d, 0xeb, 0x2d, 0x4f, 0x35, 
0xac, 0x31, 0x10, 0x3e, 0x0a, 0x3a, 0x89, 0x2d, 0x71, 0x29, 0x8d, 0x39, 0x6b, 0x49, 0xae, 0x35, 0x09, 0x3e, 0xf1, 0x2d, 
0xeb, 0x31, 0x4f, 0x35, 0x6b, 0x35, 0xed, 0x2d, 0x0b, 0x42, 0xad, 0x35, 0xd0, 0x35, 0x31, 0x35, 0x6d, 0x29, 0x0e, 0x36, 
0xad, 0x39, 0xf0, 0x39, 0xad, 0x39, 0xaf, 0x31, 0x2c, 0x31, 0x0d, 0x2e, 0x50, 0x29, 0x6d, 0x2d, 0x8e, 0x35, 0xeb, 0x3d, 
0xac, 0x35, 0x0e, 0x36, 0xea, 0x3d, 0x4c, 0x35, 0x10, 0x3a, 0xed, 0x45, 0x8f, 0x41, 0x8f, 0x31, 0xc9, 0x25, 0xe9, 0x3d, 
0xb0, 0x35, 0xec, 0x35, 0xee, 0x31, 0xab, 0x2d, 0x8d, 0x29, 0x0a, 0x2a, 0x0d, 0x3e, 0x4a, 0x2d, 0x6f, 0x35, 0xe8, 0x41, 
0x6b, 0x42, 0x6a, 0x45, 0xd3, 0x39, 0x4f, 0x35, 0xac, 0x2d, 0x6f, 0x29, 0xcb, 0x3d, 0x0f, 0x42, 0xae, 0x41, 0xed, 0x49, 
0xac, 0x45, 0xf0, 0x30, 0x8f, 0x29, 0xad, 0x31, 0xb3, 0x25, 0x8e, 0x39, 0xaf, 0x35, 0xa9, 0x35, 0x0f, 0x36, 0xea, 0x31, 
0x4e, 0x4d, 0x6a, 0x31, 0x0b, 0x2e, 0x8e, 0x35, 0xcc, 0x35, 0x2d, 0x2e, 0xce, 0x39, 0x0c, 0x46, 0xcb, 0x2d, 0x0f, 0x3a, 
0x10, 0x3a, 0x29, 0x3a, 0xa9, 0x29, 0x70, 0x4e, 0xcb, 0x25, 0x0c, 0x42, 0x0a, 0x2a, 0x4e, 0x4d, 0xef, 0x31, 0x8c, 0x2d, 
0x88, 0x35, 0x73, 0x4d, 0x49, 0x45, 0x2d, 0x36, 0x6b, 0x31, 0xae, 0x29, 0x8d, 0x11, 0x87, 0x29, 0x8d, 0x35, 0xcd, 0x39, 
0xef, 0x39, 0x71, 0x41, 0x0e, 0x3e, 0x4b, 0x35, 0x2e, 0x3d, 0x6d, 0x2d, 0xae, 0x31, 0x2c, 0x29, 0x0a, 0x46, 0xeb, 0x29, 
0x0e, 0x3a, 0x4e, 0x2a, 0x2c, 0x42, 0xeb, 0x2d, 0xd3, 0x1d, 0x0e, 0x45, 0x4d, 0x45, 0xa9, 0x3d, 0xcb, 0x38, 0x4c, 0x29, 
0x8a, 0x41, 0x8c, 0x45, 0xca, 0x35, 0x2d, 0x2a, 0x8b, 0x21, 0xca, 0x45, 0x8c, 0x39, 0xaf, 0x29, 0xec, 0x25, 0x4b, 0x35, 
0x71, 0x31, 0xd1, 0x2d, 0x0e, 0x3e, 0xf0, 0x35, 0x2c, 0x35, 0xaf, 0x29, 0xd0, 0x35, 0x6f, 0x31, 0x0c, 0x2e, 0x6e, 0x39, 
0x70, 0x41, 0x8c, 0x29, 0xca, 0x49, 0xad, 0x35, 0xef, 0x1d, 0xcb, 0x45, 0x4e, 0x29, 0xcf, 0x2d, 0x6b, 0x45, 0x8c, 0x3d, 
0x8a, 0x35, 0xcc, 0x29, 0x0d, 0x39, 0x0a, 0x41, 0x6e, 0x31, 0xc8, 0x29, 0x8f, 0x29, 0x0e, 0x3e, 0x90, 0x3d, 0x0b, 0x29, 
0x0b, 0x2d, 0x49, 0x35, 0xed, 0x35, 0xb0, 0x39, 0xf1, 0x20, 0x8b, 0x41, 0x8c, 0x35, 0x90, 0x15, 0x71, 0x55, 0x2d, 0x32, 
0x6f, 0x51, 0x0f, 0x4a, 0x4f, 0x41, 0xd1, 0x45, 0xae, 0x41, 0xd0, 0x35, 0x4f, 0x3e, 0x8e, 0x35, 0xee, 0x31, 0x2d, 0x3a, 
0xef, 0x35, 0x50, 0x31, 0x0e, 0x36, 0x70, 0x31, 0xad, 0x3d, 0x4c, 0x31, 0x0d, 0x42, 0xef, 0x34, 0xee, 0x28, 0xd0, 0x35, 
0x0a, 0x32, 0xeb, 0x31, 0x8b, 0x49, 0x48, 0x3d, 0x8e, 0x2d, 0xae, 0x39, 0xa7, 0x31, 0x6b, 0x29, 0x91, 0x2d, 0x8c, 0x35, 
0x6f, 0x3d, 0x68, 0x3e, 0x67, 0x2d, 0xac, 0x25, 0xcf, 0x31, 0xad, 0x35, 0x8e, 0x3d, 0xe6, 0x31, 0x4f, 0x51, 0x48, 0x32, 
0x13, 0x31, 0x6d, 0x3e, 0xac, 0x41, 0x90, 0x41, 0xab, 0x3d, 0x6b, 0x21, 0x0c, 0x4a, 0x0c, 0x3a, 0x6d, 0x29, 0xb3, 0x45, 
0xed, 0x29, 0xf3, 0x41, 0xaf, 0x25, 0x8b, 0x31, 0xd0, 0x25, 0x6d, 0x29, 0x6f, 0x21, 0x33, 0x46, 0x8b, 0x35, 0xf2, 0x35, 
0x8d, 0x41, 0xef, 0x45, 0xa9, 0x41, 0x2f, 0x32, 0xc9, 0x51, 0xec, 0x39, 0xcd, 0x41, 0xcc, 0x31, 0xcf, 0x39, 0x8f, 0x35, 
0x50, 0x3a, 0x50, 0x2d, 0xed, 0x38, 0x6f, 0x21, 0x65, 0x35, 0x8d, 0x39, 0x6e, 0x2d, 0x4b, 0x41, 0xcf, 0x3d, 0x0e, 0x3a, 
0xd0, 0x45, 0xee, 0x18, 0x0e, 0x1d, 0xad, 0x36, 0x69, 0x29, 0xae, 0x2d, 0x42, 0x2d, 0xcd, 0x41, 0x11, 0x41, 0xf1, 0x30, 
0xc8, 0x1d, 0x8c, 0x21, 0x0e, 0x15, 0x8e, 0x4d, 0x8d, 0x3d, 0xcf, 0x42, 0x93, 0x35, 0x66, 0x45, 0x6b, 0x2d, 0xcf, 0x1d, 
0xcb, 0x39, 0xad, 0x3d, 0x6b, 0x25, 0x92, 0x31, 0xf6, 0x35, 0x50, 0x29, 0x11, 0x3e, 0x6d, 0x2d, 0x31, 0x32, 0xd0, 0x21, 
0x2c, 0x5d, 0xeb, 0x39, 0x14, 0x2e, 0xa9, 0x19, 0xcd, 0x25, 0xc6, 0x35, 0xf0, 0x25, 0x50, 0x3a, 0xea, 0x65, 0x8f, 0x31, 
0x6a, 0x31, 0xca, 0x35, 0xf2, 0x38, 0x0a, 0x42, 0xcf, 0x2d, 0xd0, 0x4d, 0xce, 0x31, 0x6f, 0x31, 0x69, 0x29, 0x2f, 0x31, 
0x4b, 0x3d, 0x4d, 0x3d, 0x4e, 0x2d, 0xaf, 0x35, 0x0c, 0x46, 0xcf, 0x39, 0x93, 0x19, 0x90, 0x35, 0x8a, 0x31, 0x6b, 0x45, 
0x4c, 0x35, 0x4d, 0x39, 0xae, 0x31, 0x50, 0x39, 0x4b, 0x29, 0xad, 0x1d, 0x4c, 0x25, 0x8b, 0x31, 0x6b, 0x35, 0xce, 0x3d, 
0xf0, 0x39, 0xaf, 0x41, 0xf0, 0x2d, 0x30, 0x36, 0x71, 0x41, 0x2f, 0x26, 0x50, 0x3d, 0xcb, 0x39, 0x92, 0x35, 0x71, 0x35, 
0xb0, 0x3d, 0x8e, 0x39, 0x8c, 0x3d, 0x8f, 0x35, 0xab, 0x41, 0x30, 0x36, 0xb0, 0x15, 0x2b, 0x2d, 0x2f, 0x21, 0x4c, 0x35, 
0xcd, 0x39, 0xcd, 0x31, 0x6a, 0x35, 0xae, 0x39, 0x10, 0x39, 0x6e, 0x2d, 0xad, 0x31, 0xaa, 0x19, 0x50, 0x19, 0x4c, 0x32, 
0x30, 0x31, 0x2d, 0x31, 0x4d, 0x31, 0x89, 0x29, 0x4f, 0x41, 0xcf, 0x3d, 0xae, 0x24, 0x8b, 0x3d, 0xed, 0x31, 0x8b, 0x21, 
0xce, 0x51, 0x0e, 0x42, 0x0d, 0x46, 0xac, 0x49, 0xcd, 0x39, 0xb0, 0x31, 0xc9, 0x35, 0x8a, 0x29, 0x4e, 0x3e, 0xf1, 0x41, 
0xae, 0x25, 0xaf, 0x35, 0xf2, 0x41, 0x72, 0x2d, 0xec, 0x3d, 0xed, 0x39, 0xf0, 0x3d, 0xce, 0x41, 0x4e, 0x3a, 0x6f, 0x39, 
0xac, 0x29, 0xb3, 0x31, 0x0a, 0x3a, 0x0e, 0x3a, 0xc8, 0x31, 0x6c, 0x41, 0x8d, 0x35, 0xad, 0x29, 0xec, 0x31, 0x2c, 0x25, 
0x2b, 0x3d, 0x6c, 0x29, 0x4f, 0x29, 0x4a, 0x2a, 0xab, 0x41, 0x2b, 0x36, 0xec, 0x35, 0x2a, 0x22, 0xcd, 0x3d, 0x47, 0x2d, 
0xad, 0x45, 0xe7, 0x39, 0xb0, 0x31, 0x4b, 0x2e, 0xec, 0x35, 0x4b, 0x41, 0x6d, 0x31, 0xac, 0x25, 0xd0, 0x39, 0x2f, 0x3a, 
0x6d, 0x29, 0xf3, 0x45, 0x6a, 0x1d, 0x32, 0x36, 0xcb, 0x39, 0x91, 0x35, 0x2b, 0x25, 0x69, 0x35, 0xca, 0x2d, 0xb0, 0x31, 
0xea, 0x3d, 0x2d, 0x2a, 0x0e, 0x3a, 0x30, 0x42, 0x09, 0x5a, 0x0f, 0x3a, 0xe8, 0x3d, 0x2c, 0x46, 0x6b, 0x31, 0xaa, 0x29, 
0x4b, 0x39, 0x0e, 0x3a, 0x4c, 0x42, 0xd0, 0x35, 0xef, 0x34, 0xce, 0x25, 0x07, 0x2a, 0x72, 0x2d, 0xd2, 0x29, 0xaf, 0x31, 
0xae, 0x39, 0x12, 0x2e, 0xf0, 0x41, 0x6e, 0x21, 0xb0, 0x19, 0xcd, 0x46, 0xab, 0x35, 0x4c, 0x32, 0xe2, 0x2d, 0xe8, 0x41, 
0x2e, 0x35, 0xf6, 0x2c, 0xe8, 0x29, 0x0c, 0x32, 0xaa, 0x25, 0x6f, 0x3d, 0x6f, 0x39, 0x31, 0x42, 0x91, 0x39, 0xc7, 0x40, 
0x6a, 0x39, 0xac, 0x29, 0xcd, 0x2d, 0x68, 0x2d, 0x0a, 0x2a, 0x8e, 0x29, 0xd0, 0x2d, 0x4e, 0x35, 0xf3, 0x49, 0x6b, 0x29, 
0x11, 0x32, 0x4a, 0x1d, 0x4c, 0x61, 0x8a, 0x31, 0xb0, 0x2d, 0xaa, 0x21, 0xd0, 0x25, 0xa4, 0x31, 0x0f, 0x2a, 0xcc, 0x41, 
0x0c, 0x5e, 0xb2, 0x31, 0x0b, 0x2a, 0x10, 0x3e, 0x10, 0x41, 0x0b, 0x36, 0xef, 0x35, 0xec, 0x45, 0x70, 0x31, 0xae, 0x29, 
0x49, 0x39, 0xee, 0x34, 0x6a, 0x2d, 0x0a, 0x32, 0x6d, 0x35, 0xcf, 0x3d, 0xee, 0x35, 0x2d, 0x36, 0x0b, 0x19, 0x8b, 0x3d, 
0xea, 0x39, 0xcb, 0x3d, 0x49, 0x3d, 0x6a, 0x2d, 0x89, 0x2d, 0x4f, 0x2d, 0x8c, 0x3d, 0x10, 0x2a, 0x6c, 0x35, 0x67, 0x39, 
0xcb, 0x3d, 0xad, 0x35, 0xab, 0x2d, 0xef, 0x41, 0x6c, 0x31, 0x6e, 0x3d, 0xcb, 0x2d, 0x8b, 0x31, 0x29, 0x4a, 0x0c, 0x2a, 
0x0e, 0x2a, 0xf2, 0x35, 0x11, 0x3a, 0x10, 0x41, 0x0e, 0x3e, 0xef, 0x2d, 0xad, 0x39, 0xed, 0x3d, 0xab, 0x1d, 0x49, 0x41, 
0xea, 0x35, 0x8f, 0x39, 0x4b, 0x41, 0x8e, 0x3d, 0xec, 0x30, 0x8f, 0x2d, 0x8b, 0x34, 0xcf, 0x38, 0x0b, 0x3e, 0x89, 0x1d, 
0x8e, 0x29, 0x0e, 0x36, 0x8b, 0x3d, 0xae, 0x2c, 0xae, 0x35, 0x4b, 0x35, 0xcc, 0x3d, 0x6c, 0x25, 0x2f, 0x25, 0x88, 0x41, 
0x30, 0x35, 0x8f, 0x19, 0x8e, 0x59, 0xaf, 0x35, 0x8b, 0x41, 0x2a, 0x31, 0xea, 0x3d, 0xaf, 0x31, 0xea, 0x2d, 0x30, 0x36, 
0x8c, 0x35, 0xee, 0x39, 0xd1, 0x29, 0xaa, 0x31, 0x6c, 0x41, 0x0c, 0x2e, 0x4e, 0x31, 0x8a, 0x35, 0xcc, 0x31, 0xaa, 0x35, 
0x2c, 0x3e, 0x6d, 0x2d, 0xaf, 0x1d, 0xb3, 0x29, 0xea, 0x2d, 0x6c, 0x41, 0x6c, 0x39, 0x6f, 0x31, 0x4d, 0x31, 0x8b, 0x41, 
0xaa, 0x2d, 0x8d, 0x35, 0xcb, 0x29, 0xeb, 0x31, 0x0a, 0x32, 0xc7, 0x35, 0x8d, 0x31, 0x69, 0x25, 0x4d, 0x3d, 0xae, 0x21, 
0x0a, 0x36, 0x6e, 0x31, 0xad, 0x51, 0xeb, 0x25, 0xb2, 0x45, 0xae, 0x39, 0x8f, 0x25, 0x6b, 0x31, 0x28, 0x39, 0xeb, 0x21, 
0xef, 0x31, 0x0e, 0x42, 0x6b, 0x35, 0xce, 0x4d, 0xaa, 0x25, 0x72, 0x3d, 0xa8, 0x31, 0x2a, 0x41, 0x8b, 0x35, 0xe7, 0x3d, 
0xad, 0x21, 0xf2, 0x41, 0xac, 0x25, 0x0e, 0x42, 0x8f, 0x3d, 0xcc, 0x35, 0x44, 0x49, 0xef, 0x29, 0xe8, 0x4d, 0xd0, 0x3d, 
0xeb, 0x41, 0x8b, 0x1d, 0x89, 0x39, 0x6e, 0x35, 0x2e, 0x2e, 0xb2, 0x29, 0xab, 0x24, 0x6e, 0x31, 0xe5, 0x35, 0x6c, 0x41, 
0x8d, 0x35, 0xce, 0x3d, 0x6b, 0x35, 0xae, 0x45, 0x4b, 0x31, 0x6d, 0x19, 0x2c, 0x25, 0x8c, 0x46, 0x6b, 0x31, 0xec, 0x2d, 
0xa1, 0x35, 0x6c, 0x39, 0x8c, 0x41, 0x74, 0x41, 0x6b, 0x19, 0xed, 0x35, 0x4e, 0x11, 0x4a, 0x3d, 0x8e, 0x31, 0xef, 0x35, 
0x52, 0x2d, 0x4d, 0x3d, 0xae, 0x3d, 0x2f, 0x21, 0x6b, 0x31, 0xeb, 0x2d, 0x6d, 0x1d, 0x11, 0x2d, 0x93, 0x41, 0x4c, 0x35, 
0xf3, 0x2d, 0x8e, 0x39, 0x31, 0x29, 0x0a, 0x2e, 0xea, 0x58, 0x70, 0x29, 0x12, 0x36, 0x85, 0x21, 0x71, 0x19, 0x83, 0x31, 
0xeb, 0x31, 0xd0, 0x39, 0x6d, 0x4a, 0x73, 0x41, 0x6c, 0x21, 0x89, 0x3d, 0xb0, 0x3c, 0x0a, 0x2e, 0x4b, 0x2d, 0x0d, 0x2a, 
0x8d, 0x2d, 0x8c, 0x2d, 0xcb, 0x35, 0xea, 0x31, 0x6d, 0x3d, 0x0b, 0x3e, 0xac, 0x31, 0xea, 0x41, 0x8d, 0x31, 0xea, 0x29, 
0x4b, 0x31, 0x0a, 0x2e, 0xae, 0x31, 0xac, 0x25, 0xcc, 0x29, 0x10, 0x3a, 0x4f, 0x35, 0x4c, 0x29, 0x4e, 0x2d, 0x30, 0x35, 
0x8c, 0x3d, 0x2c, 0x39, 0xa9, 0x25, 0x8d, 0x41, 0x6c, 0x41, 0x0d, 0x32, 0x6a, 0x35, 0x2b, 0x2d, 0xec, 0x41, 0xac, 0x25, 
0xcf, 0x3d, 0x90, 0x35, 0x10, 0x2e, 0x4c, 0x2d, 0x6e, 0x29, 0xca, 0x3d, 0xee, 0x41, 0x8f, 0x2d, 0x0d, 0x2a, 0x0f, 0x36, 
0x0e, 0x2e, 0x6b, 0x3d, 0x2d, 0x25, 0x90, 0x25, 0xea, 0x39, 0xed, 0x31, 0x6e, 0x41, 0x8e, 0x39, 0xee, 0x3d, 0xab, 0x35, 
0x6d, 0x29, 0x4d, 0x31, 0x0c, 0x2e, 0x8d, 0x39, 0xcc, 0x39, 0xad, 0x2d, 0xeb, 0x31, 0xaf, 0x39, 0xce, 0x25, 0x8e, 0x31, 
0x4d, 0x35, 0xef, 0x2d, 0xab, 0x25, 0x4e, 0x31, 0xce, 0x2d, 0x6b, 0x39, 0xec, 0x3d, 0xeb, 0x35, 0x8b, 0x31, 0x0f, 0x3e, 
0xc9, 0x25, 0x4b, 0x3d, 0x2a, 0x41, 0x30, 0x35, 0xab, 0x3d, 0xee, 0x39, 0x4d, 0x2d, 0x4f, 0x31, 0xcf, 0x35, 0x6e, 0x35, 
0x4f, 0x2d, 0x0d, 0x2a, 0x6d, 0x29, 0x70, 0x29, 0xcc, 0x35, 0xce, 0x29, 0xac, 0x2d, 0xcf, 0x35, 0x2e, 0x31, 0xab, 0x31, 
0x8b, 0x2d, 0x6b, 0x3d, 0x8b, 0x2d, 0x0d, 0x2e, 0xca, 0x39, 0x8c, 0x35, 0xcf, 0x2d, 0xea, 0x3d, 0xcc, 0x35, 0x4c, 0x39, 
0xef, 0x3d, 0x8e, 0x3d, 0x0d, 0x3a, 0xaf, 0x35, 0xea, 0x35, 0xeb, 0x3d, 0xcc, 0x35, 0x0d, 0x3e, 0xcf, 0x25, 0xf0, 0x39, 
0xab, 0x3d, 0x6a, 0x3d, 0x6d, 0x35, 0xea, 0x3d, 0xe9, 0x41, 0xae, 0x3d, 0xed, 0x39, 0xcf, 0x2d, 0x4c, 0x39, 0x8a, 0x31, 
0x6c, 0x35, 0x4b, 0x2d, 0x6d, 0x3d, 0x6c, 0x41, 0xac, 0x29, 0xcc, 0x41, 0x2a, 0x39, 0xec, 0x31, 0xef, 0x39, 0xcc, 0x29, 
0xea, 0x35, 0xa9, 0x35, 0xeb, 0x2d, 0x4c, 0x3d, 0xcf, 0x25, 0xcb, 0x3d, 0x2a, 0x3d, 0x6a, 0x29, 0xed, 0x39, 0xaa, 0x29, 
0x0c, 0x2a, 0x4f, 0x35, 0x30, 0x29, 0xaf, 0x2d, 0x4c, 0x35, 0xcd, 0x25, 0xaf, 0x35, 0x8b, 0x41, 0xcb, 0x2d, 0x8a, 0x31, 
0xcb, 0x39, 0x6b, 0x31, 0x6b, 0x39, 0xef, 0x2d, 0xd0, 0x39, 0x6f, 0x41, 0xc9, 0x41, 0xf0, 0x29, 0x8c, 0x3d, 0x4e, 0x29, 
0xae, 0x31, 0x4d, 0x29, 0x4c, 0x41, 0xce, 0x3d, 0x8f, 0x41, 0x4a, 0x3d, 0x8b, 0x39, 0x10, 0x3a, 0xac, 0x29, 0xec, 0x31, 
0xad, 0x35, 0x4c, 0x39, 0x4a, 0x2d, 0x8c, 0x31, 0xcb, 0x35, 0xcd, 0x39, 0xcd, 0x39, 0xee, 0x3d, 0x4a, 0x29, 0xac, 0x31, 
0x0a, 0x26, 0x8d, 0x39, 0xcd, 0x31, 0xca, 0x3d, 0x6a, 0x3d, 0x10, 0x3a, 0xea, 0x2d, 0x89, 0x35, 0xec, 0x3d, 0x4d, 0x3d, 
0x0d, 0x36, 0xef, 0x41, 0xaf, 0x3d, 0x70, 0x41, 0xed, 0x29, 0xac, 0x39, 0x8a, 0x31, 0x6c, 0x25, 0x0a, 0x2a, 0x0c, 0x32, 
0x6c, 0x45, 0xef, 0x2d, 0xce, 0x19, 0xab, 0x41, 0xae, 0x41, 0xe8, 0x35, 0xcb, 0x38, 0xed, 0x2d, 0xcd, 0x3d, 0xed, 0x45, 
0x0b, 0x2d, 0xb0, 0x1d, 0x8f, 0x21, 0xcb, 0x2d, 0x09, 0x3a, 0xcc, 0x31, 0xae, 0x2d, 0xea, 0x31, 0x8d, 0x2d, 0xab, 0x3d, 
0x4d, 0x3d, 0x8f, 0x39, 0xcc, 0x49, 0xf0, 0x21, 0xb1, 0x3d, 0xf0, 0x3d, 0x4b, 0x39, 0xce, 0x30, 0x4e, 0x3d, 0x8f, 0x35, 
0xeb, 0x3d, 0x90, 0x39, 0xed, 0x0d, 0xa8, 0x49, 0xca, 0x25, 0xb0, 0x29, 0xcf, 0x3d, 0xeb, 0x41, 0x6b, 0x41, 0x6e, 0x29, 
0x0c, 0x39, 0xef, 0x30, 0xed, 0x29, 0xee, 0x29, 0x6e, 0x29, 0x0b, 0x3a, 0x71, 0x45, 0xeb, 0x38, 0x6f, 0x35, 0xcc, 0x39, 
0x6c, 0x35, 0x12, 0x3a, 0xd1, 0x2c, 0x27, 0x2e, 0x50, 0x39, 0xaf, 0x1d, 0x30, 0x4d, 0xb1, 0x35, 0x6f, 0x45, 0xec, 0x45, 
0x8e, 0x31, 0xcc, 0x39, 0x4a, 0x45, 0x6f, 0x31, 0xeb, 0x3d, 0xd0, 0x3d, 0xf1, 0x31, 0x8b, 0x31, 0x0e, 0x3a, 0x93, 0x2d, 
0xec, 0x41, 0x8b, 0x35, 0x4d, 0x42, 0x4b, 0x35, 0x91, 0x39, 0x2e, 0x39, 0xef, 0x24, 0x8f, 0x35, 0x6a, 0x49, 0xef, 0x41, 
0x6b, 0x41, 0xed, 0x2d, 0x30, 0x41, 0xab, 0x31, 0xcb, 0x3d, 0xd0, 0x29, 0x0e, 0x35, 0x2a, 0x21, 0xab, 0x25, 0x48, 0x3e, 
0x8d, 0x35, 0x29, 0x2a, 0x6f, 0x2d, 0x70, 0x21, 0xce, 0x3d, 0x68, 0x39, 0xf0, 0x3d, 0xcd, 0x2d, 0x72, 0x31, 0xcc, 0x35, 
0x69, 0x35, 0xea, 0x2c, 0x09, 0x36, 0xcd, 0x21, 0xcc, 0x45, 0xec, 0x39, 0x6d, 0x2d, 0xd2, 0x41, 0x6c, 0x1d, 0x33, 0x42, 
0x4c, 0x21, 0xab, 0x49, 0xab, 0x31, 0xe9, 0x39, 0x6c, 0x29, 0x2d, 0x42, 0x30, 0x2e, 0x8f, 0x29, 0x2f, 0x3e, 0xec, 0x45, 
0xe6, 0x55, 0x8c, 0x35, 0xca, 0x4d, 0x2f, 0x3e, 0x6c, 0x3d, 0x0f, 0x2e, 0x6e, 0x45, 0xef, 0x2d, 0x0f, 0x36, 0x30, 0x2d, 
0x0e, 0x29, 0xee, 0x39, 0x67, 0x2d, 0xae, 0x2d, 0x6f, 0x31, 0x6d, 0x41, 0xf2, 0x35, 0x8f, 0x35, 0x0f, 0x32, 0x6f, 0x0d, 
0xae, 0x29, 0xcc, 0x4a, 0x88, 0x41, 0x0a, 0x36, 0x60, 0x35, 0x69, 0x35, 0x8e, 0x29, 0xb4, 0x28, 0xac, 0x15, 0x0d, 0x32, 
0x2f, 0x19, 0x0b, 0x42, 0xcc, 0x39, 0x4e, 0x3a, 0x2d, 0x41, 0xa8, 0x40, 0x8f, 0x35, 0x4d, 0x2e, 0xaa, 0x35, 0xcb, 0x39, 
0x90, 0x19, 0x2d, 0x3d, 0x75, 0x41, 0x0a, 0x31, 0xd3, 0x3d, 0x0c, 0x36, 0xd5, 0x35, 0x0d, 0x2a, 0xee, 0x50, 0x8c, 0x3d, 
0x52, 0x39, 0x08, 0x22, 0xcd, 0x1d, 0x43, 0x3d, 0x70, 0x36, 0x8f, 0x39, 0xae, 0x61, 0xd1, 0x29, 0x8e, 0x25, 0x8b, 0x35, 
0x8f, 0x3c, 0xa9, 0x29, 0x8d, 0x31, 0xcc, 0x3d, 0xec, 0x3d, 0x6e, 0x2d, 0x8e, 0x45, 0x6d, 0x31, 0xaa, 0x29, 0x8c, 0x39, 
0xea, 0x35, 0xae, 0x3d, 0xce, 0x35, 0xaa, 0x29, 0x11, 0x3e, 0x6b, 0x2d, 0xae, 0x41, 0x8d, 0x35, 0x90, 0x3d, 0x8e, 0x35, 
0xcb, 0x2d, 0xd0, 0x3d, 0xab, 0x2d, 0xb0, 0x2d, 0xaa, 0x2d, 0xee, 0x29, 0x8f, 0x41, 0x8a, 0x2d, 0xef, 0x2d, 0x8d, 0x39, 
0x8c, 0x31, 0xce, 0x29, 0xab, 0x49, 0xcc, 0x41, 0x6e, 0x31, 0x0b, 0x42, 0x6c, 0x39, 0x8d, 0x31, 0xce, 0x31, 0xab, 0x41, 
0x8b, 0x29, 0x6b, 0x31, 0x89, 0x39, 0x90, 0x31, 0x6d, 0x35, 0x6b, 0x2d, 0xaf, 0x35, 0x6d, 0x35, 0xef, 0x3d, 0xaa, 0x2d, 
0xf0, 0x29, 0xcc, 0x35, 0xef, 0x39, 0x2d, 0x39, 0x8c, 0x31, 0xaa, 0x29, 0x0f, 0x3e, 0x13, 0x3e, 0x32, 0x31, 0x4c, 0x41, 
0x8e, 0x4d, 0x0c, 0x3a, 0x10, 0x46, 0xef, 0x2d, 0xcc, 0x25, 0x50, 0x41, 0xb0, 0x3d, 0xed, 0x3d, 0x0e, 0x36, 0xab, 0x31, 
0x6e, 0x3d, 0x8e, 0x2d, 0xaf, 0x3d, 0x8e, 0x41, 0x6e, 0x35, 0xce, 0x31, 0x4a, 0x25, 0xae, 0x39, 0x2c, 0x2e, 0x8c, 0x29, 
0xd0, 0x39, 0xcf, 0x35, 0xb0, 0x35, 0x0f, 0x3e, 0xb1, 0x31, 0x8b, 0x3d, 0x4b, 0x2d, 0x10, 0x46, 0x0a, 0x36, 0xef, 0x39, 
0xef, 0x35, 0xd0, 0x31, 0x71, 0x3d, 0x8e, 0x39, 0x8c, 0x31, 0x0c, 0x36, 0x0b, 0x3a, 0xca, 0x2d, 0xc8, 0x39, 0x90, 0x41, 
0x4c, 0x2d, 0xcb, 0x29, 0xcc, 0x35, 0x6e, 0x2e, 0xca, 0x35, 0xec, 0x29, 0x0b, 0x3e, 0x09, 0x3a, 0xec, 0x35, 0xc9, 0x39, 
0x4e, 0x3d, 0x6d, 0x2a, 0x6f, 0x2d, 0x8e, 0x36, 0x0b, 0x2a, 0xcc, 0x3d, 0xed, 0x3d, 0xcd, 0x29, 0x8d, 0x31, 0xac, 0x45, 
0xcf, 0x39, 0x11, 0x36, 0x09, 0x2a, 0x8f, 0x41, 0x4d, 0x49, 0x0c, 0x42, 0x4a, 0x29, 0xaa, 0x2d, 0xf0, 0x3d, 0xaa, 0x29, 
0xb0, 0x41, 0xb0, 0x26, 0xaf, 0x41, 0xd2, 0x29, 0xad, 0x39, 0xd0, 0x35, 0x4e, 0x39, 0x4b, 0x35, 0x8e, 0x2d, 0x6f, 0x39, 
0x8b, 0x2d, 0x4c, 0x39, 0x8e, 0x41, 0xef, 0x35, 0xf0, 0x25, 0x0c, 0x26, 0x13, 0x2e, 0x0a, 0x3a, 0x72, 0x29, 0x0a, 0x3e, 
0xeb, 0x3d, 0xd0, 0x39, 0xee, 0x29, 0xce, 0x41, 0x4d, 0x29, 0x6e, 0x31, 0x0d, 0x3e, 0xea, 0x2d, 0x8e, 0x39, 0x70, 0x2d, 
0x8b, 0x31, 0xcd, 0x29, 0x8f, 0x29, 0xee, 0x39, 0x6b, 0x35, 0x4d, 0x32, 0xec, 0x2d, 0xee, 0x41, 0x8e, 0x29, 0x70, 0x21, 
0xaa, 0x35, 0xce, 0x39, 0xed, 0x2d, 0xb3, 0x41, 0x72, 0x3d, 0x50, 0x3e, 0xcc, 0x35, 0x4e, 0x42, 0xee, 0x3d, 0x0f, 0x42, 
0xce, 0x4d, 0xf0, 0x3d, 0xd0, 0x31, 0xcd, 0x2d, 0x0b, 0x36, 0xa9, 0x29, 0x8f, 0x2d, 0x6b, 0x39, 0xad, 0x51, 0xaf, 0x31, 
0x6e, 0x39, 0x4e, 0x2d, 0x4f, 0x2d, 0x8b, 0x2d, 0x51, 0x39, 0xeb, 0x25, 0x30, 0x36, 0x8a, 0x2d, 0x0d, 0x3e, 0xef, 0x35, 
0x0f, 0x3a, 0x8e, 0x31, 0xec, 0x45, 0xaf, 0x39, 0xcf, 0x29, 0xcf, 0x39, 0xc9, 0x4d, 0x0b, 0x36, 0x8e, 0x2d, 0xb0, 0x2d, 
0x10, 0x2e, 0xae, 0x2d, 0x2d, 0x2a, 0xec, 0x31, 0xef, 0x31, 0xad, 0x45, 0x8f, 0x49, 0x8f, 0x3d, 0xb0, 0x41, 0x4e, 0x31, 
0x6b, 0x35, 0xac, 0x45, 0xaf, 0x39, 0x0b, 0x36, 0x6a, 0x2d, 0x6f, 0x49, 0x4f, 0x3a, 0xab, 0x45, 0x0c, 0x3a, 0x8e, 0x41, 
0xab, 0x2d, 0x4c, 0x3e, 0x10, 0x3e, 0x8f, 0x31, 0x11, 0x3a, 0xcd, 0x49, 0xd0, 0x59, 0x0d, 0x36, 0x0f, 0x42, 0x2b, 0x32, 
0xef, 0x3d, 0x6f, 0x41, 0x10, 0x2a, 0x0b, 0x42, 0x6c, 0x3a, 0x0b, 0x2e, 0x71, 0x2d, 0x71, 0x59, 0x4b, 0x45, 0x6c, 0x35, 
0xef, 0x31, 0x8f, 0x36, 0x4f, 0x32, 0xed, 0x2d, 0xeb, 0x35, 0xa9, 0x2d, 0x6b, 0x3a, 0x10, 0x3a, 0x2f, 0x32, 0x71, 0x52, 
0xad, 0x11, 0x8b, 0x31, 0x6f, 0x25, 0xaf, 0x1d, 0x0d, 0x42, 0xcf, 0x41, 0x70, 0x25, 0x2f, 0x2e, 0x8a, 0x45, 0xca, 0x2d, 
0xee, 0x45, 0xcf, 0x45, 0xea, 0x25, 0x69, 0x41, 0xee, 0x2d, 0xac, 0x3d, 0xcd, 0x39, 0x0a, 0x36, 0x6a, 0x2d, 0x4f, 0x46, 
0x0e, 0x5a, 0x06, 0x3e, 0xb3, 0x35, 0xed, 0x31, 0xf3, 0x2d, 0x13, 0x32, 0xcb, 0x3d, 0xec, 0x41, 0x4e, 0x35, 0xab, 0x3d, 
0x6c, 0x3e, 0x6a, 0x4e, 0x6f, 0x45, 0x90, 0x3d, 0xd2, 0x41, 0x4f, 0x39, 0xad, 0x35, 0x6e, 0x4d, 0xf0, 0x45, 0xb4, 0x45, 
0xef, 0x31, 0x6e, 0x41, 0xcc, 0x31, 0x0d, 0x3d, 0x52, 0x31, 0x8b, 0x2e, 0x8d, 0x31, 0x0e, 0x42, 0x6d, 0x2d, 0xf0, 0x34, 
0xd2, 0x31, 0x8f, 0x19, 0x91, 0x41, 0xa8, 0x35, 0x4c, 0x32, 0x4f, 0x3a, 0x6c, 0x4e, 0x8f, 0x39, 0xef, 0x35, 0x8a, 0x29, 
0xab, 0x49, 0xea, 0x3d, 0x2d, 0x36, 0x50, 0x25, 0x35, 0x1e, 0xab, 0x41, 0x70, 0x29, 0xca, 0x29, 0x2f, 0x32, 0x4e, 0x3d, 
0x4d, 0x2d, 0x0d, 0x42, 0xb0, 0x29, 0x88, 0x2d, 0x31, 0x33, 0xd0, 0x45, 0xf2, 0x45, 0xaa, 0x31, 0xe8, 0x35, 0xed, 0x2d, 
0xaa, 0x25, 0x8f, 0x41, 0xb0, 0x35, 0x4d, 0x5a, 0xd1, 0x51, 0x4c, 0x25, 0xf2, 0x45, 0x0e, 0x2d, 0x77, 0x41, 0x6e, 0x29, 
0xf0, 0x31, 0x25, 0x36, 0xb2, 0x55, 0x90, 0x4d, 0x30, 0x52, 0xec, 0x1d, 0x4d, 0x29, 0xab, 0x38, 0x4d, 0x32, 0xcd, 0x32, 
0x4b, 0x3d, 0xab, 0x41, 0xad, 0x3d, 0xae, 0x3d, 0x4d, 0x4d, 0x6c, 0x3a, 0x05, 0x3e, 0x11, 0x42, 0x0c, 0x32, 0xf0, 0x31, 
0x47, 0x41, 0x2f, 0x4e, 0x4c, 0x22, 0x8c, 0x29, 0x46, 0x41, 0x34, 0x5d, 0xac, 0x49, 0x77, 0x3a, 0x6e, 0x41, 0xec, 0x29, 
0xd0, 0x0d, 0xcb, 0x2d, 0xaf, 0x35, 0x6b, 0x29, 0x09, 0x36, 0x93, 0x3d, 0xec, 0x41, 0xce, 0x21, 0xb2, 0x3d, 0xcb, 0x31, 
0xef, 0x35, 0x2e, 0x3e, 0xae, 0x2d, 0x4e, 0x31, 0x4c, 0x35, 0x4b, 0x39, 0x8c, 0x2d, 0x10, 0x2a, 0x2c, 0x4e, 0x2b, 0x3e, 
0xce, 0x29, 0x51, 0x35, 0x6b, 0x3e, 0xef, 0x41, 0xed, 0x29, 0xca, 0x29, 0x8c, 0x2e, 0x4a, 0x41, 0x8b, 0x51, 0xb2, 0x31, 
0x93, 0x35, 0x10, 0x42, 0x70, 0x31, 0x0c, 0x2a, 0xcb, 0x2d, 0xed, 0x39, 0x0a, 0x3e, 0xeb, 0x41, 0xcf, 0x35, 0x4b, 0x49, 
0xaf, 0x39, 0x8d, 0x35, 0xce, 0x31, 0xb0, 0x3a, 0x8c, 0x29, 0xcc, 0x3d, 0x0d, 0x36, 0x8d, 0x39, 0x6c, 0x4d, 0xd0, 0x35, 
0x2e, 0x42, 0x4f, 0x2a, 0xd2, 0x2d, 0xed, 0x41, 0x0f, 0x2a, 0xee, 0x35, 0x4a, 0x46, 0x0d, 0x36, 0xcf, 0x41, 0x90, 0x4d, 
0xac, 0x4d, 0x4a, 0x2d, 0xea, 0x35, 0xaa, 0x2e, 0xca, 0x39, 0x6e, 0x41, 0x0b, 0x2a, 0xe7, 0x45, 0x8f, 0x4a, 0x52, 0x29, 
0x2d, 0x3a, 0xf0, 0x45, 0xe8, 0x1d, 0xaa, 0x2d, 0x4e, 0x1d, 0x8f, 0x1d, 0x4c, 0x2d, 0xac, 0x39, 0xd2, 0x35, 0xeb, 0x2d, 
0x50, 0x31, 0x6a, 0x35, 0x4f, 0x45, 0x6b, 0x45, 0xa9, 0x2d, 0x48, 0x45, 0x0e, 0x3a, 0x0b, 0x3e, 0xca, 0x31, 0x8b, 0x3d, 
0x89, 0x31, 0x6b, 0x3e, 0x70, 0x4e, 0x2b, 0x36, 0x95, 0x41, 0xac, 0x3d, 0x4e, 0x35, 0xb1, 0x41, 0x2b, 0x3a, 0xf0, 0x35, 
0x72, 0x31, 0x8b, 0x51, 0xec, 0x3d, 0x0a, 0x3e, 0x8a, 0x39, 0x11, 0x41, 0x8e, 0x2d, 0x2f, 0x39, 0xed, 0x35, 0xac, 0x39, 
0x31, 0x32, 0xee, 0x31, 0xed, 0x21, 0x2d, 0x41, 0xed, 0x2d, 0xab, 0x31, 0xcf, 0x31, 0x2e, 0x3a, 0xd2, 0x29, 0x2a, 0x3e, 
0xeb, 0x1c, 0x8e, 0x29, 0x12, 0x3a, 0xad, 0x11, 0x0e, 0x42, 0x4c, 0x35, 0xea, 0x49, 0x0c, 0x22, 0x6b, 0x4a, 0x8d, 0x3d, 
0xaf, 0x49, 0xc9, 0x35, 0x2c, 0x31, 0xea, 0x29, 0x08, 0x32, 0x4b, 0x35, 0x72, 0x1d, 0x09, 0x2e, 0x74, 0x29, 0x2a, 0x32, 
0x6c, 0x39, 0xb2, 0x3d, 0x69, 0x39, 0x90, 0x35, 0xab, 0x3d, 0x8b, 0x35, 0xee, 0x46, 0xeb, 0x39, 0x12, 0x46, 0x87, 0x29, 
0x4c, 0x2e, 0xad, 0x29, 0xe8, 0x3d, 0x0f, 0x32, 0xac, 0x29, 0x6a, 0x5a, 0x2a, 0x4e, 0xce, 0x38, 0xd1, 0x31, 0x4a, 0x39, 
0xfb, 0x31, 0xd2, 0x29, 0xd0, 0x35, 0x84, 0x2e, 0xb1, 0x4d, 0x0e, 0x36, 0xeb, 0x51, 0x4b, 0x22, 0xd1, 0x25, 0x0e, 0x35, 
0x29, 0x2e, 0x4f, 0x2a, 0x0c, 0x2a, 0x4f, 0x51, 0x10, 0x2e, 0xb3, 0x41, 0x4b, 0x49, 0x2f, 0x4a, 0x84, 0x41, 0x4b, 0x4a, 
0x4a, 0x25, 0x6b, 0x41, 0xa5, 0x29, 0x0e, 0x52, 0xcf, 0x16, 0x8d, 0x3d, 0x87, 0x35, 0x8f, 0x61, 0x09, 0x46, 0xbb, 0x31, 
0x0e, 0x4d, 0x70, 0x29, 0xef, 0x0d, 0xa6, 0x39, 0x6f, 0x41, 0x0e, 0x3e, 0x4c, 0x26, 0xce, 0x39, 0x8f, 0x41, 0x4f, 0x45, 
0xac, 0x29, 0x4e, 0x31, 0x8f, 0x41, 0x6f, 0x2d, 0x0f, 0x2e, 0xae, 0x31, 0x6b, 0x35, 0x4d, 0x3a, 0xce, 0x41, 0x6d, 0x35, 
0xf0, 0x29, 0x4c, 0x39, 0xab, 0x35, 0x8c, 0x2d, 0x4a, 0x31, 0x10, 0x32, 0xcf, 0x39, 0x71, 0x3d, 0x6a, 0x35, 0xef, 0x2d, 
0xad, 0x2d, 0x0b, 0x4a, 0x88, 0x35, 0xf0, 0x41, 0x6f, 0x35, 0x6a, 0x3d, 0xb0, 0x29, 0xcf, 0x39, 0x0c, 0x42, 0xed, 0x35, 
0xac, 0x3d, 0xca, 0x25, 0xd1, 0x3d, 0x11, 0x3e, 0xad, 0x39, 0xeb, 0x4c, 0xcf, 0x31, 0x2f, 0x2a, 0xcf, 0x35, 0xb1, 0x29, 
0x90, 0x25, 0xaa, 0x41, 0xcf, 0x31, 0xd5, 0x35, 0xcb, 0x45, 0x8a, 0x35, 0x4d, 0x3d, 0x8f, 0x2d, 0x4f, 0x3d, 0x8e, 0x29, 
0xcf, 0x29, 0xad, 0x29, 0x4d, 0x1d, 0x50, 0x3a, 0xb2, 0x31, 0xb0, 0x34, 0x6d, 0x2d, 0x4a, 0x3d, 0xcb, 0x49, 0x50, 0x39, 
0xd0, 0x30, 0xec, 0x39, 0x90, 0x3d, 0x2b, 0x29, 0x54, 0x5e, 0x4b, 0x2a, 0xed, 0x51, 0x6d, 0x41, 0x6f, 0x3d, 0x6f, 0x2d, 
0x88, 0x41, 0x4e, 0x39, 0x4f, 0x32, 0xb2, 0x3d, 0x0e, 0x36, 0x0b, 0x3e, 0x73, 0x3d, 0xd1, 0x29, 0xb0, 0x39, 0x4e, 0x31, 
0x6d, 0x32, 0x91, 0x45, 0xd2, 0x41, 0x0b, 0x31, 0x4b, 0x11, 0xd1, 0x65, 0xa6, 0x39, 0xb0, 0x35, 0xed, 0x39, 0x07, 0x2e, 
0x8b, 0x35, 0x2f, 0x36, 0x6d, 0x2d, 0xef, 0x21, 0x2e, 0x39, 0x8c, 0x35, 0xcb, 0x3d, 0x0a, 0x2a, 0x8d, 0x2d, 0xe8, 0x29, 
0xcb, 0x3d, 0xce, 0x25, 0xad, 0x3d, 0xaa, 0x35, 0x10, 0x3e, 0x0d, 0x3e, 0x51, 0x39, 0xf3, 0x45, 0x6d, 0x41, 0x70, 0x41, 
0x8e, 0x29, 0xee, 0x25, 0x6b, 0x46, 0x0c, 0x42, 0x6c, 0x35, 0x10, 0x46, 0xcc, 0x1d, 0x30, 0x3a, 0xb0, 0x25, 0x2f, 0x35, 
0xab, 0x31, 0xac, 0x41, 0xcf, 0x2d, 0x10, 0x3a, 0xed, 0x29, 0x12, 0x2a, 0x10, 0x36, 0xf0, 0x39, 0xa7, 0x4a, 0x92, 0x41, 
0x8b, 0x39, 0x6a, 0x31, 0xca, 0x39, 0xce, 0x35, 0xf1, 0x45, 0xcb, 0x39, 0x6d, 0x4a, 0x2e, 0x31, 0xcc, 0x3c, 0xaa, 0x2d, 
0x84, 0x35, 0xf3, 0x41, 0x50, 0x41, 0x0a, 0x32, 0x33, 0x36, 0x70, 0x3d, 0xac, 0x35, 0x0b, 0x25, 0x8e, 0x15, 0xea, 0x5e, 
0x48, 0x3d, 0xab, 0x39, 0x42, 0x35, 0x6b, 0x2d, 0x2b, 0x39, 0xd7, 0x30, 0xa9, 0x2d, 0x90, 0x29, 0x2c, 0x25, 0x6e, 0x41, 
0x6e, 0x41, 0x2e, 0x3a, 0x70, 0x3d, 0x2b, 0x3d, 0x8e, 0x31, 0x0a, 0x22, 0x8f, 0x41, 0x8c, 0x41, 0x0d, 0x1a, 0x52, 0x3d, 
0x50, 0x2d, 0x75, 0x25, 0xce, 0x39, 0x8f, 0x31, 0x36, 0x32, 0xad, 0x35, 0x6d, 0x5d, 0x0c, 0x3e, 0x53, 0x2d, 0xaa, 0x25, 
0xce, 0x19, 0x84, 0x41, 0x50, 0x32, 0xcf, 0x35, 0x0f, 0x4e, 0xd6, 0x3d, 0x6a, 0x35, 0xef, 0x31, 0x33, 0x45, 0x09, 0x32, 
0x91, 0x3d, 0x70, 0x39, 0x30, 0x46, 0x93, 0x41, 0xcc, 0x39, 0x4b, 0x42, 0xce, 0x2d, 0x4c, 0x39, 0xb3, 0x41, 0x8c, 0x31, 
0x4b, 0x3e, 0xb0, 0x41, 0xec, 0x45, 0xaf, 0x1d, 0xad, 0x2d, 0x71, 0x29, 0x4e, 0x41, 0xcd, 0x39, 0xcf, 0x39, 0x4d, 0x31, 
0xcd, 0x2d, 0x0c, 0x3e, 0x4c, 0x69, 0x2e, 0x42, 0xf3, 0x41, 0x10, 0x32, 0x6e, 0x45, 0xac, 0x3d, 0x2a, 0x31, 0x8a, 0x35, 
0x4a, 0x49, 0xab, 0x31, 0x2a, 0x3e, 0xad, 0x45, 0x8d, 0x3d, 0x2a, 0x3a, 0x0f, 0x2a, 0x6a, 0x1e, 0x6f, 0x2d, 0xcc, 0x39, 
0xaa, 0x2d, 0xed, 0x41, 0xec, 0x49, 0x92, 0x35, 0x2b, 0x2e, 0x71, 0x3d, 0x6d, 0x39, 0xcf, 0x35, 0xed, 0x29, 0x4a, 0x29, 
0x90, 0x42, 0xec, 0x31, 0x8c, 0x31, 0x30, 0x39, 0x4d, 0x3d, 0x2e, 0x29, 0xe9, 0x35, 0x2f, 0x36, 0x8d, 0x3e, 0xce, 0x35, 
0x8f, 0x31, 0xca, 0x45, 0x28, 0x36, 0xf2, 0x35, 0xcc, 0x39, 0x6f, 0x3d, 0x4a, 0x2e, 0xd0, 0x39, 0xed, 0x3d, 0xcd, 0x3d, 
0xf0, 0x35, 0x6f, 0x3d, 0x73, 0x41, 0x8c, 0x31, 0x8f, 0x39, 0xab, 0x35, 0xaa, 0x4d, 0xee, 0x41, 0x8b, 0x3d, 0xcc, 0x2d, 
0xab, 0x35, 0xce, 0x3d, 0xee, 0x34, 0xae, 0x3d, 0x6b, 0x35, 0x8d, 0x3e, 0xcf, 0x51, 0x0f, 0x32, 0xb4, 0x36, 0xef, 0x2d, 
0x55, 0x39, 0x4e, 0x3d, 0x2c, 0x32, 0xaa, 0x31, 0xad, 0x3d, 0x4a, 0x39, 0x0e, 0x1a, 0x2c, 0x4a, 0x90, 0x45, 0xd2, 0x2d, 
0xed, 0x2d, 0x6c, 0x45, 0xad, 0x2d, 0x8e, 0x31, 0x71, 0x29, 0x94, 0x35, 0xee, 0x35, 0x6d, 0x45, 0xae, 0x25, 0xf2, 0x3d, 
0x8f, 0x39, 0x90, 0x2e, 0x51, 0x29, 0x4e, 0x39, 0xcd, 0x25, 0xef, 0x2d, 0xcf, 0x39, 0x0b, 0x36, 0x0d, 0x42, 0xd2, 0x35, 
0xb2, 0x35, 0xab, 0x25, 0x0d, 0x32, 0xf0, 0x41, 0xaa, 0x49, 0x2d, 0x41, 0x6c, 0x31, 0xcd, 0x3d, 0x8c, 0x3d, 0x2a, 0x39, 
0x10, 0x2a, 0x0e, 0x3a, 0x68, 0x31, 0x6f, 0x3a, 0xaa, 0x3d, 0x6c, 0x29, 0x8a, 0x41, 0xcd, 0x35, 0x70, 0x31, 0xcc, 0x29, 
0xcc, 0x35, 0x2a, 0x36, 0x6c, 0x41, 0x49, 0x31, 0x87, 0x3d, 0xb0, 0x41, 0xc9, 0x31, 0x2c, 0x29, 0x4d, 0x2d, 0x0f, 0x4b, 
0x0d, 0x42, 0x0f, 0x35, 0x75, 0x3e, 0x2e, 0x31, 0x5e, 0x35, 0xb0, 0x3d, 0xc9, 0x39, 0xa8, 0x2d, 0x91, 0x3d, 0xcf, 0x45, 
0xcf, 0x42, 0xaa, 0x2d, 0x71, 0x2d, 0x4c, 0x3d, 0xac, 0x2d, 0x2d, 0x32, 0x0f, 0x3e, 0x6d, 0x31, 0x6f, 0x25, 0x6f, 0x45, 
0xce, 0x45, 0xce, 0x2d, 0x8d, 0x2d, 0x0e, 0x56, 0xca, 0x29, 0x70, 0x2d, 0x0c, 0x3e, 0xef, 0x39, 0x4b, 0x32, 0x2a, 0x3e, 
0x66, 0x31, 0xb0, 0x3d, 0xf0, 0x45, 0xd9, 0x31, 0x8f, 0x41, 0xad, 0x35, 0x2a, 0x19, 0x4d, 0x31, 0xef, 0x51, 0x2e, 0x41, 
0x2b, 0x3e, 0x91, 0x31, 0x0c, 0x3a, 0x6b, 0x39, 0xf0, 0x3d, 0x8d, 0x31, 0xca, 0x3d, 0x4e, 0x29, 0x6d, 0x35, 0x8c, 0x3d, 
0xb0, 0x39, 0xac, 0x39, 0xcc, 0x2d, 0x0f, 0x2a, 0x4e, 0x29, 0x4f, 0x39, 0x8d, 0x49, 0x4b, 0x31, 0x0e, 0x3d, 0x6f, 0x29, 
0x4c, 0x39, 0x6f, 0x31, 0x6e, 0x3d, 0x2d, 0x26, 0xcf, 0x2d, 0xcd, 0x35, 0xad, 0x39, 0xd0, 0x29, 0x8a, 0x3d, 0x6b, 0x29, 
0xae, 0x2d, 0x6c, 0x39, 0x6f, 0x35, 0xce, 0x25, 0xae, 0x39, 0x0b, 0x2e, 0xb0, 0x31, 0xcb, 0x3d, 0xac, 0x2d, 0xcf, 0x3c, 
0xaf, 0x3d, 0xcf, 0x29, 0xef, 0x31, 0x4f, 0x2e, 0xaa, 0x1d, 0x69, 0x3d, 0xcf, 0x25, 0xed, 0x31, 0x4b, 0x45, 0xcd, 0x39, 
0x2d, 0x2d, 0xeb, 0x25, 0x0b, 0x29, 0x4e, 0x39, 0x70, 0x39, 0x2e, 0x12, 0xf1, 0x25, 0x2f, 0x2a, 0x31, 0x39, 0x8e, 0x28, 
0xeb, 0x28, 0xec, 0x3d, 0x6c, 0x45, 0x0f, 0x32, 0x30, 0x31, 0xec, 0x41, 0x2e, 0x41, 0x0b, 0x29, 0x91, 0x4d, 0xec, 0x29, 
0xac, 0x3d, 0x6b, 0x41, 0x6e, 0x35, 0xef, 0x3d, 0x0c, 0x4e, 0x6b, 0x3d, 0xab, 0x39, 0xf2, 0x31, 0xb2, 0x3d, 0x30, 0x2e, 
0x71, 0x35, 0xf2, 0x25, 0xab, 0x2d, 0x4b, 0x29, 0x2b, 0x32, 0xed, 0x45, 0x51, 0x3a, 0x2e, 0x31, 0xaf, 0x1d, 0x95, 0x41, 
0xea, 0x31, 0xca, 0x31, 0xc9, 0x4d, 0xaa, 0x2d, 0x8d, 0x39, 0xee, 0x2d, 0xa8, 0x29, 0xce, 0x21, 0x4f, 0x39, 0x0c, 0x39, 
0x6c, 0x25, 0x09, 0x42, 0x2d, 0x35, 0xa8, 0x3d, 0xca, 0x3d, 0xcc, 0x29, 0x30, 0x3a, 0x86, 0x35, 0xee, 0x3d, 0xc7, 0x3d, 
0x92, 0x41, 0x6a, 0x2e, 0x6e, 0x41, 0x4d, 0x41, 0xeb, 0x3d, 0x0e, 0x36, 0xca, 0x49, 0xef, 0x39, 0xcd, 0x35, 0xcd, 0x41, 
0x0b, 0x2e, 0x0d, 0x36, 0x2f, 0x2d, 0x31, 0x35, 0x2b, 0x2d, 0xae, 0x2d, 0xee, 0x2d, 0x0e, 0x3e, 0x50, 0x36, 0x11, 0x3a, 
0xd2, 0x3d, 0x0e, 0x36, 0x09, 0x52, 0xd1, 0x2d, 0x6a, 0x45, 0x6b, 0x3d, 0x2f, 0x2d, 0x70, 0x35, 0xb0, 0x31, 0x70, 0x31, 
0xac, 0x3d, 0xae, 0x31, 0x0f, 0x41, 0x50, 0x35, 0xa5, 0x39, 0x90, 0x35, 0x4d, 0x35, 0xab, 0x2d, 0xec, 0x31, 0xee, 0x41, 
0x90, 0x41, 0x6a, 0x29, 0x2e, 0x21, 0xad, 0x36, 0xcb, 0x2d, 0x4c, 0x42, 0x05, 0x32, 0xc8, 0x41, 0xeb, 0x38, 0x56, 0x29, 
0xc9, 0x25, 0x8b, 0x29, 0x4d, 0x21, 0xed, 0x41, 0xab, 0x45, 0xcd, 0x46, 0xb0, 0x2d, 0xec, 0x3c, 0x0c, 0x36, 0xef, 0x31, 
0x6c, 0x45, 0x6b, 0x45, 0xcb, 0x21, 0x32, 0x2d, 0x32, 0x29, 0x6d, 0x29, 0x71, 0x49, 0xaa, 0x2d, 0xb3, 0x31, 0x10, 0x2e, 
0x4b, 0x61, 0xad, 0x31, 0x92, 0x39, 0x4c, 0x22, 0x91, 0x19, 0xa4, 0x35, 0x2f, 0x22, 0x8f, 0x49, 0xea, 0x55, 0x74, 0x39, 
0x0b, 0x36, 0x0d, 0x4a, 0xae, 0x40, 0x8d, 0x31, 0x4d, 0x39, 0x70, 0x21, 0x8e, 0x4a, 0xef, 0x39, 0xf1, 0x3d, 0x4e, 0x4e, 
0x8b, 0x3d, 0x10, 0x4a, 0x50, 0x45, 0x2c, 0x3d, 0xae, 0x41, 0x8d, 0x2d, 0x0d, 0x5a, 0x0e, 0x3a, 0xcf, 0x31, 0x14, 0x32, 
0xb0, 0x36, 0x6f, 0x2d, 0x10, 0x3e, 0x11, 0x36, 0xf1, 0x3d, 0x6b, 0x51, 0xcc, 0x3d, 0x11, 0x56, 0x50, 0x29, 0x2a, 0x2e, 
0xcc, 0x35, 0x70, 0x3d, 0x6e, 0x3d, 0xcf, 0x31, 0xcf, 0x39, 0x6f, 0x39, 0x0f, 0x2a, 0x6b, 0x39, 0x6c, 0x3d, 0xea, 0x41, 
0xe9, 0x3d, 0x28, 0x3a, 0xce, 0x39, 0xcb, 0x39, 0xec, 0x35, 0xca, 0x39, 0xed, 0x45, 0xf1, 0x2d, 0x2c, 0x3e, 0xf1, 0x35, 
0x4b, 0x31, 0xac, 0x45, 0xcf, 0x35, 0xab, 0x3d, 0xae, 0x46, 0x4a, 0x2e, 0xf1, 0x3d, 0xd2, 0x39, 0x6b, 0x51, 0x2b, 0x2d, 
0xae, 0x35, 0xb0, 0x36, 0xce, 0x35, 0xf2, 0x41, 0xeb, 0x39, 0xac, 0x41, 0x8c, 0x42, 0xb3, 0x29, 0x10, 0x42, 0x0c, 0x3a, 
0x8a, 0x36, 0x6c, 0x35, 0x51, 0x31, 0x10, 0x3e, 0x70, 0x39, 0x0e, 0x42, 0x71, 0x41, 0x0a, 0x2e, 0xaa, 0x3d, 0x4b, 0x3d, 
0x6c, 0x45, 0xea, 0x35, 0xe9, 0x31, 0xab, 0x31, 0x32, 0x2a, 0xac, 0x39, 0xcd, 0x31, 0xef, 0x39, 0xd1, 0x31, 0x4a, 0x2e, 
0x4b, 0x4e, 0x8a, 0x51, 0xd1, 0x45, 0xae, 0x2d, 0x30, 0x3a, 0xae, 0x31, 0x0f, 0x32, 0xea, 0x2d, 0x4e, 0x45, 0xb0, 0x45, 
0x2d, 0x3a, 0x6e, 0x31, 0xf1, 0x45, 0x32, 0x2a, 0xb1, 0x35, 0xb0, 0x49, 0xcf, 0x2d, 0xcd, 0x45, 0x0e, 0x32, 0x51, 0x42, 
0xee, 0x2d, 0x72, 0x35, 0x0a, 0x36, 0x30, 0x29, 0x6f, 0x3d, 0x4f, 0x3a, 0x2f, 0x2a, 0xb0, 0x3d, 0xea, 0x39, 0xca, 0x39, 
0xb1, 0x3d, 0x0c, 0x1e, 0xac, 0x49, 0xcf, 0x39, 0x0f, 0x46, 0x30, 0x32, 0x4d, 0x4e, 0x6d, 0x3d, 0xcd, 0x3d, 0x29, 0x42, 
0x70, 0x39, 0xeb, 0x41, 0x8a, 0x25, 0x0b, 0x3e, 0xef, 0x2a, 0xae, 0x41, 0x94, 0x21, 0x6f, 0x2d, 0x10, 0x3e, 0xee, 0x3d, 
0xed, 0x31, 0x8d, 0x31, 0x30, 0x31, 0xad, 0x41, 0x8c, 0x46, 0x2d, 0x36, 0x95, 0x3d, 0xcf, 0x2d, 0x2e, 0x42, 0x70, 0x41, 
0x8b, 0x29, 0x2c, 0x42, 0x0c, 0x36, 0xad, 0x55, 0x6a, 0x46, 0xec, 0x4c, 0x0f, 0x2e, 0xcd, 0x39, 0xb5, 0x45, 0x6f, 0x41, 
0x2d, 0x36, 0x29, 0x3a, 0xef, 0x45, 0xee, 0x3d, 0xef, 0x49, 0x4d, 0x2a, 0xcf, 0x39, 0x8b, 0x2d, 0x2a, 0x36, 0x91, 0x3a, 
0xca, 0x31, 0xcb, 0x3d, 0x0c, 0x3a, 0xef, 0x25, 0x70, 0x45, 0x2b, 0x46, 0x88, 0x39, 0x75, 0x3a, 0x8d, 0x3d, 0x6a, 0x35, 
0xec, 0x2d, 0x8a, 0x49, 0x70, 0x1a, 0xea, 0x35, 0x68, 0x2d, 0x95, 0x55, 0xee, 0x59, 0x98, 0x36, 0x70, 0x3d, 0x4f, 0x3d, 
0x70, 0x21, 0x8d, 0x35, 0xee, 0x49, 0x71, 0x36, 0xeb, 0x35, 0xcd, 0x3d, 0x4d, 0x39, 0x6a, 0x2d, 0xee, 0x39, 0xef, 0x2d, 
0xf0, 0x3d, 0xec, 0x35, 0xd0, 0x29, 0x4c, 0x39, 0xcd, 0x2d, 0x8f, 0x29, 0xf0, 0x35, 0x0b, 0x42, 0xcf, 0x29, 0x8b, 0x29, 
0xae, 0x29, 0x6f, 0x31, 0x4c, 0x29, 0x90, 0x35, 0xad, 0x25, 0x4b, 0x31, 0xcc, 0x29, 0x6c, 0x2d, 0x2e, 0x32, 0x11, 0x2a, 
0x0c, 0x2a, 0xce, 0x3d, 0x8d, 0x25, 0xec, 0x29, 0x6a, 0x39, 0x0b, 0x41, 0x50, 0x49, 0xcb, 0x31, 0xc8, 0x41, 0x6f, 0x2d, 
0xce, 0x25, 0xcc, 0x35, 0x2c, 0x3d, 0xaa, 0x41, 0xec, 0x3d, 0x8b, 0x35, 0xa8, 0x39, 0x4b, 0x35, 0xd0, 0x2d, 0xad, 0x3d, 
0x0b, 0x2d, 0x4f, 0x41, 0x8c, 0x41, 0x0b, 0x41, 0x8d, 0x3d, 0x8f, 0x29, 0x8f, 0x39, 0xcf, 0x3d, 0xec, 0x39, 0xec, 0x35, 
0x6e, 0x29, 0xcd, 0x41, 0xcc, 0x31, 0x4d, 0x31, 0xad, 0x39, 0x0f, 0x2e, 0x4f, 0x3d, 0x70, 0x2d, 0xeb, 0x28, 0xed, 0x39, 
0xee, 0x28, 0xcd, 0x39, 0xb1, 0x45, 0x6a, 0x39, 0x8f, 0x41, 0xae, 0x31, 0xec, 0x39, 0x0e, 0x4a, 0xce, 0x35, 0xcf, 0x31, 
0x8a, 0x39, 0x70, 0x31, 0x0b, 0x2a, 0xcf, 0x39, 0xf1, 0x39, 0x70, 0x3d, 0x8b, 0x2d, 0x4f, 0x39, 0xcd, 0x1d, 0xcf, 0x3d, 
0xf0, 0x2d, 0x4c, 0x2d, 0xcb, 0x41, 0x8d, 0x31, 0x4b, 0x35, 0xac, 0x39, 0xcb, 0x3d, 0x6c, 0x3d, 0xaa, 0x29, 0x0b, 0x32, 
0xec, 0x41, 0x8b, 0x39, 0x67, 0x31, 0xec, 0x29, 0xcd, 0x2d, 0x4e, 0x31, 0x46, 0x2d, 0xea, 0x39, 0x0f, 0x2e, 0x4c, 0x2d, 
0xaa, 0x39, 0x88, 0x39, 0xf0, 0x39, 0x4e, 0x2d, 0x6c, 0x35, 0x8c, 0x42, 0xac, 0x2d, 0x0c, 0x42, 0x4e, 0x2d, 0xed, 0x39, 
0x8e, 0x49, 0xab, 0x39, 0x6d, 0x2d, 0xd3, 0x4d, 0xcf, 0x31, 0x2e, 0x3e, 0x4b, 0x35, 0x2e, 0x41, 0x4d, 0x39, 0x8e, 0x3d, 
0xce, 0x35, 0xef, 0x41, 0x6c, 0x29, 0x71, 0x2d, 0xef, 0x41, 0x4b, 0x42, 0x4d, 0x35, 0xcf, 0x35, 0xaf, 0x49, 0x8e, 0x45, 
0xce, 0x31, 0xd0, 0x31, 0xad, 0x35, 0xcd, 0x31, 0x8e, 0x35, 0x70, 0x29, 0x0c, 0x35, 0x0c, 0x21, 0xd0, 0x31, 0x8f, 0x29, 
0x91, 0x2d, 0x0e, 0x2e, 0xef, 0x35, 0x0e, 0x3a, 0xad, 0x2d, 0xcd, 0x28, 0x0c, 0x3a, 0xef, 0x31, 0x6d, 0x35, 0xed, 0x3d, 
0xed, 0x31, 0xca, 0x31, 0x0d, 0x32, 0x8b, 0x39, 0xca, 0x35, 0x8e, 0x29, 0x0d, 0x21, 0xcd, 0x31, 0xab, 0x2d, 0x8c, 0x3a, 
0x4b, 0x2d, 0xe9, 0x2d, 0x4a, 0x3d, 0x8c, 0x21, 0x88, 0x35, 0x6d, 0x3d, 0xab, 0x35, 0x8c, 0x41, 0x8e, 0x41, 0x0a, 0x46, 
0xaf, 0x3d, 0x6c, 0x2a, 0xec, 0x2d, 0x4f, 0x2d, 0x4c, 0x3d, 0x6b, 0x36, 0xf1, 0x39, 0xb1, 0x3d, 0x4a, 0x2d, 0xe9, 0x2d, 
0xaa, 0x25, 0x8b, 0x3d, 0xd0, 0x39, 0xb0, 0x35, 0x8e, 0x1d, 0x09, 0x2e, 0xec, 0x28, 0xae, 0x35, 0x2c, 0x2a, 0x70, 0x51, 
0x4f, 0x35, 0x0f, 0x3a, 0x6c, 0x41, 0x2a, 0x3d, 0x8a, 0x35, 0x8b, 0x31, 0xef, 0x35, 0xad, 0x35, 0x0c, 0x2e, 0x0f, 0x2e, 
0x4f, 0x2d, 0x2b, 0x49, 0x0e, 0x46, 0xcc, 0x41, 0xeb, 0x30, 0x8b, 0x2d, 0x2c, 0x31, 0x6f, 0x35, 0xab, 0x3d, 0x50, 0x1e, 
0x8f, 0x1d, 0xcc, 0x41, 0x07, 0x32, 0x70, 0x39, 0xce, 0x29, 0xef, 0x31, 0x8b, 0x41, 0x91, 0x39, 0x8f, 0x39, 0x0e, 0x36, 
0x4d, 0x35, 0xec, 0x35, 0x8c, 0x39, 0x90, 0x31, 0x6c, 0x31, 0xed, 0x38, 0x0e, 0x2e, 0xec, 0x29, 0xcc, 0x41, 0xf0, 0x31, 
0xad, 0x11, 0x8d, 0x41, 0x6f, 0x2d, 0xcf, 0x3d, 0xeb, 0x31, 0x6d, 0x41, 0xad, 0x35, 0x8b, 0x31, 0xcb, 0x2c, 0x0a, 0x39, 
0x8b, 0x2d, 0xed, 0x15, 0x4f, 0x19, 0x2b, 0x36, 0xcc, 0x3d, 0x0f, 0x45, 0xaa, 0x2d, 0xac, 0x31, 0x4b, 0x31, 0x93, 0x2d, 
0xee, 0x38, 0xeb, 0x41, 0xab, 0x31, 0x0f, 0x25, 0x8f, 0x5d, 0xcb, 0x35, 0x8a, 0x45, 0x6b, 0x41, 0xd0, 0x41, 0xd1, 0x39, 
0x4a, 0x45, 0x8d, 0x2d, 0xad, 0x39, 0xd1, 0x39, 0x70, 0x36, 0x2a, 0x2a, 0x90, 0x39, 0xd0, 0x39, 0x8e, 0x35, 0x6a, 0x41, 
0x51, 0x3e, 0x8e, 0x31, 0x32, 0x46, 0x4d, 0x39, 0x0c, 0x29, 0xf4, 0x41, 0xe8, 0x49, 0x8e, 0x35, 0x8a, 0x49, 0x07, 0x3e, 
0x2d, 0x2d, 0xac, 0x41, 0x0a, 0x2e, 0xcd, 0x2d, 0x0c, 0x3d, 0x6e, 0x39, 0xf1, 0x3d, 0x6c, 0x3e, 0x48, 0x35, 0xc9, 0x39, 
0x0a, 0x32, 0xcc, 0x39, 0x8a, 0x35, 0x48, 0x31, 0xed, 0x49, 0x6d, 0x32, 0x2f, 0x4d, 0xef, 0x29, 0x8c, 0x3d, 0x2c, 0x31, 
0x2a, 0x36, 0x2e, 0x26, 0x6c, 0x36, 0x4d, 0x2e, 0xac, 0x3d, 0x33, 0x46, 0xaf, 0x25, 0x2f, 0x36, 0xca, 0x29, 0x6d, 0x3d, 
0x0c, 0x1d, 0x48, 0x3d, 0x0b, 0x3a, 0x2e, 0x3a, 0x2d, 0x42, 0xb3, 0x3d, 0xd1, 0x39, 0x0f, 0x3e, 0xc6, 0x55, 0x52, 0x3d, 
0x4a, 0x45, 0x2e, 0x4e, 0x2b, 0x45, 0x10, 0x36, 0xcd, 0x3d, 0x0f, 0x32, 0x2b, 0x46, 0xd2, 0x41, 0xaf, 0x28, 0x8f, 0x25, 
0x05, 0x26, 0x91, 0x41, 0x32, 0x41, 0xec, 0x41, 0x32, 0x3a, 0xef, 0x2d, 0xea, 0x2d, 0xcb, 0x11, 0x0f, 0x2d, 0x69, 0x36, 
0xec, 0x35, 0x6c, 0x32, 0xa3, 0x45, 0x4b, 0x31, 0xeb, 0x38, 0xb3, 0x38, 0x4b, 0x29, 0xca, 0x21, 0x90, 0x2d, 0x70, 0x4d, 
0x4b, 0x49, 0x4e, 0x42, 0x53, 0x39, 0xcb, 0x3c, 0xcc, 0x35, 0x2f, 0x22, 0x4f, 0x2d, 0xcc, 0x41, 0x10, 0x2e, 0x72, 0x35, 
0x96, 0x2d, 0x0c, 0x35, 0x8f, 0x4d, 0x2f, 0x3a, 0xb2, 0x29, 0x0a, 0x22, 0x0c, 0x51, 0xaa, 0x3d, 0x71, 0x2d, 0xeb, 0x11, 
0x90, 0x29, 0x85, 0x39, 0x0a, 0x26, 0x2d, 0x46, 0xcf, 0x69, 0x33, 0x42, 0xad, 0x29, 0xcc, 0x45, 0xaf, 0x30, 0x4a, 0x36, 
0x2b, 0x36, 0x0b, 0x4e, 0x8b, 0x35, 0x8a, 0x3d, 0xcd, 0x39, 0xd0, 0x39, 0x70, 0x2d, 0x0b, 0x32, 0x6b, 0x39, 0x2f, 0x32, 
0x8d, 0x3d, 0xcd, 0x41, 0x6f, 0x15, 0x2b, 0x45, 0xf0, 0x35, 0xaa, 0x39, 0xcf, 0x28, 0x0e, 0x2a, 0xab, 0x39, 0x90, 0x35, 
0x4d, 0x2d, 0xad, 0x31, 0xaf, 0x35, 0x8a, 0x45, 0xca, 0x31, 0xd0, 0x3d, 0x6f, 0x31, 0xcb, 0x3d, 0x30, 0x42, 0xaf, 0x3d, 
0x0e, 0x36, 0xac, 0x31, 0xcd, 0x4d, 0xec, 0x2d, 0xcc, 0x25, 0xd1, 0x39, 0xcd, 0x2d, 0x6c, 0x35, 0x6f, 0x41, 0x2b, 0x2a, 
0x8e, 0x35, 0x8d, 0x41, 0x8b, 0x25, 0x88, 0x35, 0x8d, 0x29, 0x8c, 0x39, 0xed, 0x41, 0x2c, 0x3e, 0x2d, 0x39, 0xea, 0x31, 
0x4d, 0x31, 0x8d, 0x41, 0xb0, 0x31, 0xeb, 0x21, 0x92, 0x11, 0x10, 0x2e, 0xce, 0x35, 0xae, 0x40, 0x2e, 0x41, 0x2b, 0x36, 
0x6e, 0x49, 0xd1, 0x41, 0xad, 0x24, 0x0a, 0x3a, 0x8b, 0x45, 0xac, 0x31, 0xce, 0x4d, 0xad, 0x29, 0x70, 0x3d, 0x70, 0x41, 
0x4a, 0x31, 0xee, 0x3d, 0xe8, 0x49, 0x8b, 0x39, 0x2c, 0x3e, 0x10, 0x42, 0x10, 0x3a, 0xce, 0x39, 0xed, 0x49, 0xd3, 0x2d, 
0x8c, 0x41, 0xca, 0x3d, 0x51, 0x2e, 0xd1, 0x35, 0x10, 0x3a, 0x4d, 0x31, 0x2b, 0x15, 0xef, 0x31, 0xa7, 0x45, 0x0a, 0x2e, 
0x0a, 0x4e, 0x8a, 0x39, 0x4b, 0x31, 0xae, 0x41, 0x6b, 0x45, 0xac, 0x21, 0x4d, 0x2d, 0x4e, 0x2d, 0x0d, 0x36, 0xa7, 0x31, 
0x8a, 0x29, 0xec, 0x2d, 0xca, 0x39, 0x0c, 0x32, 0x6e, 0x29, 0x49, 0x25, 0x4d, 0x3d, 0x6b, 0x3a, 0x6f, 0x3d, 0xb0, 0x39, 
0x4d, 0x31, 0x4d, 0x35, 0x6b, 0x39, 0xeb, 0x29, 0x2b, 0x4e, 0x6e, 0x2e, 0x8c, 0x31, 0x2e, 0x46, 0xac, 0x21, 0x6d, 0x32, 
0x2c, 0x29, 0xac, 0x39, 0x6a, 0x25, 0x68, 0x35, 0x0a, 0x36, 0xb0, 0x41, 0xca, 0x39, 0x90, 0x3d, 0x0f, 0x32, 0x10, 0x3a, 
0x25, 0x4e, 0xf3, 0x29, 0x88, 0x45, 0x2a, 0x3a, 0xd0, 0x39, 0xac, 0x2d, 0x6b, 0x41, 0x8f, 0x2d, 0xef, 0x41, 0xce, 0x39, 
0xea, 0x24, 0xed, 0x29, 0xe9, 0x31, 0xf2, 0x41, 0x6c, 0x41, 0x0b, 0x3a, 0x52, 0x46, 0x6f, 0x35, 0x0b, 0x2e, 0x2c, 0x19, 
0x91, 0x15, 0xac, 0x3e, 0xcc, 0x39, 0x0a, 0x3e, 0xa4, 0x31, 0xed, 0x39, 0x4e, 0x35, 0x94, 0x3d, 0xcd, 0x21, 0x6c, 0x2d, 
0x8d, 0x1d, 0xaf, 0x41, 0x6c, 0x41, 0x52, 0x42, 0x91, 0x41, 0x2b, 0x2d, 0xad, 0x29, 0xcd, 0x21, 0xcf, 0x31, 0xed, 0x45, 
0xad, 0x19, 0x72, 0x31, 0x36, 0x35, 0x0b, 0x35, 0x72, 0x49, 0xed, 0x31, 0x30, 0x2e, 0xed, 0x25, 0x70, 0x59, 0x4f, 0x41, 
0xf1, 0x29, 0xa8, 0x19, 0x6f, 0x21, 0x03, 0x2d, 0x8e, 0x32, 0xf1, 0x49, 0xce, 0x51, 0x95, 0x31, 0x90, 0x25, 0xb0, 0x35, 
0xaf, 0x38, 0xac, 0x2d, 0x6d, 0x3d, 0x0e, 0x36, 0xed, 0x31, 0xaf, 0x41, 0xcf, 0x45, 0x0d, 0x32, 0xab, 0x39, 0xec, 0x2d, 
0x0d, 0x3e, 0xb0, 0x2d, 0x6a, 0x3d, 0x2c, 0x32, 0x89, 0x41, 0x6d, 0x2a, 0xac, 0x35, 0x0f, 0x3a, 0x0e, 0x2a, 0x4f, 0x2d, 
0x0d, 0x2a, 0x49, 0x2d, 0xd1, 0x45, 0xea, 0x39, 0x10, 0x4a, 0xf2, 0x31, 0x94, 0x39, 0xec, 0x41, 0xec, 0x3d, 0x8f, 0x39, 
0x0b, 0x3e, 0x6c, 0x35, 0x0c, 0x2e, 0x8f, 0x45, 0xcd, 0x35, 0x0f, 0x4a, 0x49, 0x41, 0x2f, 0x2e, 0xaa, 0x2d, 0x70, 0x2e, 
0x90, 0x2d, 0xf0, 0x2d, 0x91, 0x31, 0x4d, 0x31, 0x0f, 0x46, 0xb0, 0x39, 0x50, 0x42, 0xac, 0x2d, 0x6d, 0x39, 0x4f, 0x29, 
0x0e, 0x3a, 0xce, 0x41, 0xee, 0x3e, 0x4d, 0x32, 0xef, 0x35, 0xd0, 0x45, 0xe8, 0x51, 0xae, 0x2d, 0x6d, 0x2a, 0x8e, 0x2a, 
0x0f, 0x3e, 0xad, 0x31, 0xcd, 0x29, 0x0b, 0x3e, 0xef, 0x45, 0x4f, 0x35, 0xd1, 0x3d, 0x0e, 0x5a, 0xcb, 0x11, 0x6b, 0x2d, 
0x11, 0x26, 0xee, 0x35, 0x8c, 0x29, 0xaf, 0x3d, 0x6c, 0x2d, 0xca, 0x3d, 0xad, 0x35, 0xec, 0x31, 0xcf, 0x31, 0xee, 0x35, 
0x8c, 0x31, 0xea, 0x49, 0x8c, 0x31, 0xce, 0x25, 0x2b, 0x3d, 0x6f, 0x35, 0x49, 0x29, 0xee, 0x31, 0x31, 0x52, 0x29, 0x2e, 
0x73, 0x35, 0x0e, 0x36, 0x11, 0x26, 0x6f, 0x3d, 0x2b, 0x36, 0x70, 0x41, 0xcf, 0x2d, 0x90, 0x39, 0x70, 0x42, 0x6c, 0x4a, 
0x50, 0x45, 0x91, 0x2d, 0x91, 0x2d, 0xae, 0x41, 0xcc, 0x41, 0xea, 0x45, 0xad, 0x35, 0x90, 0x41, 0x6e, 0x25, 0xb0, 0x39, 
0xad, 0x35, 0x4d, 0x2d, 0x4d, 0x3d, 0x2f, 0x3e, 0xee, 0x39, 0x11, 0x4a, 0xae, 0x35, 0x8c, 0x2d, 0xb1, 0x35, 0xcc, 0x25, 
0x4e, 0x39, 0x2b, 0x31, 0x2c, 0x4a, 0x2f, 0x36, 0xaf, 0x39, 0xb1, 0x29, 0x8b, 0x41, 0x8a, 0x41, 0x4e, 0x35, 0xe9, 0x41, 
0x49, 0x39, 0x2c, 0x25, 0xd3, 0x1d, 0x8b, 0x41, 0x8f, 0x21, 0x4e, 0x2d, 0x8e, 0x45, 0x8e, 0x39, 0xae, 0x25, 0x70, 0x31, 
0x2d, 0x25, 0x27, 0x32, 0xce, 0x32, 0x2f, 0x3a, 0xd6, 0x3d, 0x89, 0x2d, 0xc9, 0x2d, 0xb0, 0x41, 0xc8, 0x35, 0xab, 0x35, 
0xac, 0x41, 0x4c, 0x52, 0x0c, 0x56, 0xf0, 0x24, 0x6f, 0x39, 0x4d, 0x29, 0xfb, 0x3d, 0x93, 0x41, 0x0e, 0x2e, 0x66, 0x36, 
0x6e, 0x4d, 0x6f, 0x45, 0x70, 0x56, 0xab, 0x21, 0x8d, 0x25, 0xec, 0x34, 0x29, 0x2e, 0x8e, 0x36, 0xcb, 0x35, 0x4a, 0x51, 
0x0f, 0x42, 0xf0, 0x2d, 0xef, 0x51, 0xeb, 0x45, 0xe9, 0x31, 0xf0, 0x3d, 0x6e, 0x39, 0x0d, 0x3e, 0x89, 0x39, 0x2a, 0x42, 
0xea, 0x1e, 0x6d, 0x31, 0xc9, 0x2d, 0x90, 0x45, 0x4e, 0x4d, 0xfa, 0x31, 0x6d, 0x51, 0x0c, 0x36, 0xce, 0x09, 0xa6, 0x3d, 
0xcb, 0x3d, 0xce, 0x25, 0xa8, 0x36, 0x71, 0x2d, 0x6a, 0x35, 0xeb, 0x41, 0x6f, 0x31, 0x10, 0x2a, 0x8a, 0x29, 0x0e, 0x35, 
0x8a, 0x45, 0x71, 0x39, 0x8a, 0x31, 0x30, 0x2e, 0x6c, 0x41, 0x6b, 0x3d, 0x4d, 0x15, 0x0a, 0x41, 0xeb, 0x35, 0xca, 0x45, 
0xd0, 0x2c, 0xce, 0x2d, 0xaf, 0x35, 0x90, 0x39, 0x2f, 0x39, 0xf0, 0x29, 0x8f, 0x35, 0xec, 0x41, 0x6b, 0x2d, 0xea, 0x39, 
