/**
* 4-Bit weight 'mnist' model
*/

#include "mnist_packed_4.h"



// We need to keep the data array aligned on some architectures.
#ifdef __has_attribute
#define HAVE_ATTRIBUTE(x) __has_attribute(x)
#else
#define HAVE_ATTRIBUTE(x) 0
#endif
#if HAVE_ATTRIBUTE(aligned) || (defined(__GNUC__) && !defined(__clang__))
#define DATA_ALIGN_ATTRIBUTE __attribute__((aligned(4)))
#else
#define DATA_ALIGN_ATTRIBUTE
#endif
const uint8_t mnist_packed_4_data[] DATA_ALIGN_ATTRIBUTE =
{
0x1c, 0x00, 0x00, 0x00, 0x54, 0x46, 0x4c, 0x33, 0x00, 0x00, 0x12, 0x00, 0x1c, 0x00, 0x04, 0x00, 0x08, 0x00, 0x0c, 0x00, 
0x10, 0x00, 0x14, 0x00, 0x00, 0x00, 0x18, 0x00, 0x12, 0x00, 0x00, 0x00, 0x03, 0x00, 0x00, 0x00, 0x14, 0x00, 0x00, 0x00, 
0x2c, 0x00, 0x00, 0x00, 0xe4, 0x00, 0x00, 0x00, 0x2c, 0x00, 0x00, 0x00, 0x8c, 0x00, 0x00, 0x00, 0x06, 0x00, 0x00, 0x00, 
0x9c, 0x58, 0x00, 0x00, 0xb0, 0x57, 0x00, 0x00, 0xe0, 0x53, 0x00, 0x00, 0x20, 0x4e, 0x00, 0x00, 0x5c, 0x04, 0x00, 0x00, 
0xd0, 0x01, 0x00, 0x00, 0x01, 0x00, 0x00, 0x00, 0xdc, 0x00, 0x00, 0x00, 0x18, 0x00, 0x00, 0x00, 0xbc, 0x62, 0x00, 0x00, 
0xb8, 0x62, 0x00, 0x00, 0xd4, 0x61, 0x00, 0x00, 0xbc, 0x60, 0x00, 0x00, 0x30, 0x5f, 0x00, 0x00, 0x98, 0x5e, 0x00, 0x00, 
0xfc, 0x5c, 0x00, 0x00, 0x60, 0x5b, 0x00, 0x00, 0x4c, 0x59, 0x00, 0x00, 0x98, 0x62, 0x00, 0x00, 0x94, 0x62, 0x00, 0x00, 
0xe8, 0x54, 0x00, 0x00, 0x8c, 0x62, 0x00, 0x00, 0x88, 0x62, 0x00, 0x00, 0x58, 0x50, 0x00, 0x00, 0x80, 0x62, 0x00, 0x00, 
0x7c, 0x62, 0x00, 0x00, 0x78, 0x62, 0x00, 0x00, 0xb0, 0x04, 0x00, 0x00, 0x70, 0x62, 0x00, 0x00, 0x94, 0x02, 0x00, 0x00, 
0x68, 0x62, 0x00, 0x00, 0x64, 0x62, 0x00, 0x00, 0x38, 0x00, 0x00, 0x00, 0x01, 0x00, 0x00, 0x00, 0x0c, 0x00, 0x00, 0x00, 
0x08, 0x00, 0x0c, 0x00, 0x04, 0x00, 0x08, 0x00, 0x08, 0x00, 0x00, 0x00, 0x08, 0x00, 0x00, 0x00, 0x17, 0x00, 0x00, 0x00, 
0x13, 0x00, 0x00, 0x00, 0x6d, 0x69, 0x6e, 0x5f, 0x72, 0x75, 0x6e, 0x74, 0x69, 0x6d, 0x65, 0x5f, 0x76, 0x65, 0x72, 0x73, 
0x69, 0x6f, 0x6e, 0x00, 0xbe, 0x9e, 0xff, 0xff, 0x04, 0x00, 0x00, 0x00, 0x10, 0x00, 0x00, 0x00, 0x31, 0x2e, 0x35, 0x2e, 
0x30, 0x00, 0x00, 0x00, 0x00, 0x00, 0x00, 0x00, 0x00, 0x00, 0x00, 0x00, 0x0f, 0x00, 0x00, 0x00, 0x4d, 0x4c, 0x49, 0x52, 
0x20, 0x43, 0x6f, 0x6e, 0x76, 0x65, 0x72, 0x74, 0x65, 0x64, 0x2e, 0x00, 0x00, 0x00, 0x0e, 0x00, 0x18, 0x00, 0x04, 0x00, 
0x08, 0x00, 0x0c, 0x00, 0x10, 0x00, 0x14, 0x00, 0x0e, 0x00, 0x00, 0x00, 0x14, 0x00, 0x00, 0x00, 0x6c, 0x00, 0x00, 0x00, 
0x70, 0x00, 0x00, 0x00, 0x74, 0x00, 0x00, 0x00, 0x9c, 0x00, 0x00, 0x00, 0x16, 0x00, 0x00, 0x00, 0x58, 0x61, 0x00, 0x00, 
0xfc, 0x60, 0x00, 0x00, 0x5c, 0x60, 0x00, 0x00, 0x50, 0x5f, 0x00, 0x00, 0xc0, 0x5d, 0x00, 0x00, 0x1c, 0x5d, 0x00, 0x00, 
0x80, 0x5b, 0x00, 0x00, 0x8c, 0x59, 0x00, 0x00, 0x74, 0x57, 0x00, 0x00, 0x88, 0x56, 0x00, 0x00, 0x28, 0x55, 0x00, 0x00, 
0xb4, 0x52, 0x00, 0x00, 0xdc, 0x51, 0x00, 0x00, 0x98, 0x50, 0x00, 0x00, 0x50, 0x4e, 0x00, 0x00, 0x90, 0x4d, 0x00, 0x00, 
0xe4, 0x4c, 0x00, 0x00, 0xd0, 0x4b, 0x00, 0x00, 0x1c, 0x03, 0x00, 0x00, 0xf4, 0x01, 0x00, 0x00, 0x14, 0x01, 0x00, 0x00, 
0x88, 0x00, 0x00, 0x00, 0x01, 0x00, 0x00, 0x00, 0x00, 0x00, 0x00, 0x00, 0x01, 0x00, 0x00, 0x00, 0x15, 0x00, 0x00, 0x00, 
0x0a, 0x00, 0x00, 0x00, 0xc8, 0x56, 0x00, 0x00, 0xe0, 0x55, 0x00, 0x00, 0x0c, 0x52, 0x00, 0x00, 0x54, 0x51, 0x00, 0x00, 
0xc8, 0x4d, 0x00, 0x00, 0x0c, 0x4d, 0x00, 0x00, 0x70, 0x4c, 0x00, 0x00, 0x90, 0x02, 0x00, 0x00, 0xa4, 0x00, 0x00, 0x00, 
0x10, 0x00, 0x00, 0x00, 0x04, 0x00, 0x00, 0x00, 0x6d, 0x61, 0x69, 0x6e, 0x00, 0x00, 0x00, 0x00, 0xe2, 0xae, 0xff, 0xff, 
0x00, 0x00, 0x00, 0x09, 0x05, 0x00, 0x00, 0x00, 0x1c, 0x00, 0x00, 0x00, 0x10, 0x00, 0x00, 0x00, 0x04, 0x00, 0x00, 0x00, 
0xd2, 0x9f, 0xff, 0xff, 0x00, 0x00, 0x80, 0x3f, 0x01, 0x00, 0x00, 0x00, 0x15, 0x00, 0x00, 0x00, 0x01, 0x00, 0x00, 0x00, 
0x14, 0x00, 0x00, 0x00, 0x52, 0xa9, 0xff, 0xff, 0x00, 0x00, 0x00, 0x19, 0x01, 0x00, 0x00, 0x00, 0x92, 0x9f, 0xff, 0xff, 
0x00, 0x00, 0x00, 0x03, 0x10, 0x00, 0x00, 0x00, 0x16, 0x00, 0x00, 0x00, 0x14, 0x00, 0x00, 0x00, 0x20, 0x00, 0x00, 0x00, 
0x02, 0x00, 0x00, 0x00, 0x01, 0x00, 0x00, 0x00, 0x02, 0x00, 0x00, 0x00, 0x08, 0x00, 0x00, 0x00, 0x49, 0x64, 0x65, 0x6e, 
0x74, 0x69, 0x74, 0x79, 0x00, 0x00, 0x00, 0x00, 0x74, 0x9f, 0xff, 0xff, 0x08, 0x00, 0x00, 0x00, 0x0c, 0x00, 0x00, 0x00, 
0x01, 0x00, 0x00, 0x00, 0x00, 0x00, 0x80, 0x3b, 0x01, 0x00, 0x00, 0x00, 0x00, 0x00, 0x00, 0x00, 0x00, 0x00, 0x00, 0x00, 
0x72, 0xaf, 0xff, 0xff, 0x00, 0x00, 0x00, 0x08, 0x04, 0x00, 0x00, 0x00, 0x18, 0x00, 0x00, 0x00, 0x0c, 0x00, 0x00, 0x00, 
0x04, 0x00, 0x00, 0x00, 0x80, 0x9f, 0xff, 0xff, 0x01, 0x00, 0x00, 0x00, 0x14, 0x00, 0x00, 0x00, 0x03, 0x00, 0x00, 0x00, 
0x12, 0x00, 0x00, 0x00, 0x13, 0x00, 0x00, 0x00, 0x04, 0x00, 0x00, 0x00, 0x1a, 0xa0, 0xff, 0xff, 0x00, 0x00, 0x00, 0x03, 
0x10, 0x00, 0x00, 0x00, 0x15, 0x00, 0x00, 0x00, 0x14, 0x00, 0x00, 0x00, 0x58, 0x00, 0x00, 0x00, 0x02, 0x00, 0x00, 0x00, 
0x01, 0x00, 0x00, 0x00, 0x02, 0x00, 0x00, 0x00, 0x40, 0x00, 0x00, 0x00, 0x73, 0x65, 0x71, 0x75, 0x65, 0x6e, 0x74, 0x69, 
0x61, 0x6c, 0x2f, 0x71, 0x75, 0x61, 0x6e, 0x74, 0x5f, 0x64, 0x65, 0x6e, 0x73, 0x65, 0x5f, 0x31, 0x2f, 0x4d, 0x61, 0x74, 
0x4d, 0x75, 0x6c, 0x3b, 0x73, 0x65, 0x71, 0x75, 0x65, 0x6e, 0x74, 0x69, 0x61, 0x6c, 0x2f, 0x71, 0x75, 0x61, 0x6e, 0x74, 
0x5f, 0x64, 0x65, 0x6e, 0x73, 0x65, 0x5f, 0x31, 0x2f, 0x42, 0x69, 0x61, 0x73, 0x41, 0x64, 0x64, 0x00, 0x00, 0x00, 0x00, 
0x34, 0xa0, 0xff, 0xff, 0x08, 0x00, 0x00, 0x00, 0x0c, 0x00, 0x00, 0x00, 0x01, 0x00, 0x00, 0x00, 0xba, 0x7e, 0xdf, 0x3d, 
0x01, 0x00, 0x00, 0x00, 0x82, 0x00, 0x00, 0x00, 0x00, 0x00, 0x00, 0x00, 0x00, 0x00, 0x00, 0x00, 0x0e, 0xa1, 0xff, 0xff, 
0x04, 0x00, 0x00, 0x00, 0x40, 0x00, 0x00, 0x00, 0x0c, 0x47, 0xc0, 0xb2, 0x1c, 0x8e, 0xcd, 0x32, 0x16, 0xc1, 0xba, 0xe4, 
0x08, 0xe2, 0x36, 0x29, 0x0c, 0x9b, 0xaa, 0x5b, 0x62, 0xc3, 0x9c, 0xb1, 0x1c, 0x7b, 0xc2, 0xa4, 0x88, 0xb5, 0x70, 0x6c, 
0x61, 0x9c, 0x18, 0x2b, 0xb4, 0x52, 0x72, 0x3a, 0x64, 0x2b, 0x03, 0x6a, 0x82, 0x8a, 0xea, 0xf7, 0x68, 0x34, 0x36, 0xe3, 
0x5b, 0x1e, 0x42, 0x7b, 0xf4, 0x80, 0x0d, 0x2b, 0x1e, 0x4c, 0xd5, 0xcb, 0xf6, 0xa0, 0xff, 0xff, 0x00, 0x00, 0x00, 0x03, 
0x10, 0x00, 0x00, 0x00, 0x14, 0x00, 0x00, 0x00, 0x14, 0x00, 0x00, 0x00, 0x74, 0x00, 0x00, 0x00, 0x02, 0x00, 0x00, 0x00, 
0x02, 0x00, 0x00, 0x00, 0x40, 0x00, 0x00, 0x00, 0x5e, 0x00, 0x00, 0x00, 0x73, 0x65, 0x71, 0x75, 0x65, 0x6e, 0x74, 0x69, 
0x61, 0x6c, 0x2f, 0x71, 0x75, 0x61, 0x6e, 0x74, 0x5f, 0x64, 0x65, 0x6e, 0x73, 0x65, 0x5f, 0x31, 0x2f, 0x4d, 0x61, 0x74, 
0x4d, 0x75, 0x6c, 0x3b, 0x73, 0x65, 0x71, 0x75, 0x65, 0x6e, 0x74, 0x69, 0x61, 0x6c, 0x2f, 0x71, 0x75, 0x61, 0x6e, 0x74, 
0x5f, 0x64, 0x65, 0x6e, 0x73, 0x65, 0x5f, 0x31, 0x2f, 0x4d, 0x61, 0x74, 0x4d, 0x75, 0x6c, 0x2f, 0x6b, 0x71, 0x75, 0x61, 
0x6e, 0x74, 0x2f, 0x46, 0x61, 0x6b, 0x65, 0x51, 0x75, 0x61, 0x6e, 0x74, 0x57, 0x69, 0x74, 0x68, 0x4d, 0x69, 0x6e, 0x4d, 
0x61, 0x78, 0x56, 0x61, 0x72, 0x73, 0x00, 0x00, 0x90, 0xa8, 0xff, 0xff, 0x00, 0x00, 0x00, 0x01, 0x0c, 0x00, 0x00, 0x00, 
0x10, 0x00, 0x00, 0x00, 0x1c, 0x00, 0x00, 0x00, 0x01, 0x00, 0x00, 0x00, 0x57, 0xae, 0x6f, 0x3d, 0x01, 0x00, 0x00, 0x00, 
0x07, 0x00, 0x00, 0x00, 0x00, 0x00, 0x00, 0x00, 0x00, 0x00, 0x00, 0x00, 0x0e, 0xa2, 0xff, 0xff, 0x04, 0x00, 0x00, 0x00, 
0x0c, 0x00, 0x00, 0x00, 0x92, 0x2d, 0x59, 0xa4, 0x04, 0x08, 0x01, 0x00, 0x00, 0x00, 0x00, 0x00, 0x00, 0x00, 0x00, 0x00, 
0x00, 0x00, 0x00, 0x00, 0x00, 0x00, 0x00, 0x00, 0xd6, 0xac, 0xff, 0xff, 0x00, 0x00, 0x00, 0x08, 0x04, 0x00, 0x00, 0x00, 
0x24, 0x00, 0x00, 0x00, 0x18, 0x00, 0x00, 0x00, 0x0c, 0x00, 0x00, 0x00, 0x00, 0x00, 0x06, 0x00, 0x08, 0x00, 0x07, 0x00, 
0x06, 0x00, 0x00, 0x00, 0x00, 0x00, 0x00, 0x01, 0x01, 0x00, 0x00, 0x00, 0x12, 0x00, 0x00, 0x00, 0x03, 0x00, 0x00, 0x00, 
0x10, 0x00, 0x00, 0x00, 0x11, 0x00, 0x00, 0x00, 0x03, 0x00, 0x00, 0x00, 0xda, 0xab, 0xff, 0xff, 0x00, 0x00, 0x00, 0x09, 
0x01, 0x00, 0x00, 0x00, 0x1a, 0xa2, 0xff, 0xff, 0x00, 0x00, 0x00, 0x03, 0x10, 0x00, 0x00, 0x00, 0x13, 0x00, 0x00, 0x00, 
0x14, 0x00, 0x00, 0x00, 0x70, 0x00, 0x00, 0x00, 0x02, 0x00, 0x00, 0x00, 0x01, 0x00, 0x00, 0x00, 0x40, 0x00, 0x00, 0x00, 
0x58, 0x00, 0x00, 0x00, 0x73, 0x65, 0x71, 0x75, 0x65, 0x6e, 0x74, 0x69, 0x61, 0x6c, 0x2f, 0x71, 0x75, 0x61, 0x6e, 0x74, 
0x5f, 0x64, 0x65, 0x6e, 0x73, 0x65, 0x2f, 0x4d, 0x61, 0x74, 0x4d, 0x75, 0x6c, 0x3b, 0x73, 0x65, 0x71, 0x75, 0x65, 0x6e, 
0x74, 0x69, 0x61, 0x6c, 0x2f, 0x71, 0x75, 0x61, 0x6e, 0x74, 0x5f, 0x64, 0x65, 0x6e, 0x73, 0x65, 0x2f, 0x52, 0x65, 0x6c, 
0x75, 0x3b, 0x73, 0x65, 0x71, 0x75, 0x65, 0x6e, 0x74, 0x69, 0x61, 0x6c, 0x2f, 0x71, 0x75, 0x61, 0x6e, 0x74, 0x5f, 0x64, 
0x65, 0x6e, 0x73, 0x65, 0x2f, 0x42, 0x69, 0x61, 0x73, 0x41, 0x64, 0x64, 0x00, 0x00, 0x00, 0x00, 0x4c, 0xa2, 0xff, 0xff, 
0x08, 0x00, 0x00, 0x00, 0x0c, 0x00, 0x00, 0x00, 0x01, 0x00, 0x00, 0x00, 0x4d, 0xc3, 0x72, 0x3c, 0x01, 0x00, 0x00, 0x00, 
0x00, 0x00, 0x00, 0x00, 0x00, 0x00, 0x00, 0x00, 0x22, 0xa3, 0xff, 0xff, 0x04, 0x00, 0x00, 0x00, 0x00, 0x48, 0x00, 0x00, 
0x86, 0x77, 0x77, 0x66, 0x76, 0x79, 0x76, 0x77, 0x56, 0x57, 0x65, 0x48, 0x85, 0x78, 0x84, 0x98, 0x67, 0x85, 0x75, 0x86, 
0x97, 0x86, 0x98, 0x65, 0x68, 0x66, 0x67, 0x88, 0x74, 0x88, 0x76, 0x77, 0x87, 0x86, 0x76, 0x87, 0x77, 0x89, 0x76, 0x87, 
0x87, 0x86, 0x68, 0x43, 0x79, 0x87, 0x67, 0x79, 0x98, 0x68, 0x76, 0x89, 0x6a, 0x88, 0x85, 0x87, 0x78, 0x86, 0x68, 0x77, 
0x89, 0x78, 0x65, 0x75, 0x98, 0x75, 0x78, 0x37, 0x76, 0x75, 0x96, 0x68, 0x77, 0x86, 0x58, 0x65, 0x66, 0x87, 0x79, 0x99, 
0x55, 0x86, 0x68, 0x68, 0x68, 0x86, 0x78, 0x68, 0x66, 0x77, 0x89, 0x35, 0x67, 0x77, 0x87, 0x68, 0x66, 0x97, 0x56, 0xa6, 
0x5b, 0x78, 0x85, 0x59, 0x84, 0x96, 0x88, 0x96, 0x99, 0x79, 0x98, 0x68, 0x6a, 0x88, 0x97, 0x58, 0x58, 0x88, 0xa7, 0x97, 
0x98, 0x77, 0x67, 0xa9, 0x86, 0x78, 0x65, 0x66, 0x38, 0x86, 0x68, 0xc7, 0x64, 0x85, 0x7a, 0x98, 0x68, 0x68, 0x8a, 0x99, 
0x6b, 0x89, 0x76, 0x87, 0x75, 0x75, 0x88, 0x77, 0x85, 0x89, 0x78, 0x83, 0x96, 0x77, 0x75, 0x58, 0xa7, 0x98, 0x67, 0xa8, 
0x59, 0x83, 0x46, 0x68, 0x8c, 0x56, 0xb6, 0x79, 0xc5, 0x68, 0x75, 0x74, 0x76, 0xb7, 0x77, 0x76, 0x79, 0x93, 0x75, 0x7a, 
0x76, 0x68, 0xb9, 0x8a, 0x76, 0x86, 0x68, 0x68, 0x87, 0x88, 0x78, 0x77, 0x58, 0x77, 0x96, 0x88, 0x69, 0x67, 0x78, 0x8a, 
0x76, 0x88, 0x74, 0x1a, 0x7c, 0x67, 0x97, 0x68, 0x78, 0x75, 0x86, 0xba, 0xa7, 0x88, 0xba, 0x69, 0x76, 0x67, 0x67, 0x66, 
0x89, 0x78, 0x77, 0x7a, 0x78, 0x88, 0x87, 0xc7, 0x66, 0x54, 0x49, 0xa6, 0x44, 0x68, 0x88, 0x86, 0x68, 0x76, 0x47, 0x87, 
0x56, 0x87, 0x79, 0x66, 0x38, 0x78, 0x57, 0x44, 0x75, 0x77, 0x77, 0x69, 0x66, 0x87, 0x57, 0x68, 0x35, 0x88, 0x68, 0x49, 
0x76, 0xa6, 0x74, 0x39, 0x6b, 0x88, 0x86, 0x9d, 0x85, 0x48, 0x75, 0x68, 0xc8, 0x78, 0x77, 0x78, 0xb9, 0x66, 0x86, 0x89, 
0x65, 0x97, 0x97, 0x48, 0x8b, 0x77, 0x75, 0x88, 0x76, 0x96, 0x86, 0x66, 0x68, 0x88, 0x69, 0x8a, 0x76, 0xa6, 0x88, 0x97, 
0x67, 0x86, 0xa7, 0x66, 0x69, 0x69, 0xb5, 0x77, 0x77, 0x87, 0x97, 0x78, 0x96, 0x67, 0x67, 0x88, 0x7a, 0x68, 0x89, 0x88, 
0x78, 0x88, 0x86, 0x55, 0x48, 0x87, 0x77, 0x6a, 0x73, 0xa5, 0x78, 0xb9, 0x99, 0x88, 0x88, 0x77, 0x77, 0x66, 0xb6, 0x89, 
0x76, 0x89, 0x9b, 0x89, 0x97, 0x75, 0x86, 0x76, 0x77, 0x76, 0x87, 0x78, 0x86, 0x87, 0x77, 0xb6, 0x8c, 0x88, 0x9b, 0xaa, 
0x7b, 0x97, 0x68, 0x99, 0xb7, 0x87, 0x87, 0x76, 0xaa, 0x56, 0x77, 0x69, 0x97, 0x68, 0xa8, 0x89, 0x68, 0x75, 0x56, 0x98, 
0x97, 0x78, 0x67, 0x9b, 0x68, 0x89, 0x99, 0x46, 0xa6, 0x99, 0x69, 0xa7, 0x48, 0x95, 0x68, 0xa9, 0x78, 0x77, 0x98, 0x88, 
0x96, 0x8a, 0xb9, 0x99, 0xb6, 0x89, 0x39, 0x86, 0x87, 0x66, 0x87, 0x96, 0x88, 0x68, 0x77, 0xb9, 0x96, 0x99, 0x77, 0x75, 
0x59, 0x59, 0xa9, 0x8a, 0x89, 0x97, 0x76, 0xa8, 0x75, 0x87, 0x77, 0x95, 0x98, 0x56, 0x86, 0x88, 0x78, 0x77, 0x99, 0xbc, 
0x77, 0x88, 0x55, 0xb8, 0x77, 0x69, 0x77, 0x6a, 0x86, 0x8b, 0xb7, 0xb9, 0x52, 0x9a, 0x8a, 0x86, 0x8a, 0x97, 0x87, 0x89, 
0x89, 0x77, 0x68, 0x57, 0x89, 0x66, 0x78, 0x89, 0x86, 0x96, 0x8b, 0x87, 0x77, 0x77, 0x98, 0xb8, 0x98, 0x86, 0x67, 0x78, 
0x97, 0x96, 0x68, 0x66, 0x76, 0x78, 0x77, 0x99, 0x79, 0x78, 0x88, 0xc8, 0x55, 0x76, 0x66, 0x77, 0x87, 0x77, 0xa5, 0x9a, 
0x98, 0x66, 0x69, 0x85, 0x58, 0x75, 0x97, 0x76, 0x77, 0x86, 0x77, 0x69, 0x58, 0x89, 0x88, 0x66, 0x79, 0xa8, 0xb8, 0x79, 
0xa8, 0x87, 0x79, 0x89, 0xa9, 0x97, 0xba, 0x79, 0x89, 0x99, 0x86, 0x9a, 0xa8, 0x87, 0xaa, 0x88, 0x87, 0x96, 0x78, 0xa5, 
0x79, 0x77, 0x68, 0xa7, 0xa5, 0xa8, 0x78, 0xb5, 0xa8, 0x58, 0x7c, 0x95, 0x79, 0x88, 0x5a, 0x87, 0xa9, 0x87, 0x87, 0x85, 
0x86, 0x97, 0x7b, 0x75, 0x95, 0x68, 0x99, 0x65, 0x76, 0x66, 0x86, 0x95, 0x87, 0x89, 0x78, 0x96, 0x67, 0x95, 0x78, 0x68, 
0x57, 0x56, 0x87, 0x67, 0x79, 0x76, 0x6b, 0x88, 0x59, 0x95, 0x8a, 0x86, 0x76, 0x57, 0xb6, 0x77, 0x88, 0x86, 0x79, 0x77, 
0x78, 0x96, 0x87, 0x86, 0x68, 0x66, 0x97, 0xa8, 0x78, 0x86, 0x85, 0x78, 0x4a, 0x87, 0x77, 0x79, 0x93, 0x87, 0x66, 0xb9, 
0x77, 0x96, 0x98, 0x78, 0x8a, 0x68, 0x76, 0x99, 0x66, 0x78, 0x7a, 0x68, 0x77, 0x68, 0x75, 0xa6, 0x77, 0x66, 0x78, 0x79, 
0x87, 0x98, 0x66, 0xc6, 0x8a, 0x77, 0x8a, 0x98, 0x9a, 0x78, 0x79, 0xbb, 0xa8, 0x86, 0xa8, 0x75, 0xba, 0x78, 0x59, 0x88, 
0xa9, 0x69, 0xa9, 0x99, 0x76, 0x77, 0x57, 0x88, 0x78, 0xa6, 0x85, 0x77, 0x67, 0x89, 0x66, 0x28, 0x75, 0x8a, 0x66, 0x89, 
0x58, 0x96, 0x67, 0x86, 0x87, 0x87, 0x98, 0x79, 0x97, 0x7a, 0xaa, 0x97, 0xb8, 0x87, 0x4a, 0x85, 0x69, 0x87, 0x96, 0x77, 
0x77, 0x66, 0x59, 0xa8, 0x96, 0x7a, 0x79, 0x46, 0x7a, 0x6a, 0x97, 0x78, 0xb7, 0x87, 0x78, 0x78, 0x67, 0x97, 0x79, 0x57, 
0xb9, 0x47, 0x97, 0x87, 0xa7, 0x78, 0xaa, 0xab, 0x56, 0x76, 0x98, 0x78, 0x8a, 0x66, 0x89, 0x89, 0x95, 0x7a, 0x96, 0x86, 
0x52, 0x99, 0xaa, 0xb6, 0x5a, 0x88, 0x76, 0x7a, 0x6a, 0x66, 0xaa, 0x98, 0xba, 0x77, 0x69, 0x89, 0xa7, 0x58, 0x89, 0x87, 
0x57, 0x86, 0x66, 0x88, 0x89, 0x96, 0x78, 0x88, 0x69, 0xb6, 0x78, 0x36, 0x67, 0x69, 0x45, 0x6a, 0x79, 0x77, 0x89, 0xa9, 
0x57, 0x96, 0x97, 0x58, 0xa8, 0x57, 0x97, 0x99, 0x77, 0x66, 0x78, 0x75, 0x67, 0x66, 0x68, 0x87, 0x77, 0x58, 0x69, 0x59, 
0x68, 0xa7, 0x89, 0x68, 0x8a, 0x96, 0x96, 0x89, 0xca, 0x75, 0x79, 0xac, 0x89, 0x66, 0xa9, 0x66, 0x9a, 0x68, 0xa8, 0x9b, 
0xc9, 0x79, 0x99, 0x99, 0x66, 0x75, 0x67, 0x85, 0x88, 0x79, 0x66, 0x98, 0x85, 0x86, 0x76, 0xa8, 0x66, 0x77, 0x8b, 0xb7, 
0x99, 0x86, 0x6a, 0x57, 0x86, 0x78, 0x89, 0x68, 0x97, 0x76, 0x79, 0xa6, 0x95, 0x88, 0x97, 0x77, 0x75, 0x67, 0x88, 0x78, 
0x95, 0x77, 0x78, 0x97, 0x78, 0x76, 0x87, 0x98, 0x68, 0x77, 0x76, 0x96, 0x9a, 0xa6, 0xa7, 0x89, 0x56, 0x66, 0x79, 0x65, 
0x99, 0x97, 0x8a, 0x55, 0x78, 0x79, 0x66, 0x99, 0x76, 0x89, 0x56, 0x78, 0x8b, 0x86, 0x77, 0x84, 0x87, 0x66, 0xa6, 0x77, 
0x67, 0x66, 0x7a, 0x96, 0x58, 0x87, 0x78, 0x99, 0x84, 0xa7, 0x89, 0x69, 0x67, 0x66, 0x8a, 0x36, 0x88, 0x87, 0xaa, 0x87, 
0x88, 0x88, 0x86, 0x77, 0x96, 0x85, 0x67, 0x77, 0x78, 0x7a, 0x97, 0x89, 0x69, 0x67, 0x78, 0x97, 0x96, 0x69, 0x89, 0x77, 
0x99, 0x57, 0x75, 0x65, 0x87, 0x69, 0x96, 0x77, 0x86, 0x87, 0x75, 0x88, 0x77, 0x85, 0x76, 0xa6, 0x88, 0x66, 0x78, 0x77, 
0x68, 0x75, 0xa8, 0x57, 0x75, 0x68, 0x78, 0x76, 0x68, 0x75, 0x98, 0x76, 0x77, 0x78, 0x79, 0x79, 0x96, 0x97, 0x99, 0x97, 
0xa5, 0x66, 0x57, 0x86, 0x78, 0x68, 0x67, 0x79, 0x96, 0x98, 0x89, 0x89, 0x98, 0x86, 0x96, 0x37, 0x68, 0x8a, 0x96, 0x38, 
0x86, 0x66, 0x87, 0x86, 0x84, 0x76, 0x98, 0x77, 0x77, 0x88, 0xa7, 0x87, 0x67, 0x88, 0x77, 0x8b, 0x79, 0x87, 0x87, 0x98, 
0x56, 0x58, 0x68, 0x34, 0x85, 0x6a, 0x97, 0x86, 0x94, 0x99, 0x2a, 0xa9, 0x1b, 0x67, 0x6a, 0x48, 0x6b, 0x56, 0x77, 0x75, 
0x95, 0x6b, 0x99, 0x86, 0x88, 0x76, 0x56, 0x73, 0x88, 0x89, 0x59, 0xa5, 0x69, 0x68, 0x68, 0x89, 0x98, 0x57, 0x77, 0x76, 
0x74, 0x77, 0x76, 0x97, 0x79, 0x58, 0x68, 0xd4, 0x46, 0x85, 0x57, 0x67, 0x66, 0x77, 0x67, 0x37, 0x36, 0x77, 0x75, 0x76, 
0x69, 0x75, 0x89, 0x76, 0x77, 0x58, 0x67, 0x96, 0x77, 0x99, 0x98, 0x27, 0xaa, 0xba, 0x96, 0x58, 0x9a, 0x67, 0x73, 0x7b, 
0x97, 0x56, 0xa5, 0x68, 0x8a, 0x89, 0x85, 0x97, 0x86, 0x78, 0x99, 0x88, 0x87, 0x98, 0x88, 0x98, 0x59, 0x85, 0x88, 0x69, 
0xa5, 0x76, 0x86, 0xa8, 0x79, 0x68, 0x7b, 0xb6, 0xa4, 0x57, 0x6b, 0x33, 0x88, 0xb6, 0x79, 0x66, 0x36, 0x88, 0x7a, 0x95, 
0x36, 0x78, 0x68, 0xa5, 0x76, 0x86, 0x87, 0x96, 0x66, 0x86, 0x78, 0x87, 0x67, 0x58, 0x59, 0xa9, 0x57, 0x96, 0x87, 0x97, 
0x78, 0x86, 0x99, 0xa9, 0x86, 0x78, 0x78, 0x88, 0x78, 0x96, 0x96, 0x65, 0x87, 0x76, 0x79, 0x78, 0x88, 0x87, 0x79, 0x86, 
0x79, 0x66, 0x89, 0x74, 0x56, 0x66, 0x76, 0x96, 0x69, 0x67, 0xaa, 0x77, 0x56, 0x66, 0x9a, 0x9b, 0x65, 0x86, 0x97, 0x86, 
0x66, 0x68, 0x8a, 0x47, 0x87, 0x68, 0x97, 0x67, 0x97, 0x68, 0x78, 0x98, 0x78, 0x75, 0x69, 0x97, 0x56, 0x6a, 0x97, 0xb8, 
0x89, 0x89, 0x89, 0x96, 0x65, 0x88, 0x86, 0x49, 0x96, 0x78, 0x47, 0x86, 0x99, 0x87, 0x96, 0x67, 0x88, 0x65, 0x55, 0x89, 
0x96, 0x87, 0x95, 0x97, 0x97, 0x69, 0x69, 0x97, 0x88, 0x56, 0x78, 0x58, 0x65, 0x98, 0x57, 0x86, 0x69, 0x67, 0x89, 0x59, 
0x66, 0x48, 0x58, 0x96, 0x76, 0x76, 0x89, 0x88, 0xb7, 0x78, 0x56, 0x57, 0x58, 0x67, 0x66, 0x68, 0x88, 0x96, 0x77, 0x99, 
0x98, 0x98, 0xa6, 0x58, 0x7a, 0x99, 0x76, 0x56, 0x78, 0x68, 0x86, 0x64, 0x76, 0xa6, 0x86, 0x99, 0x97, 0x88, 0x98, 0x69, 
0x57, 0x77, 0x79, 0x7a, 0x96, 0x68, 0x55, 0xa9, 0x78, 0x67, 0x6a, 0x55, 0x98, 0x8b, 0xa9, 0x99, 0x64, 0x9a, 0x4a, 0xa7, 
0x19, 0x85, 0x69, 0x68, 0x78, 0x67, 0x67, 0x67, 0x94, 0x8a, 0x97, 0x98, 0x77, 0x67, 0x66, 0x72, 0x77, 0x68, 0x66, 0x98, 
0x76, 0x99, 0x69, 0xaa, 0x67, 0x59, 0x86, 0x88, 0x87, 0x79, 0x46, 0x66, 0x8a, 0x68, 0x6a, 0xb4, 0x52, 0xa6, 0x45, 0x79, 
0x75, 0x89, 0x58, 0x56, 0x54, 0x88, 0x66, 0x65, 0x77, 0x85, 0x67, 0x67, 0x95, 0x78, 0x87, 0x67, 0x87, 0x77, 0x96, 0x38, 
0xa8, 0x8a, 0x96, 0x39, 0xbb, 0xa8, 0x76, 0x79, 0x87, 0x75, 0x85, 0x77, 0x89, 0x68, 0x75, 0x88, 0x99, 0x58, 0xa6, 0x89, 
0x87, 0x96, 0x86, 0x88, 0x97, 0x67, 0x68, 0x87, 0x95, 0x87, 0x96, 0xb6, 0x9a, 0x67, 0x7b, 0xc5, 0x95, 0x78, 0x68, 0x41, 
0xaa, 0x86, 0x89, 0x77, 0x33, 0x99, 0x88, 0x75, 0x46, 0x89, 0x78, 0x75, 0x78, 0x57, 0x67, 0x78, 0x75, 0x67, 0x5a, 0x69, 
0x88, 0x77, 0x96, 0x46, 0x86, 0x98, 0x86, 0x79, 0x56, 0x78, 0x64, 0x77, 0x95, 0x78, 0x66, 0x85, 0x56, 0x87, 0x77, 0x89, 
0x99, 0x76, 0x65, 0x77, 0x98, 0x67, 0x86, 0x97, 0x65, 0x86, 0x78, 0x9a, 0x85, 0x96, 0x55, 0x88, 0x99, 0x88, 0x85, 0x58, 
0x69, 0x97, 0x95, 0x54, 0x79, 0x68, 0x68, 0x87, 0x8a, 0x67, 0x65, 0xa8, 0x67, 0x56, 0x66, 0x65, 0x66, 0x77, 0x88, 0x85, 
0x88, 0x78, 0x67, 0x87, 0x88, 0x95, 0x45, 0x38, 0x96, 0x84, 0xa6, 0x56, 0x87, 0x67, 0x77, 0xa6, 0x76, 0x95, 0xa7, 0x87, 
0x78, 0x77, 0x98, 0x78, 0x58, 0x76, 0x88, 0x76, 0x79, 0x76, 0x68, 0x39, 0x86, 0x85, 0x57, 0x87, 0x96, 0x78, 0x78, 0x77, 
0x79, 0x89, 0x97, 0x77, 0x86, 0x97, 0x96, 0x99, 0x98, 0x99, 0x84, 0x87, 0x79, 0x88, 0x67, 0x6a, 0x49, 0x69, 0xa6, 0x88, 
0x88, 0x89, 0x78, 0x98, 0x67, 0x86, 0x95, 0x76, 0x68, 0x88, 0x49, 0xb9, 0x85, 0x66, 0x4a, 0xb7, 0x69, 0x87, 0x6a, 0x9a, 
0x7b, 0x68, 0x66, 0x57, 0x58, 0x78, 0x68, 0x66, 0x87, 0x58, 0x67, 0x83, 0x66, 0x88, 0x87, 0x58, 0x77, 0x88, 0x77, 0x89, 
0x59, 0x74, 0x69, 0x68, 0x79, 0x77, 0x96, 0x77, 0xb5, 0x98, 0x75, 0xa6, 0x77, 0xa7, 0x97, 0x89, 0x79, 0x64, 0x87, 0x59, 
0x87, 0x89, 0xa8, 0x7a, 0x88, 0x87, 0x78, 0x69, 0x77, 0x67, 0x74, 0x56, 0x56, 0x85, 0x88, 0x86, 0x78, 0x77, 0xa8, 0x69, 
0x84, 0x88, 0xa5, 0x28, 0x9b, 0x66, 0x88, 0x77, 0x78, 0x75, 0x79, 0xb8, 0xba, 0x76, 0x99, 0x9a, 0x89, 0x98, 0x85, 0x98, 
0x68, 0x76, 0x85, 0x68, 0x76, 0x65, 0x56, 0xc8, 0x77, 0x54, 0x5c, 0xb6, 0x55, 0x88, 0x98, 0x85, 0x95, 0x86, 0x78, 0x56, 
0x45, 0x86, 0x66, 0x56, 0x48, 0x76, 0x75, 0x54, 0x76, 0x86, 0x96, 0x47, 0x64, 0x69, 0x97, 0x88, 0x47, 0x78, 0x68, 0x48, 
0x55, 0xa7, 0x95, 0x68, 0x4c, 0x79, 0x86, 0xad, 0x57, 0x58, 0x76, 0x67, 0xca, 0x79, 0x96, 0x6a, 0xd9, 0x99, 0x87, 0x7a, 
0x75, 0x67, 0x67, 0x55, 0x79, 0x67, 0x84, 0x78, 0x86, 0x76, 0x77, 0x86, 0x79, 0x87, 0x76, 0x76, 0x77, 0x76, 0x78, 0x98, 
0x59, 0x69, 0x78, 0x67, 0x89, 0x5a, 0x99, 0x67, 0x98, 0x77, 0x79, 0x88, 0x86, 0x57, 0x78, 0x55, 0x87, 0x77, 0x78, 0x95, 
0x77, 0x69, 0x88, 0x75, 0x89, 0x56, 0x89, 0x78, 0x65, 0x95, 0x78, 0x8c, 0x76, 0x76, 0x67, 0x99, 0x75, 0x88, 0x6a, 0x67, 
0x96, 0x78, 0x89, 0x88, 0x88, 0x89, 0x75, 0x99, 0x76, 0x66, 0x77, 0x99, 0x57, 0x59, 0x86, 0x87, 0x7b, 0x79, 0x59, 0x79, 
0x99, 0x78, 0x79, 0x77, 0x78, 0x58, 0x66, 0x75, 0x87, 0x78, 0x67, 0x89, 0x96, 0x76, 0x77, 0x77, 0x88, 0x87, 0x86, 0xb7, 
0x79, 0x86, 0x99, 0x68, 0x67, 0x87, 0xa6, 0x89, 0x85, 0x76, 0x89, 0x77, 0x47, 0x58, 0x87, 0x78, 0x58, 0x56, 0x57, 0x86, 
0x87, 0x78, 0x88, 0x98, 0x96, 0x77, 0x66, 0x74, 0x86, 0x86, 0x58, 0x85, 0xa6, 0x75, 0x6a, 0x79, 0xb6, 0x88, 0x95, 0x47, 
0x68, 0x89, 0xa6, 0x47, 0x87, 0x66, 0x86, 0x56, 0x85, 0x76, 0x76, 0x57, 0x98, 0x79, 0x97, 0x77, 0x67, 0x58, 0x79, 0x89, 
0x99, 0x96, 0x76, 0x99, 0x87, 0x75, 0x58, 0x46, 0x97, 0x78, 0xa6, 0x97, 0x93, 0x89, 0x4a, 0x98, 0x48, 0x86, 0x6a, 0x37, 
0x7a, 0x37, 0x56, 0x87, 0x97, 0x7b, 0x78, 0x75, 0x77, 0x67, 0x48, 0x74, 0x66, 0x86, 0x86, 0x79, 0x87, 0x75, 0x78, 0x79, 
0x87, 0x77, 0x78, 0x76, 0x96, 0x77, 0x75, 0x86, 0x9a, 0x87, 0x6a, 0xb7, 0x64, 0x67, 0x76, 0x76, 0x76, 0x7a, 0x56, 0x57, 
0x67, 0x86, 0x45, 0x65, 0x79, 0x95, 0x68, 0x88, 0x75, 0x58, 0x87, 0x65, 0x79, 0x97, 0x75, 0x28, 0x89, 0x98, 0xb5, 0x39, 
0xac, 0x77, 0x55, 0x8a, 0x87, 0x86, 0x86, 0x78, 0xa9, 0x89, 0x77, 0x89, 0x98, 0x88, 0x78, 0x99, 0x68, 0x67, 0x67, 0xa8, 
0x6a, 0x97, 0x68, 0x66, 0x95, 0x89, 0x76, 0xb9, 0x99, 0x59, 0x59, 0xb5, 0xa5, 0x56, 0x68, 0x52, 0xaa, 0xb8, 0x96, 0x87, 
0x24, 0x68, 0x98, 0x96, 0x27, 0x79, 0x87, 0x82, 0x86, 0x88, 0x79, 0xa8, 0x74, 0x78, 0x77, 0x65, 0x77, 0x98, 0x67, 0x59, 
0x78, 0x69, 0x87, 0x77, 0x67, 0x58, 0x66, 0x68, 0x76, 0x68, 0x97, 0x98, 0x54, 0x86, 0x85, 0x86, 0x88, 0x89, 0x68, 0x67, 
0x78, 0x88, 0x79, 0x77, 0x67, 0x86, 0x56, 0x87, 0x78, 0x67, 0x88, 0x67, 0x96, 0x98, 0x57, 0x78, 0x98, 0x67, 0x98, 0x64, 
0x6a, 0x66, 0x78, 0x67, 0x7a, 0x98, 0x78, 0xa8, 0x58, 0x87, 0x67, 0x96, 0x66, 0x86, 0x76, 0x68, 0x99, 0x97, 0x77, 0x67, 
0x88, 0xa5, 0x55, 0x38, 0x66, 0x75, 0x96, 0x86, 0x76, 0x97, 0x68, 0x86, 0x58, 0xa5, 0x7a, 0x89, 0x65, 0x98, 0x68, 0x65, 
0x78, 0x68, 0x97, 0x76, 0x69, 0x76, 0x87, 0x57, 0x78, 0x96, 0x88, 0x88, 0x98, 0x9a, 0x77, 0x88, 0x7b, 0x89, 0x95, 0x86, 
0x96, 0x95, 0x76, 0x96, 0x87, 0x76, 0x86, 0x68, 0x59, 0x66, 0x77, 0x69, 0x47, 0x88, 0xb8, 0x98, 0x97, 0x99, 0x78, 0xa8, 
0x87, 0x69, 0x77, 0x67, 0x37, 0x66, 0x85, 0x97, 0x65, 0x55, 0x4a, 0xb5, 0x69, 0x85, 0x79, 0x8a, 0x79, 0x66, 0x66, 0x77, 
0x96, 0x89, 0x67, 0x76, 0x97, 0x88, 0x48, 0x74, 0x77, 0x85, 0x86, 0x56, 0x97, 0x87, 0x54, 0x99, 0x47, 0x85, 0x68, 0x59, 
0x69, 0x55, 0x96, 0x47, 0xb5, 0x88, 0x95, 0x96, 0x94, 0x97, 0x96, 0x68, 0x7a, 0x94, 0x97, 0x58, 0x68, 0x77, 0xb9, 0x9c, 
0x68, 0x87, 0x68, 0x75, 0x77, 0x98, 0x98, 0x77, 0x78, 0xa7, 0x99, 0x79, 0x6a, 0x67, 0xaa, 0x58, 0x56, 0x96, 0x76, 0x0a, 
0x9a, 0x67, 0x9a, 0x66, 0x7a, 0x87, 0x87, 0xa7, 0xb7, 0x67, 0x77, 0x8a, 0x98, 0x79, 0x68, 0x86, 0x89, 0x76, 0x77, 0x79, 
0x66, 0x66, 0x65, 0xd6, 0x57, 0x57, 0x39, 0xb5, 0x53, 0x56, 0x98, 0x75, 0x68, 0x88, 0x67, 0x68, 0x45, 0x75, 0x79, 0x46, 
0x46, 0x87, 0x68, 0x54, 0x97, 0x86, 0x68, 0x66, 0xa6, 0x86, 0x68, 0x96, 0x77, 0x75, 0x86, 0x37, 0x77, 0x84, 0xa5, 0x48, 
0x3a, 0xa5, 0x94, 0x9a, 0x75, 0x68, 0x76, 0x86, 0xdb, 0x59, 0x84, 0x68, 0xca, 0x86, 0x87, 0x7c, 0x65, 0x66, 0x88, 0x58, 
0x8b, 0x87, 0x76, 0x76, 0x76, 0x97, 0x76, 0x58, 0x67, 0x89, 0x78, 0x66, 0x65, 0x58, 0x64, 0x46, 0xa8, 0x78, 0x75, 0x65, 
0x77, 0x66, 0x77, 0x79, 0x88, 0x78, 0x79, 0x77, 0x66, 0x88, 0x85, 0x76, 0x87, 0x66, 0x77, 0x6a, 0x97, 0x78, 0x55, 0x56, 
0x87, 0x98, 0x86, 0x86, 0x98, 0x78, 0x77, 0x46, 0x7a, 0x89, 0x55, 0x78, 0x97, 0x79, 0x67, 0xa7, 0x66, 0x68, 0x55, 0x76, 
0x97, 0x57, 0x77, 0x96, 0x67, 0x66, 0x77, 0x65, 0x88, 0x95, 0x58, 0x46, 0x94, 0x86, 0xa7, 0x68, 0x69, 0x66, 0x67, 0x85, 
0x78, 0x87, 0x77, 0x65, 0x76, 0x98, 0x77, 0x58, 0x69, 0x67, 0x98, 0x66, 0x68, 0x68, 0x96, 0x47, 0x78, 0x86, 0x66, 0x77, 
0x86, 0x8a, 0x66, 0x77, 0x7c, 0x69, 0x88, 0x79, 0x75, 0xa6, 0x76, 0x87, 0x89, 0x78, 0x87, 0x86, 0x57, 0x86, 0x85, 0x57, 
0x59, 0x66, 0x99, 0x87, 0x87, 0x98, 0x77, 0x95, 0x56, 0x89, 0x78, 0x68, 0x48, 0x78, 0x55, 0xb6, 0x86, 0x76, 0x48, 0x86, 
0x5a, 0x85, 0x78, 0x69, 0x88, 0x58, 0x76, 0x96, 0x77, 0x86, 0x69, 0x68, 0x87, 0x79, 0x48, 0x64, 0x68, 0x68, 0x85, 0x66, 
0x87, 0x77, 0x76, 0xa9, 0x75, 0x77, 0x48, 0x57, 0x79, 0x35, 0x96, 0x46, 0xd6, 0x96, 0x94, 0x76, 0x76, 0x96, 0x78, 0x79, 
0x47, 0x94, 0x95, 0x57, 0x88, 0x76, 0x86, 0x7a, 0x66, 0x98, 0x67, 0x86, 0x85, 0x88, 0x85, 0x75, 0x56, 0xa6, 0x97, 0x77, 
0x8a, 0x66, 0x88, 0x87, 0x56, 0x68, 0xa4, 0x09, 0x79, 0x58, 0xa9, 0x77, 0x87, 0x87, 0xa6, 0x99, 0xba, 0x68, 0xb9, 0x77, 
0x69, 0x88, 0x88, 0x89, 0x7a, 0x66, 0x55, 0x69, 0x76, 0x55, 0x88, 0xb6, 0x65, 0x64, 0x5b, 0xb6, 0x23, 0x57, 0x8b, 0x64, 
0x76, 0x78, 0x78, 0x86, 0x57, 0x65, 0x7a, 0x56, 0x48, 0x79, 0x58, 0x65, 0x66, 0x66, 0x98, 0x47, 0x96, 0x77, 0x85, 0x78, 
0x46, 0x86, 0x69, 0x66, 0x76, 0xa4, 0x85, 0x57, 0x3c, 0x76, 0x74, 0xcc, 0x87, 0x75, 0x77, 0x86, 0xab, 0x67, 0x86, 0x6a, 
0xc7, 0x78, 0x86, 0x7c, 0x96, 0x87, 0x68, 0x77, 0x98, 0x67, 0x97, 0x69, 0x98, 0x75, 0x96, 0x86, 0x7a, 0x98, 0x66, 0x86, 
0x96, 0x99, 0x7a, 0x95, 0x59, 0x68, 0x77, 0x77, 0x97, 0x89, 0x89, 0x88, 0x79, 0x76, 0x78, 0x79, 0x86, 0x56, 0x78, 0x68, 
0x78, 0x95, 0x87, 0x66, 0x88, 0x98, 0xa6, 0xa9, 0x67, 0x68, 0x6b, 0x88, 0x85, 0x78, 0x68, 0x9c, 0x84, 0x85, 0x78, 0x88, 
0x77, 0x95, 0x98, 0x46, 0x87, 0x86, 0xa7, 0x88, 0x88, 0x67, 0x79, 0x87, 0x75, 0x66, 0x99, 0x77, 0x87, 0x89, 0x87, 0x96, 
0x78, 0x9b, 0x6a, 0x78, 0x96, 0x88, 0x97, 0x69, 0x78, 0x56, 0x57, 0x87, 0x97, 0x78, 0x89, 0x78, 0xa8, 0x86, 0x46, 0x8a, 
0x78, 0x77, 0x77, 0xa7, 0x97, 0x87, 0x77, 0x88, 0x77, 0x66, 0x88, 0x87, 0x93, 0x57, 0x7a, 0x75, 0x6a, 0x78, 0x66, 0x88, 
0x75, 0x77, 0x69, 0x86, 0x87, 0x87, 0x69, 0xb6, 0xc7, 0x97, 0x68, 0x74, 0x67, 0x89, 0x66, 0x76, 0x95, 0x86, 0x89, 0x88, 
0x86, 0x97, 0x96, 0x57, 0x88, 0x79, 0x87, 0x39, 0x86, 0x67, 0x84, 0x64, 0x67, 0x77, 0x97, 0x77, 0x79, 0x68, 0x98, 0x78, 
0x57, 0x65, 0x89, 0x6a, 0x96, 0x76, 0x68, 0xa6, 0x77, 0x75, 0x79, 0x34, 0xb5, 0x69, 0xa7, 0x78, 0x95, 0x87, 0x58, 0xa7, 
0x3b, 0x69, 0x78, 0x5a, 0x88, 0x58, 0x57, 0x88, 0x96, 0x8b, 0x79, 0x85, 0xa9, 0x78, 0x57, 0x65, 0x86, 0x66, 0x68, 0x79, 
0x68, 0x68, 0x68, 0x79, 0x88, 0x89, 0x87, 0x88, 0x95, 0x97, 0x65, 0x75, 0x77, 0x88, 0x59, 0xe7, 0x45, 0x85, 0x58, 0x98, 
0x54, 0x89, 0x79, 0x46, 0x55, 0x77, 0x48, 0x74, 0x67, 0x68, 0x56, 0x56, 0x66, 0x58, 0x59, 0x85, 0x96, 0x9a, 0x97, 0x29, 
0x68, 0xb9, 0x94, 0x49, 0xab, 0x97, 0x73, 0x7a, 0x78, 0x56, 0x94, 0x56, 0x89, 0x88, 0x77, 0x7a, 0xb7, 0x56, 0x98, 0xaa, 
0x75, 0x86, 0x67, 0x78, 0x59, 0x86, 0x67, 0x86, 0x95, 0x78, 0x88, 0xc8, 0x88, 0x5a, 0x6a, 0xb7, 0xa2, 0x88, 0x78, 0x51, 
0x7a, 0xb7, 0x68, 0x79, 0x47, 0x86, 0x6b, 0xa4, 0x45, 0x68, 0x7a, 0x64, 0x88, 0x76, 0x66, 0x87, 0x95, 0x89, 0x88, 0x88, 
0x87, 0x89, 0x69, 0x58, 0x78, 0x66, 0x68, 0x78, 0x76, 0x78, 0x54, 0x48, 0x98, 0x77, 0x75, 0x88, 0x48, 0x65, 0x77, 0x96, 
0x77, 0x58, 0x87, 0x85, 0x67, 0x98, 0x86, 0x98, 0x95, 0x56, 0x77, 0x6a, 0x97, 0x86, 0x56, 0x66, 0x66, 0x69, 0x74, 0x77, 
0x88, 0x78, 0x85, 0x74, 0x69, 0x76, 0x97, 0x56, 0x87, 0x87, 0x74, 0xa9, 0x58, 0x69, 0x47, 0x67, 0x68, 0x56, 0x99, 0x66, 
0x87, 0x77, 0x75, 0x68, 0x97, 0x85, 0x76, 0x57, 0x85, 0x65, 0x75, 0x67, 0x67, 0x98, 0x56, 0x87, 0x55, 0x86, 0xa7, 0x77, 
0x86, 0x89, 0x79, 0x69, 0x49, 0x86, 0xa9, 0x66, 0x66, 0x86, 0x69, 0x36, 0x88, 0x88, 0x85, 0x86, 0x67, 0x67, 0x58, 0x79, 
0x6c, 0x79, 0x86, 0x57, 0xa6, 0x95, 0x96, 0x78, 0xa7, 0x99, 0x87, 0x86, 0x78, 0x65, 0x85, 0x49, 0x49, 0x97, 0xa7, 0x88, 
0x66, 0x77, 0x87, 0x97, 0x69, 0x98, 0x65, 0x86, 0x57, 0x77, 0x56, 0xc7, 0x63, 0x54, 0x7b, 0x96, 0x79, 0x88, 0x6a, 0x98, 
0x9a, 0x76, 0x77, 0x87, 0x96, 0x76, 0x59, 0x98, 0x88, 0x76, 0x66, 0x65, 0x77, 0x67, 0x78, 0x69, 0x97, 0x97, 0x86, 0x9b, 
0x67, 0x76, 0x58, 0x79, 0x9c, 0x67, 0xb6, 0x46, 0xc6, 0x97, 0x76, 0x97, 0x85, 0xb9, 0xa8, 0x78, 0x7a, 0x75, 0x75, 0x57, 
0x57, 0x87, 0x88, 0x79, 0x98, 0x66, 0x86, 0x66, 0x86, 0x98, 0x76, 0x67, 0x78, 0x97, 0x99, 0x76, 0x8a, 0x88, 0x98, 0x57, 
0x87, 0x76, 0x85, 0x27, 0xa9, 0x57, 0x78, 0x78, 0x79, 0x98, 0xa7, 0x97, 0xb7, 0x88, 0x89, 0x9a, 0x88, 0x89, 0x77, 0x76, 
0x77, 0x67, 0x65, 0x69, 0x67, 0x55, 0x87, 0xa8, 0x87, 0x44, 0x6c, 0xa6, 0x55, 0x66, 0x79, 0x54, 0x77, 0x86, 0x6a, 0x67, 
0x47, 0x67, 0x69, 0x77, 0x37, 0x69, 0x77, 0x75, 0x87, 0x77, 0x78, 0x76, 0x87, 0x57, 0x66, 0x69, 0x58, 0x99, 0x67, 0x46, 
0x56, 0x95, 0x83, 0x59, 0x5c, 0x97, 0x75, 0xbc, 0x45, 0x47, 0x76, 0x78, 0xca, 0x77, 0x67, 0x6a, 0xb8, 0x87, 0x77, 0x8c, 
0x88, 0x68, 0x78, 0x56, 0x68, 0x87, 0x84, 0x69, 0x97, 0x76, 0x66, 0x58, 0x66, 0x96, 0x76, 0x68, 0x68, 0x68, 0x86, 0x76, 
0x67, 0x67, 0x67, 0x87, 0x86, 0x97, 0x65, 0x88, 0x78, 0x57, 0x76, 0x76, 0x67, 0x68, 0x76, 0x69, 0x87, 0x97, 0x87, 0x75, 
0x78, 0x88, 0x77, 0x86, 0x87, 0x75, 0x88, 0x66, 0x77, 0x79, 0x78, 0x95, 0x77, 0x67, 0x65, 0x86, 0x65, 0x67, 0x65, 0x88, 
0x66, 0x87, 0x76, 0x75, 0x58, 0x77, 0x85, 0x78, 0x68, 0x96, 0x66, 0x66, 0x87, 0x68, 0x69, 0x66, 0x66, 0x68, 0x67, 0x87, 
0x66, 0x67, 0x78, 0x88, 0x66, 0x89, 0x86, 0x77, 0x56, 0x87, 0x77, 0x88, 0x65, 0x57, 0x57, 0x86, 0x78, 0x88, 0x87, 0x68, 
0x56, 0x78, 0x86, 0x88, 0x78, 0x77, 0x57, 0x86, 0x65, 0x88, 0x87, 0x67, 0x66, 0x66, 0x76, 0x68, 0x56, 0x85, 0x87, 0x76, 
0x67, 0x88, 0x78, 0x66, 0x66, 0x75, 0x79, 0x78, 0x98, 0x86, 0x68, 0x59, 0x66, 0x78, 0x77, 0x97, 0x57, 0x56, 0x76, 0x86, 
0x57, 0x86, 0x77, 0x58, 0x76, 0x66, 0x77, 0x86, 0x68, 0x95, 0x66, 0x77, 0x75, 0x67, 0x78, 0x78, 0x75, 0x66, 0x78, 0x76, 
0x67, 0x87, 0x76, 0x67, 0x87, 0x76, 0x68, 0x88, 0x67, 0x69, 0x58, 0x79, 0x67, 0x86, 0x67, 0x77, 0x96, 0x97, 0x88, 0x67, 
0x66, 0x58, 0x76, 0x87, 0x77, 0x76, 0x88, 0x66, 0x78, 0x75, 0x67, 0x75, 0x76, 0x99, 0x88, 0x85, 0x66, 0x65, 0x58, 0x87, 
0x77, 0x89, 0x86, 0x58, 0x78, 0x78, 0x69, 0x85, 0x88, 0x77, 0x75, 0x76, 0x67, 0x68, 0x86, 0x67, 0x87, 0x57, 0x56, 0x67, 
0x58, 0x89, 0x85, 0x59, 0x86, 0x57, 0x68, 0x85, 0x87, 0x78, 0x57, 0x67, 0x58, 0x79, 0x97, 0x69, 0x77, 0x78, 0x87, 0x76, 
0x76, 0x88, 0x76, 0x68, 0x97, 0x78, 0x56, 0x68, 0x78, 0x67, 0x66, 0x78, 0x66, 0x57, 0x75, 0x85, 0x78, 0x66, 0x58, 0x78, 
0x76, 0x75, 0x99, 0x85, 0x85, 0x89, 0x85, 0x79, 0x78, 0x86, 0x78, 0x57, 0x66, 0x67, 0x58, 0x78, 0x76, 0x58, 0x57, 0x78, 
0x76, 0x66, 0x76, 0x67, 0x65, 0x95, 0x86, 0x78, 0x87, 0x66, 0x88, 0x77, 0x58, 0x69, 0x56, 0x66, 0x85, 0x68, 0x66, 0x66, 
0x86, 0x68, 0x67, 0x99, 0x46, 0x76, 0x66, 0x56, 0x98, 0x68, 0x68, 0x57, 0x46, 0x77, 0x67, 0x78, 0x88, 0x67, 0x88, 0x75, 
0x86, 0x66, 0x66, 0x99, 0x95, 0x97, 0x77, 0x9a, 0x88, 0x86, 0x45, 0x66, 0x77, 0x76, 0x55, 0x78, 0x98, 0x68, 0x87, 0x74, 
0x78, 0x68, 0x56, 0x65, 0x97, 0x98, 0x86, 0x98, 0x79, 0x78, 0x67, 0x64, 0x97, 0x65, 0x76, 0x66, 0x9a, 0x78, 0x96, 0x75, 
0x96, 0x97, 0x46, 0x66, 0x96, 0x84, 0x95, 0x69, 0x79, 0x98, 0x56, 0xa6, 0x76, 0x96, 0x79, 0x65, 0x56, 0x96, 0x78, 0x76, 
0x77, 0x99, 0x79, 0x77, 0x66, 0x55, 0x78, 0x27, 0x67, 0x65, 0x55, 0x87, 0x68, 0x7a, 0x55, 0x87, 0x79, 0x69, 0x96, 0x79, 
0x96, 0x87, 0x68, 0x97, 0xa7, 0x97, 0x87, 0x67, 0x69, 0x89, 0x75, 0x39, 0x47, 0x87, 0x78, 0x7a, 0x86, 0x67, 0x87, 0x98, 
0x78, 0x69, 0x68, 0x76, 0x48, 0x68, 0x79, 0xc8, 0x55, 0x57, 0x7a, 0xa7, 0x79, 0x96, 0x98, 0x79, 0x9a, 0x68, 0x68, 0x88, 
0x95, 0x68, 0x59, 0x86, 0xa7, 0x86, 0x75, 0x76, 0x88, 0x68, 0x66, 0x75, 0x76, 0x79, 0x66, 0xa9, 0x59, 0x86, 0x79, 0x68, 
0x7a, 0x44, 0xb6, 0x67, 0xa7, 0x85, 0xa7, 0x84, 0x95, 0xa8, 0xa7, 0x79, 0x68, 0x74, 0x77, 0x59, 0x56, 0x77, 0xb6, 0x8a, 
0x87, 0x75, 0x79, 0x57, 0x88, 0x65, 0x77, 0x75, 0x75, 0x97, 0x76, 0x89, 0x68, 0x86, 0xa9, 0x59, 0x56, 0x77, 0x85, 0x2a, 
0xaa, 0x78, 0x98, 0x99, 0x9a, 0x85, 0xa9, 0xb8, 0xba, 0x88, 0xa7, 0x69, 0x76, 0x85, 0x87, 0x79, 0x5a, 0x86, 0x89, 0x87, 
0x85, 0x76, 0x68, 0xa6, 0x57, 0x56, 0x6a, 0x87, 0x43, 0x78, 0x8b, 0x83, 0x77, 0x89, 0x68, 0x85, 0x35, 0x85, 0x68, 0x45, 
0x55, 0x76, 0x58, 0x57, 0x99, 0x86, 0x87, 0x59, 0x65, 0x68, 0x87, 0x87, 0x46, 0x76, 0x76, 0x47, 0x66, 0x75, 0x65, 0x38, 
0x4b, 0x86, 0x94, 0x9a, 0x75, 0x58, 0x87, 0x58, 0x9b, 0x79, 0x67, 0x38, 0xc8, 0x66, 0x98, 0x89, 0x77, 0x79, 0x66, 0x45, 
0x98, 0x86, 0x75, 0x87, 0x78, 0x98, 0x85, 0x66, 0x8b, 0x97, 0x95, 0x77, 0x78, 0x89, 0x87, 0x87, 0x96, 0x67, 0x96, 0x56, 
0x6a, 0x96, 0x76, 0x77, 0x67, 0x96, 0x97, 0x78, 0x75, 0x98, 0x78, 0x87, 0x58, 0x65, 0x96, 0x75, 0x78, 0x86, 0x68, 0xa6, 
0x86, 0x76, 0x89, 0x98, 0x99, 0x79, 0x67, 0x88, 0x7b, 0x78, 0x87, 0x68, 0x87, 0x96, 0x68, 0x99, 0x87, 0x75, 0x98, 0x78, 
0x66, 0x86, 0x58, 0x69, 0x78, 0x67, 0x85, 0x99, 0x86, 0x86, 0x86, 0x66, 0x85, 0xa4, 0x79, 0x75, 0x99, 0x55, 0x69, 0x96, 
0x8a, 0xa5, 0x96, 0x58, 0x96, 0x77, 0x89, 0x76, 0x56, 0x76, 0xa7, 0x56, 0x89, 0x58, 0x88, 0x86, 0x66, 0x79, 0x65, 0x87, 
0x78, 0x88, 0x85, 0x97, 0x6a, 0x87, 0xe8, 0x66, 0xa7, 0x96, 0x56, 0x76, 0x79, 0x56, 0x97, 0x68, 0x78, 0x76, 0x87, 0x58, 
0x67, 0x68, 0xa7, 0x69, 0x58, 0x78, 0x67, 0x96, 0x78, 0x77, 0x76, 0x77, 0x46, 0x68, 0x76, 0xb6, 0x68, 0x96, 0x98, 0x97, 
0x79, 0x77, 0x5a, 0x96, 0x7b, 0x66, 0x74, 0x77, 0x98, 0x78, 0xa9, 0xb7, 0x98, 0x85, 0x69, 0x65, 0x68, 0x66, 0x57, 0x66, 
0x67, 0x98, 0x88, 0xa9, 0x58, 0x94, 0x58, 0x97, 0x8c, 0x45, 0x88, 0x6a, 0xb5, 0x88, 0x68, 0x99, 0x94, 0xb9, 0x95, 0x66, 
0x69, 0x76, 0x87, 0x87, 0x8a, 0x87, 0x96, 0x5b, 0x77, 0x68, 0x99, 0x67, 0x76, 0x66, 0x88, 0x77, 0x87, 0x68, 0x97, 0x85, 
0x97, 0x97, 0xba, 0x88, 0x78, 0x66, 0xa6, 0x5c, 0x9a, 0x48, 0x85, 0x67, 0x55, 0xa6, 0x97, 0xa9, 0x88, 0x96, 0x69, 0x6a, 
0x76, 0x76, 0x96, 0x86, 0x98, 0x86, 0x59, 0x6a, 0x98, 0x58, 0x88, 0xc7, 0x56, 0x77, 0x5b, 0xa7, 0x25, 0x66, 0x89, 0x78, 
0x88, 0x96, 0x87, 0x68, 0x89, 0x77, 0x79, 0x98, 0x67, 0x65, 0x75, 0x76, 0x67, 0x69, 0x69, 0x76, 0x66, 0x69, 0x76, 0x78, 
0x36, 0x88, 0x56, 0x75, 0x44, 0xa5, 0xb6, 0x7a, 0x69, 0x97, 0xa8, 0x9d, 0x77, 0x48, 0x56, 0x88, 0xb8, 0x78, 0x77, 0x6b, 
0xaa, 0x58, 0xa8, 0x6d, 0x85, 0x75, 0x87, 0x66, 0x7a, 0x75, 0x65, 0x98, 0x97, 0x98, 0x56, 0x78, 0x78, 0x57, 0x8a, 0x9a, 
0x86, 0x78, 0x8a, 0x76, 0x78, 0xa7, 0xa8, 0x66, 0x98, 0x87, 0x76, 0x67, 0x67, 0x77, 0x79, 0x79, 0x75, 0x57, 0x87, 0x89, 
0x9b, 0x89, 0x66, 0x87, 0x67, 0x97, 0x76, 0x86, 0x57, 0x65, 0x78, 0x99, 0x65, 0x97, 0x99, 0x89, 0x65, 0x97, 0x9a, 0x87, 
0x97, 0x78, 0x89, 0x57, 0x96, 0x68, 0x9a, 0x57, 0x87, 0x68, 0x78, 0x78, 0x96, 0x67, 0x66, 0x76, 0x89, 0x69, 0x78, 0x87, 
0x7b, 0x6b, 0x79, 0x97, 0x88, 0x66, 0x78, 0x8a, 0x79, 0x78, 0x87, 0x77, 0x88, 0x88, 0x88, 0x89, 0x99, 0x59, 0x77, 0x68, 
0x97, 0x75, 0x67, 0x88, 0x86, 0x65, 0x76, 0x89, 0x76, 0x95, 0x76, 0x78, 0x87, 0x86, 0x6a, 0x89, 0x78, 0x88, 0x89, 0x87, 
0x86, 0x87, 0x89, 0x66, 0xb7, 0x86, 0x78, 0xa8, 0xa9, 0x69, 0x98, 0x94, 0x88, 0x79, 0x87, 0x85, 0x68, 0x89, 0x96, 0x99, 
0x96, 0x8b, 0x98, 0x66, 0x77, 0x79, 0x97, 0x99, 0x96, 0x89, 0x98, 0x67, 0x76, 0x97, 0x8a, 0x76, 0x79, 0x76, 0x76, 0x78, 
0x89, 0x55, 0x77, 0x98, 0x76, 0x66, 0x97, 0x75, 0x77, 0x87, 0x77, 0x67, 0x76, 0x97, 0xb7, 0x98, 0x52, 0x68, 0x58, 0x88, 
0x58, 0x66, 0x67, 0x5a, 0x7a, 0x65, 0x98, 0x89, 0x87, 0x6a, 0x66, 0x59, 0x78, 0x87, 0x78, 0x93, 0x66, 0x75, 0x87, 0xa8, 
0x58, 0x88, 0x69, 0x69, 0x67, 0x65, 0x76, 0x87, 0x78, 0x89, 0x66, 0x79, 0x7b, 0x86, 0x69, 0xd6, 0x54, 0x76, 0x78, 0x76, 
0x79, 0x77, 0x77, 0x56, 0x79, 0x89, 0x77, 0x66, 0x68, 0x67, 0x88, 0x86, 0x77, 0x66, 0x77, 0x6a, 0x87, 0x68, 0xa7, 0x68, 
0x87, 0x86, 0xb5, 0x78, 0xaa, 0x99, 0x76, 0x7b, 0x67, 0x56, 0xa8, 0x65, 0x99, 0x97, 0x66, 0x97, 0xa7, 0x88, 0x99, 0x89, 
0x78, 0x86, 0x87, 0x67, 0x79, 0x95, 0x8a, 0x69, 0x96, 0x78, 0x88, 0xa8, 0x88, 0x37, 0x78, 0x97, 0x87, 0x77, 0x87, 0x45, 
0x99, 0xb6, 0xa9, 0x66, 0x59, 0x76, 0x79, 0x96, 0x75, 0x58, 0x68, 0x93, 0x56, 0x68, 0x66, 0x96, 0x75, 0x95, 0x89, 0x68, 
0x76, 0x78, 0x79, 0x86, 0x57, 0x66, 0x66, 0x79, 0x87, 0x66, 0x89, 0x96, 0x66, 0x67, 0x79, 0x85, 0x98, 0x75, 0x67, 0x87, 
0x78, 0x66, 0x66, 0x65, 0x68, 0x98, 0x68, 0x57, 0x79, 0x86, 0x75, 0x78, 0x77, 0x77, 0x57, 0x55, 0x78, 0x68, 0x98, 0x86, 
0x86, 0x89, 0x79, 0x59, 0x97, 0x88, 0x87, 0x77, 0x77, 0x65, 0x96, 0x68, 0xa6, 0x86, 0x68, 0x88, 0x79, 0x79, 0x89, 0x66, 
0x78, 0x56, 0x65, 0x66, 0x68, 0x89, 0x86, 0x76, 0x77, 0x98, 0x56, 0x65, 0x58, 0x57, 0x86, 0x89, 0x58, 0x55, 0x74, 0x68, 
0x78, 0x56, 0x85, 0x75, 0x76, 0x67, 0x56, 0x65, 0x79, 0x96, 0x87, 0x75, 0x86, 0x87, 0x56, 0x65, 0x76, 0x76, 0x78, 0x85, 
0x68, 0x87, 0x67, 0x55, 0x88, 0x77, 0x86, 0x58, 0x67, 0x66, 0x56, 0x76, 0x85, 0x87, 0x67, 0x86, 0x95, 0x86, 0x76, 0x57, 
0x85, 0x85, 0x65, 0x87, 0x66, 0x56, 0x85, 0x55, 0x76, 0x76, 0x78, 0x76, 0x79, 0x68, 0x67, 0x68, 0x86, 0x77, 0x87, 0x88, 
0x97, 0x89, 0x66, 0x78, 0x66, 0x86, 0x88, 0x76, 0x75, 0x87, 0x88, 0x65, 0x88, 0x68, 0x86, 0x77, 0x66, 0x68, 0x98, 0x76, 
0x78, 0x77, 0x86, 0x88, 0x82, 0x76, 0x86, 0x95, 0x77, 0x56, 0x57, 0x77, 0x77, 0x86, 0x55, 0x85, 0x75, 0x77, 0x76, 0x58, 
0x77, 0x78, 0x76, 0x86, 0x86, 0x57, 0x88, 0x76, 0x65, 0x86, 0x66, 0x67, 0x56, 0x75, 0x86, 0x57, 0x66, 0x88, 0x68, 0x67, 
0x89, 0x77, 0x67, 0x57, 0x68, 0x66, 0x87, 0x86, 0x56, 0x79, 0x77, 0x66, 0x66, 0x98, 0x57, 0x65, 0x88, 0x66, 0x88, 0x56, 
0x65, 0x86, 0x76, 0x77, 0x78, 0x55, 0x77, 0x55, 0x58, 0x78, 0x66, 0x75, 0x98, 0x57, 0x57, 0x56, 0x68, 0x66, 0x87, 0x77, 
0x76, 0x66, 0x97, 0x87, 0x56, 0x76, 0x78, 0x85, 0x66, 0x95, 0x67, 0x89, 0x88, 0x77, 0x79, 0x68, 0x88, 0x56, 0x87, 0x66, 
0x55, 0x58, 0x89, 0x89, 0xa6, 0x78, 0x65, 0x75, 0x76, 0x98, 0x68, 0x85, 0x67, 0x75, 0x77, 0x67, 0x85, 0x88, 0x87, 0x86, 
0x48, 0x87, 0x88, 0x75, 0x66, 0x67, 0x65, 0x68, 0x97, 0x68, 0x86, 0x78, 0x99, 0x78, 0x87, 0x77, 0x68, 0x76, 0x77, 0x77, 
0x96, 0x77, 0x66, 0x86, 0x56, 0x88, 0x68, 0xa5, 0xa6, 0x97, 0x87, 0x96, 0xa6, 0x68, 0x66, 0x95, 0x95, 0x86, 0x76, 0x67, 
0x98, 0x7a, 0x79, 0x66, 0xa9, 0x9a, 0x85, 0x67, 0x7b, 0x69, 0x75, 0x86, 0x89, 0x87, 0x65, 0x77, 0x8a, 0x78, 0x88, 0x89, 
0x59, 0x76, 0x57, 0xa5, 0x95, 0x78, 0x76, 0x78, 0x69, 0x66, 0x77, 0x76, 0x77, 0x75, 0x59, 0x59, 0x87, 0x94, 0x77, 0x96, 
0x9a, 0x89, 0x89, 0x85, 0x88, 0x77, 0x76, 0x68, 0x78, 0x76, 0x99, 0x76, 0x97, 0x97, 0x77, 0x77, 0x79, 0x86, 0x78, 0x58, 
0x98, 0x87, 0x56, 0x77, 0x76, 0x79, 0x88, 0x98, 0x7b, 0x77, 0xa8, 0x98, 0x87, 0x78, 0x58, 0x85, 0xa9, 0x66, 0x73, 0x99, 
0x36, 0x98, 0x76, 0x49, 0x59, 0x56, 0x98, 0x87, 0x78, 0x78, 0x79, 0x75, 0x86, 0x68, 0x76, 0x67, 0x49, 0x71, 0x76, 0xb8, 
0x97, 0x68, 0x68, 0x98, 0x79, 0x87, 0x8a, 0x88, 0x99, 0x76, 0x85, 0x77, 0x76, 0x96, 0x77, 0x76, 0x97, 0x86, 0x76, 0x83, 
0xa6, 0x88, 0x85, 0x97, 0x8a, 0x76, 0x96, 0x79, 0x77, 0x75, 0x48, 0x78, 0x8b, 0x56, 0xa8, 0x96, 0x99, 0x99, 0xa7, 0x97, 
0x95, 0xb6, 0x85, 0x86, 0x59, 0x87, 0x85, 0x88, 0x68, 0x59, 0x85, 0x99, 0x66, 0x78, 0x58, 0x56, 0x97, 0x86, 0x67, 0x66, 
0x99, 0x87, 0x77, 0x97, 0xa7, 0x8a, 0x77, 0x76, 0x76, 0x86, 0x76, 0x2a, 0x99, 0x87, 0x99, 0x77, 0x98, 0x97, 0x97, 0x97, 
0xb7, 0x69, 0x89, 0x78, 0x86, 0x67, 0x75, 0x75, 0x87, 0x89, 0x76, 0x77, 0x76, 0x77, 0x47, 0xa9, 0x88, 0x44, 0x6a, 0x98, 
0x67, 0x78, 0x8a, 0x87, 0x99, 0x85, 0x77, 0x87, 0x79, 0x77, 0x87, 0x57, 0x67, 0x8a, 0x86, 0x74, 0x88, 0x66, 0x77, 0x69, 
0x76, 0x57, 0x66, 0x86, 0x58, 0x8a, 0x85, 0x79, 0x96, 0xa8, 0x95, 0x58, 0x7a, 0x86, 0xa7, 0xbc, 0x68, 0x47, 0x77, 0x86, 
0x97, 0x67, 0x86, 0x79, 0x89, 0x68, 0x75, 0x8a, 0x76, 0x98, 0x67, 0x98, 0x8a, 0x88, 0x65, 0x99, 0x56, 0x74, 0x69, 0x76, 
0x58, 0x78, 0x69, 0x58, 0x75, 0x88, 0x9a, 0xa7, 0x49, 0xa9, 0x8a, 0x98, 0x88, 0x77, 0x99, 0x78, 0x79, 0x86, 0x7a, 0x69, 
0x87, 0x76, 0x67, 0x96, 0x88, 0x85, 0x68, 0x98, 0x57, 0x77, 0x66, 0x78, 0x56, 0x67, 0x78, 0x89, 0x66, 0x76, 0x9b, 0xaa, 
0x94, 0x66, 0x69, 0x66, 0x86, 0x88, 0x6a, 0x47, 0xb8, 0x75, 0x98, 0x68, 0x58, 0x77, 0x78, 0x76, 0x68, 0x66, 0x66, 0x96, 
0x78, 0x6a, 0x87, 0xa7, 0x8b, 0x8b, 0x88, 0x96, 0x98, 0x87, 0x57, 0x67, 0x96, 0x79, 0x65, 0x89, 0x78, 0x69, 0x75, 0x97, 
0x97, 0x66, 0x89, 0x77, 0x77, 0x68, 0x76, 0xb7, 0x88, 0x87, 0x86, 0x96, 0x76, 0x85, 0x86, 0x75, 0x55, 0x57, 0x57, 0x98, 
0x5a, 0x88, 0x77, 0x58, 0x67, 0x68, 0x69, 0x96, 0xb6, 0x66, 0x98, 0xb8, 0xc9, 0x68, 0x77, 0x57, 0x86, 0x76, 0x87, 0x78, 
0x78, 0x78, 0x59, 0x87, 0xb9, 0x87, 0x69, 0x57, 0x59, 0x68, 0xa5, 0x79, 0x98, 0x77, 0x87, 0x57, 0x76, 0x97, 0x8a, 0x76, 
0x99, 0x79, 0x85, 0x89, 0x59, 0x67, 0x97, 0x8a, 0x67, 0x88, 0x77, 0x87, 0x57, 0x88, 0x6a, 0x76, 0x97, 0x7a, 0xb8, 0x97, 
0x74, 0x8a, 0x67, 0xa9, 0x38, 0x65, 0x88, 0x78, 0x89, 0x48, 0x67, 0x56, 0x86, 0x5a, 0x87, 0x89, 0x68, 0x85, 0x79, 0x84, 
0x88, 0x76, 0x56, 0x96, 0x89, 0x78, 0x59, 0x99, 0x97, 0x86, 0x69, 0x87, 0x74, 0x67, 0x46, 0x79, 0x6c, 0x76, 0x67, 0xe7, 
0x73, 0x77, 0x67, 0x69, 0x98, 0x78, 0x67, 0x57, 0x79, 0x65, 0x77, 0x98, 0x58, 0x97, 0x88, 0x88, 0x68, 0x77, 0x87, 0x87, 
0x76, 0x8a, 0xa7, 0x46, 0x88, 0x96, 0x85, 0x67, 0xba, 0x77, 0x86, 0x8b, 0x99, 0x88, 0x76, 0x78, 0x78, 0x68, 0x87, 0xa8, 
0x87, 0x76, 0x97, 0x99, 0x88, 0x85, 0x66, 0x86, 0x69, 0x77, 0x6b, 0x58, 0x85, 0x76, 0x88, 0xc7, 0x98, 0x38, 0x68, 0x96, 
0xb4, 0x76, 0x5a, 0x32, 0x9a, 0xc5, 0x78, 0x86, 0x58, 0x96, 0x67, 0xa7, 0x46, 0x85, 0x89, 0x84, 0x87, 0x76, 0x79, 0x99, 
0x76, 0x78, 0x69, 0x76, 0x78, 0x65, 0x66, 0x78, 0x8a, 0x87, 0x78, 0x77, 0x87, 0x98, 0x79, 0x97, 0x88, 0x78, 0x68, 0x87, 
0x97, 0x88, 0x78, 0x66, 0x69, 0x78, 0x97, 0x77, 0x96, 0x86, 0x77, 0x58, 0x6a, 0x85, 0x67, 0x86, 0x87, 0x77, 0x97, 0x79, 
0x77, 0x55, 0x7a, 0x98, 0x65, 0x69, 0x78, 0xb9, 0x74, 0x78, 0x89, 0x66, 0x65, 0x97, 0x8a, 0x45, 0x88, 0x68, 0x98, 0x99, 
0x88, 0x87, 0x66, 0x96, 0x66, 0x67, 0x67, 0x8a, 0x97, 0x6a, 0x87, 0xb8, 0x78, 0x9a, 0x5a, 0x96, 0x87, 0x98, 0x79, 0x77, 
0x76, 0x85, 0x68, 0x58, 0xa7, 0x79, 0x77, 0x87, 0x98, 0x78, 0x46, 0x97, 0x77, 0x79, 0x79, 0x98, 0x98, 0x98, 0x69, 0x68, 
0x65, 0x65, 0xa7, 0x58, 0x83, 0x75, 0x69, 0x88, 0x7a, 0x66, 0x69, 0x68, 0x87, 0x58, 0x57, 0x66, 0x86, 0x88, 0x97, 0x85, 
0xb8, 0x89, 0x58, 0x65, 0x77, 0x56, 0x77, 0x89, 0x95, 0x98, 0x66, 0x96, 0x97, 0x77, 0x76, 0x56, 0x8a, 0x88, 0xb6, 0x57, 
0xa6, 0x77, 0x65, 0x74, 0x75, 0x95, 0x96, 0x69, 0x6a, 0x89, 0x77, 0x79, 0x69, 0x59, 0x98, 0xab, 0x97, 0x58, 0x87, 0xa7, 
0x76, 0x68, 0x68, 0x53, 0x86, 0x77, 0x88, 0x98, 0x84, 0xa7, 0x59, 0x88, 0x39, 0x89, 0x77, 0x5a, 0x8a, 0x48, 0x66, 0x57, 
0xa7, 0x7b, 0x76, 0x77, 0x89, 0x79, 0x69, 0x74, 0x88, 0x76, 0x86, 0x86, 0x8a, 0x95, 0x78, 0x79, 0x99, 0x58, 0x56, 0x67, 
0x97, 0x68, 0x78, 0x98, 0x88, 0x66, 0x6a, 0xe5, 0x74, 0x66, 0x66, 0x95, 0x94, 0x79, 0x58, 0x27, 0x47, 0x86, 0x55, 0x87, 
0x88, 0x87, 0x56, 0x67, 0x97, 0x86, 0x69, 0x86, 0x88, 0x87, 0x96, 0x29, 0x78, 0xa7, 0xb5, 0x69, 0xcc, 0xa7, 0x83, 0x89, 
0x76, 0x66, 0x95, 0x79, 0x99, 0x8a, 0x65, 0x77, 0xa7, 0x77, 0x99, 0x9b, 0x77, 0x88, 0x78, 0x77, 0x8b, 0x67, 0x57, 0x68, 
0xb8, 0x67, 0x96, 0xc7, 0x99, 0x79, 0x5b, 0xc5, 0x92, 0x55, 0x59, 0x43, 0x79, 0x88, 0x69, 0x56, 0x26, 0x85, 0x8a, 0xb5, 
0x46, 0x89, 0x5a, 0x84, 0x77, 0x68, 0x67, 0xb7, 0x75, 0x86, 0x9a, 0x85, 0x67, 0x89, 0x75, 0x68, 0x96, 0x88, 0x97, 0x88, 
0x45, 0x59, 0x54, 0x39, 0x97, 0x79, 0x65, 0x75, 0x65, 0x67, 0x77, 0x86, 0x88, 0x67, 0x55, 0x77, 0x66, 0x77, 0x77, 0x95, 
0x85, 0x67, 0x68, 0x78, 0x77, 0x76, 0x86, 0x69, 0x75, 0x78, 0x54, 0x78, 0x98, 0x66, 0x98, 0x75, 0x9b, 0x77, 0x67, 0x78, 
0x77, 0x98, 0x77, 0x89, 0x47, 0x69, 0x68, 0x84, 0x88, 0x69, 0x76, 0x88, 0x88, 0x86, 0x57, 0x65, 0x76, 0x77, 0x68, 0x67, 
0x65, 0x55, 0x86, 0x56, 0x59, 0x77, 0x68, 0xa5, 0x56, 0x67, 0x79, 0x77, 0x55, 0x88, 0x89, 0x47, 0x66, 0x68, 0xa7, 0x56, 
0x66, 0x87, 0x78, 0x49, 0x57, 0x68, 0x85, 0x86, 0x66, 0x78, 0x49, 0x98, 0x6b, 0x97, 0x96, 0x79, 0xa6, 0x87, 0x58, 0x66, 
0xa6, 0x99, 0x76, 0x69, 0x69, 0x77, 0x87, 0x37, 0x48, 0x78, 0xa7, 0x8a, 0x87, 0x76, 0x98, 0xa5, 0x58, 0x76, 0x77, 0x77, 
0x78, 0x88, 0x57, 0xa6, 0x85, 0x67, 0x7a, 0xa8, 0x67, 0x76, 0x9a, 0x98, 0x68, 0x58, 0x76, 0x86, 0x97, 0x68, 0x57, 0x75, 
0x97, 0x87, 0x66, 0x54, 0x78, 0x67, 0x88, 0x68, 0x96, 0x96, 0x85, 0xb8, 0x56, 0x96, 0x78, 0x67, 0x6a, 0x66, 0xc7, 0x67, 
0xc6, 0x77, 0x76, 0xa5, 0x74, 0x96, 0x77, 0x69, 0x67, 0x94, 0x85, 0x78, 0x77, 0x67, 0xb9, 0xaa, 0x75, 0x88, 0x77, 0x75, 
0x86, 0x87, 0x76, 0x85, 0x55, 0x98, 0x98, 0x98, 0x7a, 0x77, 0x8a, 0x59, 0x76, 0x96, 0x96, 0x39, 0x9c, 0x67, 0xa9, 0x56, 
0x7a, 0x96, 0x97, 0xc8, 0xc8, 0x77, 0xa8, 0x78, 0x88, 0x67, 0x88, 0x77, 0x88, 0x77, 0x58, 0x69, 0x75, 0x65, 0x88, 0x98, 
0x65, 0x45, 0x3b, 0x96, 0x22, 0x85, 0x6a, 0x74, 0x65, 0x97, 0x47, 0x67, 0x36, 0x65, 0x7a, 0x65, 0x58, 0x77, 0x59, 0x57, 
0x78, 0x88, 0x67, 0x57, 0x85, 0x77, 0x65, 0x77, 0x59, 0x78, 0x68, 0x59, 0x67, 0x75, 0x83, 0x58, 0x4a, 0x77, 0x96, 0xba, 
0x54, 0x66, 0x86, 0x96, 0xca, 0x97, 0x75, 0x5b, 0xa9, 0x66, 0x86, 0x5c, 0x78, 0x78, 0x66, 0x46, 0x6a, 0x85, 0x77, 0x77, 
0x76, 0x87, 0x66, 0x46, 0x95, 0x76, 0x58, 0x87, 0x57, 0x77, 0x86, 0x55, 0xa8, 0x68, 0x76, 0x76, 0x74, 0x75, 0x67, 0x99, 
0x68, 0x58, 0x68, 0x85, 0x87, 0x67, 0x66, 0xa8, 0x66, 0x85, 0x76, 0x7a, 0x86, 0x69, 0x67, 0x79, 0x96, 0x67, 0x84, 0x86, 
0x89, 0x76, 0x67, 0x74, 0x98, 0x59, 0x66, 0x57, 0x99, 0x97, 0x87, 0xa7, 0x78, 0x77, 0x68, 0x86, 0x66, 0x78, 0x86, 0x97, 
0x88, 0x87, 0x88, 0x66, 0x68, 0x77, 0x57, 0x57, 0x94, 0x85, 0xa6, 0x86, 0x57, 0x88, 0x67, 0x96, 0x76, 0x76, 0x98, 0x68, 
0x76, 0x76, 0x97, 0x57, 0x67, 0x78, 0x87, 0x76, 0x76, 0x88, 0x86, 0x35, 0x77, 0x88, 0x76, 0x66, 0x87, 0x8a, 0x66, 0x77, 
0x8b, 0x77, 0x98, 0x67, 0x96, 0x76, 0x87, 0x89, 0x86, 0x86, 0x76, 0x78, 0x58, 0x68, 0x96, 0x39, 0x47, 0x56, 0x86, 0x97, 
0x79, 0x98, 0x88, 0x98, 0x57, 0x75, 0x85, 0x66, 0x67, 0x79, 0x85, 0xd8, 0x75, 0x78, 0x69, 0xa7, 0x4a, 0x66, 0x68, 0x9a, 
0x8b, 0x57, 0x58, 0x66, 0x96, 0x96, 0x76, 0x96, 0xb7, 0x98, 0x77, 0x65, 0x86, 0x79, 0x65, 0x56, 0x98, 0x98, 0x75, 0xba, 
0x67, 0x65, 0x57, 0x59, 0x6a, 0x45, 0xa5, 0x47, 0xb5, 0x89, 0xa7, 0x86, 0x95, 0x98, 0xa8, 0x77, 0x68, 0x76, 0x89, 0x67, 
0x88, 0x96, 0xa7, 0x99, 0x96, 0x67, 0x89, 0x88, 0x77, 0x87, 0x75, 0x66, 0x77, 0x86, 0x98, 0x76, 0x69, 0x87, 0x97, 0x87, 
0x65, 0x66, 0x95, 0x2b, 0x9c, 0x56, 0x99, 0x78, 0x78, 0x68, 0x88, 0xc8, 0xb9, 0x96, 0x9a, 0x89, 0x79, 0x68, 0x96, 0x87, 
0x89, 0x99, 0x67, 0x88, 0x88, 0x77, 0x55, 0xb9, 0x78, 0x65, 0x49, 0xb7, 0x23, 0x78, 0x88, 0x64, 0x68, 0x98, 0x59, 0x56, 
0x74, 0x85, 0x67, 0x77, 0x65, 0x67, 0x56, 0x68, 0x95, 0x97, 0x75, 0x77, 0x98, 0x56, 0x87, 0x89, 0x47, 0x87, 0x77, 0x57, 
0x77, 0xa6, 0x76, 0x59, 0x4b, 0x99, 0x85, 0xcb, 0x77, 0x59, 0x86, 0x68, 0xab, 0x87, 0x95, 0x58, 0xb7, 0x77, 0xa6, 0x7a, 
0x76, 0x75, 0x86, 0x48, 0x69, 0x96, 0x77, 0x66, 0x86, 0x7a, 0x76, 0x49, 0x95, 0x78, 0x77, 0x76, 0x78, 0x66, 0x67, 0x47, 
0xa6, 0x78, 0x87, 0x87, 0x65, 0x67, 0x78, 0x96, 0x67, 0x67, 0x69, 0x65, 0x88, 0x98, 0x58, 0x87, 0x85, 0x68, 0x78, 0x6a, 
0x97, 0x66, 0x88, 0x68, 0x77, 0x88, 0x67, 0x69, 0x88, 0x76, 0x86, 0x55, 0x78, 0x76, 0x77, 0x87, 0x88, 0x87, 0x74, 0x97, 
0x69, 0x78, 0x76, 0x77, 0x68, 0x87, 0x96, 0x66, 0x99, 0x78, 0x98, 0x95, 0x78, 0x77, 0x78, 0x57, 0x85, 0x86, 0xa7, 0x57, 
0x56, 0x98, 0x89, 0x76, 0x76, 0x77, 0x88, 0x97, 0x65, 0x98, 0x68, 0x57, 0x67, 0x87, 0xa8, 0x87, 0x67, 0x78, 0x87, 0x28, 
0x88, 0x67, 0x76, 0x96, 0x86, 0x97, 0x66, 0xa8, 0x6a, 0x88, 0xa5, 0x89, 0xa6, 0x89, 0x86, 0x67, 0x98, 0x78, 0x77, 0x67, 
0x48, 0x77, 0x75, 0x57, 0x58, 0x87, 0xa7, 0x79, 0x78, 0x85, 0x56, 0x76, 0x66, 0x65, 0x76, 0x77, 0x67, 0x97, 0x59, 0xa7, 
0x73, 0x76, 0x5a, 0xc8, 0x68, 0x79, 0x88, 0x9a, 0x8a, 0x46, 0x87, 0x56, 0x78, 0x99, 0x76, 0x76, 0x98, 0x77, 0x57, 0x95, 
0x66, 0x78, 0x85, 0x66, 0x87, 0x87, 0x57, 0xaa, 0x58, 0x63, 0x59, 0x87, 0x8b, 0x67, 0xb7, 0x57, 0xc5, 0x88, 0x97, 0x75, 
0x97, 0x99, 0x98, 0x87, 0x47, 0x73, 0x87, 0x59, 0x67, 0x98, 0xa6, 0x9c, 0x76, 0x79, 0x66, 0x65, 0x96, 0x65, 0x57, 0x77, 
0x77, 0xa5, 0x98, 0x89, 0x69, 0x76, 0x99, 0x58, 0x54, 0x96, 0x67, 0x39, 0xba, 0x67, 0x97, 0x87, 0x89, 0x96, 0x99, 0xc8, 
0x99, 0x78, 0x78, 0x9a, 0x97, 0x86, 0x77, 0x96, 0x88, 0x98, 0x77, 0x69, 0x68, 0x74, 0x58, 0xb8, 0x55, 0x57, 0x4b, 0x96, 
0x45, 0x78, 0x89, 0x85, 0x88, 0x98, 0x6a, 0x97, 0x45, 0x95, 0x79, 0x56, 0x55, 0x78, 0x68, 0x76, 0x96, 0x87, 0x88, 0x47, 
0x85, 0x58, 0x84, 0x66, 0x48, 0x86, 0x56, 0x37, 0x54, 0x84, 0x94, 0x37, 0x5b, 0x85, 0x76, 0xcb, 0x65, 0x77, 0x85, 0x86, 
0xb9, 0x79, 0x64, 0x58, 0xb8, 0x77, 0x78, 0x6c, 0x75, 0x75, 0x56, 0x47, 0x8a, 0x68, 0x65, 0x68, 0x98, 0x77, 0x86, 0x98, 
0x85, 0x65, 0x65, 0x78, 0x69, 0x66, 0x88, 0x66, 0x67, 0x56, 0x68, 0x85, 0x86, 0x78, 0x75, 0x67, 0x86, 0x68, 0x56, 0x69, 
0x78, 0x66, 0x98, 0x67, 0x87, 0x86, 0x86, 0x76, 0x88, 0x98, 0x78, 0x86, 0x96, 0x68, 0x96, 0x88, 0x68, 0x65, 0x66, 0x86, 
0x75, 0x68, 0x67, 0x96, 0x98, 0x88, 0x68, 0x66, 0x67, 0x87, 0x66, 0x86, 0x78, 0x77, 0x96, 0x87, 0x75, 0x95, 0x77, 0x69, 
0x76, 0x67, 0x75, 0x76, 0x87, 0x69, 0x87, 0x66, 0x75, 0x69, 0x67, 0x85, 0x75, 0x66, 0x85, 0x79, 0x86, 0x78, 0x87, 0x86, 
0x78, 0x76, 0x66, 0x88, 0x96, 0x67, 0x66, 0x67, 0x86, 0x75, 0x68, 0x77, 0x67, 0x76, 0x65, 0x57, 0x66, 0x85, 0x66, 0x66, 
0x96, 0x86, 0x97, 0x58, 0x86, 0x57, 0x67, 0x85, 0x66, 0x68, 0x78, 0x79, 0x96, 0x87, 0x75, 0x68, 0x97, 0x78, 0x88, 0x76, 
0x56, 0x59, 0x66, 0x96, 0x99, 0x86, 0x67, 0x85, 0x66, 0x96, 0x76, 0x95, 0x67, 0x98, 0x96, 0x76, 0x87, 0x78, 0x85, 0x56, 
0x67, 0x67, 0x58, 0x87, 0x65, 0x76, 0x65, 0x87, 0x77, 0x86, 0x68, 0x96, 0x85, 0x56, 0x66, 0x68, 0x69, 0x79, 0x67, 0x76, 
0x66, 0x87, 0x65, 0x87, 0x68, 0x97, 0x57, 0x75, 0x75, 0x97, 0x67, 0x78, 0x57, 0x68, 0x86, 0x98, 0x68, 0x67, 0x88, 0x77, 
0x77, 0x86, 0x89, 0x97, 0x76, 0x67, 0x68, 0x66, 0x88, 0x86, 0x67, 0x77, 0x55, 0x88, 0x77, 0x87, 0x76, 0x86, 0x58, 0x76, 
0x66, 0x76, 0x77, 0x95, 0x68, 0x67, 0x67, 0x78, 0x68, 0x68, 0x89, 0x76, 0x55, 0x66, 0x89, 0x86, 0x58, 0x88, 0x77, 0x56, 
0x77, 0x66, 0x69, 0x57, 0x88, 0x78, 0x67, 0x87, 0x68, 0x69, 0x77, 0x66, 0x56, 0x78, 0x59, 0x75, 0x66, 0x79, 0x75, 0x77, 
0x68, 0x68, 0x98, 0x76, 0x87, 0x78, 0x88, 0x68, 0x68, 0x78, 0x87, 0x88, 0x78, 0x59, 0x77, 0x56, 0x76, 0x68, 0x77, 0x76, 
0x76, 0x96, 0x78, 0x77, 0x86, 0x88, 0x78, 0x87, 0x76, 0x69, 0x98, 0x67, 0x77, 0x86, 0x75, 0x89, 0x77, 0x86, 0x88, 0x76, 
0x65, 0x67, 0x97, 0x67, 0x77, 0x77, 0x77, 0x68, 0x78, 0x98, 0x67, 0x97, 0x67, 0x56, 0x57, 0x48, 0x78, 0x69, 0x87, 0x56, 
0x64, 0x76, 0x66, 0xa9, 0x86, 0x69, 0x97, 0x75, 0x77, 0x68, 0x88, 0x69, 0x75, 0x58, 0x55, 0x98, 0x87, 0x87, 0x67, 0x57, 
0x85, 0x76, 0x77, 0x69, 0x8a, 0x85, 0x87, 0x46, 0x88, 0x79, 0x86, 0x68, 0x89, 0x88, 0x64, 0xb6, 0x48, 0x68, 0x85, 0x85, 
0x96, 0x68, 0x88, 0x66, 0x88, 0x87, 0x65, 0x75, 0x98, 0x75, 0x66, 0x48, 0x97, 0x57, 0x95, 0x77, 0x67, 0x98, 0x56, 0xa4, 
0x75, 0x86, 0x89, 0x88, 0x68, 0x89, 0x68, 0x76, 0x58, 0x97, 0xa7, 0x65, 0x78, 0x86, 0x88, 0x48, 0x57, 0x66, 0x96, 0x88, 
0x87, 0x88, 0x88, 0xa8, 0x6b, 0x76, 0xa8, 0x79, 0x95, 0x96, 0x85, 0x78, 0x79, 0x87, 0x86, 0x67, 0x59, 0x86, 0x65, 0x69, 
0x28, 0x89, 0xa6, 0xa8, 0x65, 0x67, 0x97, 0xa8, 0x69, 0x87, 0x86, 0x56, 0x57, 0x77, 0x68, 0x98, 0x85, 0x96, 0x58, 0x85, 
0x5a, 0x76, 0x88, 0x97, 0x78, 0x56, 0x87, 0x79, 0x97, 0x66, 0x79, 0x87, 0xa6, 0x87, 0x55, 0x64, 0x89, 0x58, 0x67, 0x48, 
0x87, 0x96, 0x75, 0x88, 0x46, 0x85, 0x48, 0x59, 0x9b, 0x45, 0x97, 0x49, 0xc4, 0x96, 0x75, 0xa4, 0x96, 0xb7, 0x77, 0x66, 
0x59, 0x94, 0x66, 0x79, 0x86, 0x86, 0x88, 0x8b, 0x98, 0x85, 0x77, 0x87, 0x85, 0x97, 0x68, 0x77, 0x76, 0x96, 0x79, 0x86, 
0x89, 0x67, 0x78, 0x69, 0x65, 0x98, 0x77, 0x18, 0x89, 0x57, 0xa6, 0x86, 0x79, 0x95, 0x88, 0xb8, 0xa8, 0x88, 0x98, 0x99, 
0x68, 0x76, 0x78, 0x66, 0x69, 0x97, 0x66, 0x69, 0x86, 0x77, 0x66, 0xb6, 0x76, 0x55, 0x6b, 0x97, 0x34, 0x68, 0x79, 0x65, 
0x58, 0x88, 0x59, 0x67, 0x65, 0x76, 0x88, 0x46, 0x56, 0x86, 0x58, 0x76, 0x86, 0x67, 0x66, 0x66, 0x97, 0x58, 0x77, 0x98, 
0x59, 0x88, 0x86, 0x56, 0x65, 0xa4, 0x83, 0x49, 0x3c, 0x97, 0x94, 0x8e, 0x55, 0x49, 0x87, 0x66, 0xc9, 0x97, 0x87, 0x79, 
0xba, 0x68, 0xa5, 0x6b, 0x78, 0x88, 0x76, 0x65, 0x89, 0x96, 0x85, 0x78, 0x86, 0x59, 0x95, 0x58, 0x68, 0x76, 0x76, 0x85, 
0x47, 0x65, 0x65, 0x79, 0x98, 0x77, 0x75, 0x86, 0x58, 0x86, 0x66, 0x86, 0x67, 0x77, 0x56, 0x97, 0x97, 0x57, 0x98, 0x75, 
0x84, 0x86, 0x76, 0x6a, 0x96, 0x58, 0x77, 0x59, 0x77, 0xa8, 0x95, 0x68, 0x7a, 0x88, 0x94, 0x75, 0x78, 0x86, 0x67, 0x78, 
0x8a, 0x68, 0x85, 0x99, 0x68, 0x76, 0x57, 0x86, 0x76, 0x76, 0x88, 0x96, 0x69, 0x99, 0x67, 0x85, 0x78, 0x67, 0x87, 0x67, 
0x65, 0x74, 0x87, 0x78, 0x77, 0x98, 0x77, 0x85, 0x56, 0x68, 0x88, 0x87, 0x77, 0x77, 0x79, 0x57, 0x67, 0x86, 0x87, 0x76, 
0x76, 0x99, 0x76, 0x46, 0x78, 0x98, 0x88, 0x88, 0x85, 0x88, 0x66, 0x77, 0x9a, 0x69, 0x96, 0x79, 0xa7, 0x68, 0x87, 0x96, 
0x88, 0x86, 0x97, 0x66, 0x49, 0x87, 0x88, 0x77, 0x49, 0x68, 0x78, 0x87, 0x89, 0x58, 0x88, 0x96, 0x86, 0x78, 0x76, 0x78, 
0x59, 0x58, 0x98, 0xb7, 0x65, 0x68, 0x88, 0xa6, 0x47, 0x87, 0x8a, 0x88, 0x8a, 0x69, 0x76, 0x78, 0x66, 0x87, 0x89, 0x97, 
0x86, 0x97, 0x76, 0x94, 0x66, 0x65, 0x88, 0x59, 0x96, 0x86, 0x86, 0xab, 0x68, 0x74, 0x37, 0x58, 0x6a, 0x57, 0xb6, 0x48, 
0xd4, 0x96, 0x86, 0x96, 0x74, 0xa8, 0x88, 0x76, 0x59, 0x94, 0x75, 0x89, 0x79, 0x87, 0x88, 0x7b, 0x77, 0x99, 0x87, 0x76, 
0x98, 0x98, 0x66, 0x65, 0x89, 0x69, 0x96, 0x66, 0x88, 0x77, 0xaa, 0x88, 0x57, 0x88, 0x84, 0x08, 0x9c, 0x57, 0x75, 0x87, 
0x77, 0x77, 0x88, 0xc7, 0x98, 0x88, 0x97, 0x7a, 0x78, 0x78, 0x86, 0x78, 0x88, 0x95, 0x89, 0x88, 0x77, 0x76, 0x58, 0xd9, 
0x85, 0x47, 0x69, 0xb8, 0x26, 0x56, 0x7a, 0x65, 0x96, 0x78, 0x59, 0x77, 0x46, 0x75, 0x78, 0x47, 0x47, 0x78, 0x48, 0x56, 
0x88, 0x97, 0x77, 0x57, 0x86, 0x86, 0x66, 0x86, 0x47, 0x67, 0x86, 0x37, 0x85, 0x87, 0x76, 0x38, 0x49, 0x98, 0x94, 0xba, 
0x74, 0x48, 0x65, 0x69, 0x99, 0x69, 0x67, 0x49, 0xb9, 0x97, 0x95, 0x79, 0x87, 0x88, 0x89, 0x79, 0x8a, 0x67, 0x77, 0x89, 
0x87, 0x87, 0x77, 0x66, 0x66, 0x98, 0x76, 0x9a, 0x88, 0x76, 0x7a, 0x98, 0x57, 0x98, 0x98, 0x76, 0x99, 0x59, 0x87, 0x68, 
0x98, 0x69, 0x98, 0x97, 0x67, 0x65, 0x67, 0x97, 0x9a, 0x68, 0x67, 0x99, 0x67, 0x78, 0x58, 0x57, 0x6a, 0xa7, 0x97, 0x69, 
0x92, 0x88, 0x98, 0x98, 0x76, 0x75, 0x98, 0x88, 0x97, 0x78, 0x95, 0xaa, 0x96, 0x78, 0x6a, 0x77, 0x68, 0x55, 0x66, 0xa8, 
0x57, 0x96, 0x68, 0x87, 0x95, 0xa9, 0x77, 0xa6, 0x9b, 0x87, 0xbc, 0x8a, 0x9b, 0xb6, 0x89, 0xab, 0x98, 0x79, 0x87, 0x85, 
0x8a, 0x56, 0x66, 0x79, 0xaa, 0x57, 0xac, 0x88, 0x76, 0x66, 0x96, 0xb8, 0xa9, 0x85, 0x85, 0x9a, 0x98, 0xa8, 0x77, 0x27, 
0x98, 0x97, 0x67, 0x87, 0x58, 0xa7, 0x66, 0xa9, 0x88, 0x85, 0x98, 0x87, 0x88, 0x7a, 0xa8, 0x9a, 0x97, 0x66, 0x6a, 0x83, 
0x79, 0x78, 0x77, 0x97, 0x87, 0x77, 0x5a, 0xa7, 0x88, 0x9a, 0x78, 0x55, 0x68, 0x8a, 0x89, 0x99, 0xa7, 0x78, 0x87, 0x99, 
0x76, 0x87, 0x9a, 0x87, 0x98, 0x78, 0x98, 0x89, 0xaa, 0x77, 0xaa, 0xab, 0x67, 0x77, 0x69, 0x99, 0x87, 0x55, 0x67, 0x98, 
0xa6, 0x79, 0xb7, 0x97, 0x80, 0x8a, 0x99, 0xa8, 0x7a, 0x77, 0x7a, 0xab, 0x68, 0x56, 0xa8, 0x86, 0xb8, 0x85, 0x78, 0x7a, 
0x97, 0x98, 0x88, 0x65, 0x98, 0x86, 0x58, 0xb7, 0x87, 0x76, 0x98, 0x78, 0x88, 0x8a, 0x68, 0x48, 0x87, 0x68, 0x75, 0x7a, 
0x9a, 0x99, 0x67, 0xd7, 0x68, 0xb6, 0x8a, 0x86, 0xb9, 0x78, 0x77, 0x7a, 0x89, 0x86, 0x69, 0x76, 0x56, 0x59, 0x56, 0x78, 
0x89, 0x85, 0x88, 0x78, 0x66, 0x88, 0xb6, 0x57, 0x89, 0x88, 0xb7, 0x89, 0xaa, 0xb8, 0x89, 0xbb, 0x68, 0x86, 0xaa, 0x88, 
0xa9, 0x86, 0xa7, 0xa7, 0xab, 0x67, 0x8b, 0x9a, 0x76, 0x76, 0x86, 0x78, 0x8b, 0x86, 0x77, 0x98, 0x88, 0xa8, 0x99, 0x96, 
0x78, 0x98, 0x7a, 0xa5, 0x99, 0x66, 0x6a, 0x76, 0x9a, 0xa6, 0x87, 0x76, 0x89, 0x76, 0x6a, 0x94, 0x95, 0x78, 0x88, 0x76, 
0x85, 0x85, 0x97, 0xa6, 0x76, 0x76, 0x89, 0x78, 0x77, 0x55, 0x76, 0x87, 0x89, 0x66, 0x86, 0x68, 0x98, 0x85, 0x98, 0x86, 
0x87, 0x88, 0x87, 0x88, 0x89, 0x97, 0x98, 0x75, 0x68, 0x77, 0x88, 0x89, 0x87, 0x87, 0x88, 0x68, 0x8a, 0x99, 0x76, 0x65, 
0x88, 0x87, 0x99, 0xa8, 0x68, 0x78, 0x9a, 0x78, 0x76, 0x98, 0x8a, 0xaa, 0x65, 0xa7, 0x79, 0x95, 0x77, 0x78, 0x77, 0x57, 
0xa7, 0x78, 0x7a, 0x78, 0x85, 0x77, 0x77, 0x77, 0x65, 0x69, 0x67, 0x79, 0x67, 0x7a, 0x79, 0x89, 0x78, 0x87, 0x59, 0x77, 
0x66, 0x65, 0x86, 0x6a, 0x79, 0x58, 0x78, 0x97, 0x8a, 0x67, 0x68, 0x79, 0x88, 0x87, 0x66, 0x79, 0x68, 0x76, 0x87, 0xa6, 
0x97, 0x97, 0x68, 0x88, 0x78, 0x58, 0x98, 0x77, 0x94, 0x77, 0x77, 0x96, 0x7a, 0x88, 0x76, 0x87, 0x88, 0x56, 0x47, 0x78, 
0x85, 0x88, 0x98, 0x85, 0xa7, 0x86, 0x47, 0x57, 0x65, 0x66, 0x76, 0x57, 0x87, 0x97, 0x76, 0x79, 0xa8, 0x79, 0x86, 0x26, 
0x7a, 0x78, 0xb3, 0x59, 0x86, 0x78, 0x74, 0x56, 0x96, 0x76, 0xa7, 0x96, 0x77, 0x78, 0x95, 0x67, 0x57, 0x98, 0x86, 0x8a, 
0x88, 0x76, 0x89, 0x88, 0x58, 0x86, 0x89, 0x66, 0x86, 0x6a, 0xa7, 0x87, 0x97, 0xaa, 0x49, 0xa7, 0x2b, 0x87, 0x88, 0x49, 
0x5b, 0x57, 0x67, 0x66, 0x95, 0x7a, 0x99, 0xa5, 0x98, 0x77, 0x68, 0x85, 0x88, 0x86, 0x77, 0x89, 0x69, 0x76, 0x59, 0x97, 
0x77, 0x56, 0x58, 0x66, 0x76, 0x86, 0x55, 0x77, 0x99, 0x78, 0x6a, 0xd4, 0x74, 0x68, 0x76, 0x69, 0x85, 0x88, 0x67, 0x35, 
0x56, 0x79, 0x67, 0x55, 0x68, 0x86, 0x69, 0x76, 0x84, 0x96, 0x68, 0x68, 0x77, 0xa7, 0x67, 0x48, 0x98, 0xa9, 0xa3, 0x59, 
0xcc, 0xa9, 0x86, 0x7b, 0x9a, 0x56, 0xa5, 0x66, 0x8b, 0x8a, 0x97, 0x9a, 0xb7, 0x66, 0x76, 0x98, 0x77, 0x67, 0x56, 0x78, 
0x8a, 0x77, 0x79, 0x77, 0xa8, 0x97, 0x76, 0xb8, 0x7a, 0x68, 0x6a, 0xc8, 0xa4, 0x68, 0x5a, 0x42, 0x79, 0x97, 0x78, 0x86, 
0x56, 0x98, 0x6a, 0x86, 0x26, 0x66, 0x58, 0x84, 0x67, 0x78, 0x77, 0x97, 0x86, 0x66, 0x88, 0x77, 0x77, 0x69, 0x67, 0x76, 
0x86, 0x86, 0x57, 0x77, 0x76, 0x78, 0x74, 0x65, 0x75, 0x58, 0x76, 0x79, 0x77, 0x75, 0x85, 0x87, 0x65, 0x79, 0x67, 0x56, 
0x98, 0x75, 0x75, 0x67, 0x96, 0x86, 0x88, 0x78, 0x66, 0x78, 0x75, 0x47, 0x68, 0xa9, 0x56, 0x67, 0x8a, 0x95, 0x84, 0x64, 
0x6b, 0x87, 0x76, 0x67, 0x97, 0x7a, 0x77, 0x99, 0x58, 0x88, 0x48, 0x74, 0x88, 0x87, 0x86, 0x68, 0x7a, 0x77, 0x88, 0x88, 
0x89, 0x94, 0x78, 0x68, 0x74, 0x86, 0x76, 0x78, 0x68, 0x98, 0x88, 0x75, 0x85, 0x78, 0x87, 0x67, 0x57, 0x98, 0x77, 0x56, 
0x89, 0x67, 0xa8, 0x77, 0x66, 0x66, 0x67, 0x26, 0x75, 0x68, 0x75, 0x66, 0x76, 0xaa, 0x58, 0x75, 0x5a, 0x79, 0x77, 0x77, 
0x85, 0x76, 0x67, 0x66, 0x88, 0x89, 0x87, 0x87, 0x5a, 0x77, 0x97, 0x49, 0x27, 0x78, 0x97, 0x88, 0x78, 0x77, 0x57, 0x88, 
0x89, 0x88, 0x68, 0x78, 0x57, 0x69, 0x77, 0xb6, 0x84, 0x56, 0x7a, 0xc7, 0x59, 0x68, 0x6b, 0x6b, 0x69, 0x69, 0x56, 0x58, 
0x57, 0x96, 0x88, 0x67, 0x87, 0x69, 0x66, 0x75, 0x66, 0x97, 0x95, 0x68, 0x79, 0x96, 0x77, 0x9a, 0x36, 0x95, 0x56, 0x57, 
0x79, 0x67, 0xc5, 0x66, 0xd6, 0x78, 0x77, 0xb7, 0x86, 0x87, 0xa8, 0x88, 0x47, 0xa5, 0x78, 0x79, 0x58, 0x99, 0x85, 0x9c, 
0x68, 0x68, 0x66, 0x66, 0x86, 0x88, 0x97, 0x55, 0x75, 0x88, 0x98, 0x67, 0x69, 0x68, 0x8a, 0x58, 0x64, 0x99, 0x77, 0x0b, 
0x99, 0x69, 0x88, 0x86, 0x78, 0x65, 0xa8, 0xc9, 0xb9, 0x87, 0x87, 0x98, 0x87, 0x67, 0x85, 0x97, 0x89, 0x98, 0x86, 0x87, 
0x87, 0x77, 0x47, 0xd9, 0x77, 0x36, 0x59, 0x95, 0x24, 0x87, 0x9b, 0x55, 0x76, 0x99, 0x6a, 0x67, 0x37, 0x67, 0x59, 0x54, 
0x48, 0x76, 0x79, 0x45, 0x76, 0x55, 0x66, 0x78, 0x66, 0x86, 0x76, 0x87, 0x66, 0x76, 0x48, 0x38, 0x75, 0x97, 0x75, 0x58, 
0x5c, 0x77, 0x94, 0xce, 0x64, 0x36, 0x87, 0x88, 0xd9, 0x78, 0x67, 0x38, 0xba, 0x69, 0x98, 0x8c, 0x78, 0x89, 0x66, 0x66, 
0x8a, 0x66, 0x87, 0x68, 0x87, 0x78, 0x66, 0x78, 0x85, 0x76, 0x77, 0x96, 0x78, 0x88, 0x6a, 0x78, 0x57, 0x75, 0x99, 0x75, 
0x88, 0x58, 0x76, 0x78, 0xb7, 0x78, 0x59, 0x68, 0x77, 0x88, 0x98, 0x78, 0x88, 0x77, 0x59, 0x98, 0x67, 0x88, 0x66, 0x57, 
0x67, 0x97, 0x86, 0x66, 0x85, 0x78, 0x68, 0x69, 0x85, 0x67, 0x68, 0x57, 0x85, 0x76, 0x76, 0x69, 0x75, 0x78, 0x86, 0x56, 
0x55, 0x56, 0x87, 0x66, 0x69, 0x76, 0x67, 0x55, 0x67, 0x77, 0xa5, 0x87, 0x97, 0x56, 0x68, 0x96, 0x89, 0x88, 0x89, 0x79, 
0x78, 0x89, 0x68, 0x68, 0x86, 0x78, 0x67, 0x68, 0x98, 0x76, 0x67, 0x57, 0x77, 0x78, 0x69, 0x69, 0x86, 0x86, 0x87, 0x77, 
0x67, 0x78, 0x68, 0x58, 0x77, 0x58, 0x58, 0x79, 0x58, 0x78, 0x86, 0x76, 0x77, 0x65, 0x59, 0x78, 0x97, 0x59, 0x59, 0x88, 
0x75, 0x87, 0x38, 0x95, 0x77, 0x89, 0x68, 0x86, 0x79, 0x76, 0x66, 0x89, 0x97, 0x67, 0x66, 0x76, 0x66, 0x5b, 0x65, 0x85, 
0x96, 0x76, 0x78, 0x97, 0x77, 0x67, 0x79, 0x68, 0x67, 0x56, 0x65, 0x79, 0x87, 0x88, 0x97, 0x88, 0x68, 0x86, 0x78, 0x77, 
0x66, 0x75, 0x88, 0x48, 0x87, 0x68, 0xa8, 0x78, 0x81, 0xaa, 0x75, 0x87, 0x79, 0x79, 0x68, 0x79, 0x78, 0x77, 0x67, 0x66, 
0x65, 0x46, 0x76, 0x68, 0x99, 0x97, 0x69, 0x55, 0x89, 0x86, 0x88, 0x96, 0x67, 0x99, 0x68, 0x76, 0x76, 0x77, 0x58, 0x36, 
0x85, 0x87, 0x65, 0x47, 0x79, 0x86, 0x57, 0x88, 0x85, 0x67, 0x98, 0x96, 0x96, 0x46, 0x77, 0x78, 0x68, 0x67, 0x48, 0x73, 
0x57, 0x69, 0x88, 0x77, 0x67, 0x77, 0x56, 0x86, 0x88, 0x68, 0x88, 0x46, 0x87, 0x78, 0x96, 0x67, 0x7a, 0x78, 0x58, 0x78, 
0x77, 0x78, 0x96, 0x87, 0x88, 0x67, 0x77, 0x86, 0x87, 0x76, 0x68, 0x76, 0x66, 0x65, 0x87, 0x98, 0x87, 0x98, 0x97, 0x66, 
0xa6, 0x76, 0x96, 0x85, 0xa8, 0x88, 0x78, 0x96, 0x66, 0x65, 0x78, 0x87, 0x58, 0x76, 0x68, 0x87, 0x76, 0x77, 0x89, 0x67, 
0x65, 0x79, 0x89, 0x75, 0x77, 0x95, 0x67, 0x99, 0x86, 0x76, 0x8a, 0x86, 0x96, 0x65, 0x96, 0x87, 0x68, 0x66, 0x66, 0x95, 
0x89, 0x79, 0x9b, 0xa7, 0x59, 0x76, 0x69, 0x76, 0xa7, 0x87, 0x68, 0x66, 0x98, 0x88, 0x66, 0x69, 0x68, 0x87, 0x97, 0x87, 
0x98, 0x66, 0x67, 0x86, 0x85, 0x85, 0x88, 0x77, 0x68, 0x87, 0x89, 0x87, 0x75, 0x98, 0x88, 0xab, 0x94, 0x88, 0x88, 0x67, 
0x87, 0x68, 0x6a, 0x67, 0x85, 0x86, 0x8a, 0x98, 0x66, 0x88, 0x86, 0x66, 0x88, 0x85, 0x89, 0x88, 0x86, 0x7a, 0x88, 0x96, 
0x98, 0x89, 0x69, 0xa6, 0x88, 0x77, 0x87, 0x7a, 0x77, 0x78, 0x76, 0x78, 0x99, 0x89, 0x66, 0x97, 0x79, 0x75, 0x67, 0x68, 
0x79, 0x88, 0x77, 0xb7, 0x78, 0x87, 0x67, 0x69, 0x77, 0x75, 0x96, 0x56, 0x63, 0x87, 0x67, 0x85, 0x57, 0x77, 0x78, 0x86, 
0x68, 0x67, 0x68, 0x95, 0x85, 0x78, 0x98, 0x87, 0xa7, 0x76, 0x56, 0x66, 0x88, 0x67, 0x57, 0x67, 0x95, 0x76, 0x69, 0x97, 
0xa8, 0x86, 0x76, 0x37, 0x7b, 0x98, 0xa7, 0x47, 0x74, 0x66, 0x86, 0x77, 0x76, 0x95, 0xa7, 0x86, 0x78, 0x67, 0x77, 0x87, 
0x5a, 0x77, 0x88, 0x8b, 0x96, 0x66, 0x96, 0x99, 0x88, 0x67, 0x77, 0x44, 0x87, 0x58, 0x88, 0x88, 0x66, 0xa8, 0x3a, 0xa6, 
0x3a, 0x87, 0x7a, 0x49, 0x68, 0x55, 0x58, 0x76, 0xa5, 0x8a, 0x86, 0x85, 0xa6, 0x58, 0x39, 0x54, 0x86, 0x55, 0x86, 0x97, 
0x87, 0x86, 0x86, 0x9a, 0x78, 0x88, 0x87, 0x97, 0x95, 0x68, 0x67, 0xa6, 0x79, 0x78, 0x5b, 0xd4, 0x42, 0x87, 0x68, 0x67, 
0x65, 0x7a, 0x77, 0x37, 0x35, 0x78, 0x66, 0x67, 0x68, 0x76, 0x96, 0x55, 0x84, 0x79, 0x79, 0x87, 0x68, 0x77, 0x67, 0x29, 
0x7a, 0xa8, 0xa4, 0x67, 0x9c, 0x66, 0x85, 0x69, 0x8a, 0x85, 0x98, 0x77, 0x98, 0x88, 0x86, 0xb8, 0xa9, 0x58, 0x99, 0x99, 
0x65, 0x77, 0x99, 0xa7, 0x8a, 0x88, 0x69, 0x77, 0xa7, 0x97, 0x77, 0x97, 0x79, 0x79, 0x7a, 0xc5, 0x85, 0x76, 0x88, 0x43, 
0xaa, 0xa7, 0x86, 0x97, 0x35, 0x87, 0x68, 0x83, 0x58, 0x88, 0x57, 0x73, 0x89, 0x87, 0x96, 0x97, 0x83, 0x68, 0x8a, 0x87, 
0x76, 0x68, 0x87, 0x66, 0x85, 0x77, 0x76, 0x99, 0x97, 0x89, 0x78, 0x76, 0x78, 0x76, 0x97, 0x69, 0x78, 0x98, 0x79, 0x99, 
0x86, 0x86, 0x86, 0x69, 0x76, 0x68, 0x76, 0x69, 0x96, 0x58, 0x87, 0x88, 0x86, 0x77, 0x85, 0x89, 0x66, 0x56, 0x58, 0x79, 
0x68, 0x68, 0x56, 0x78, 0x76, 0x77, 0x56, 0x66, 0x69, 0x78, 0x97, 0x87, 0x76, 0x67, 0x77, 0x66, 0x77, 0x87, 0x77, 0x66, 
0x77, 0x86, 0x88, 0x75, 0x87, 0x66, 0x86, 0x67, 0x66, 0x67, 0x87, 0x78, 0x86, 0x79, 0x87, 0x86, 0x69, 0x57, 0x68, 0x76, 
0x87, 0x76, 0x67, 0x55, 0x77, 0x77, 0x66, 0x97, 0x66, 0x77, 0x67, 0x67, 0x77, 0x76, 0x76, 0x58, 0x76, 0x89, 0x66, 0x86, 
0x68, 0x76, 0x65, 0x66, 0x97, 0x68, 0x87, 0x69, 0x66, 0x78, 0x77, 0x69, 0x89, 0x96, 0x97, 0x78, 0x89, 0x96, 0x69, 0x99, 
0x66, 0x77, 0x67, 0x76, 0x87, 0x89, 0x78, 0x96, 0x56, 0x96, 0x67, 0x77, 0x98, 0x66, 0x67, 0x67, 0x77, 0x96, 0x66, 0x87, 
0x87, 0x68, 0x87, 0x87, 0x77, 0x98, 0x68, 0x87, 0x88, 0x88, 0x66, 0x58, 0x66, 0x88, 0x68, 0x88, 0x66, 0x78, 0x86, 0x57, 
0x96, 0x76, 0x78, 0x67, 0x77, 0x86, 0x87, 0x68, 0x67, 0x78, 0x86, 0x77, 0x56, 0x87, 0x98, 0x96, 0x77, 0x95, 0x87, 0x56, 
0x66, 0x76, 0x65, 0x86, 0x67, 0x96, 0x78, 0x58, 0x85, 0x57, 0x77, 0x85, 0x87, 0x75, 0x66, 0x66, 0x69, 0x75, 0x55, 0x88, 
0x78, 0x67, 0x87, 0x76, 0x66, 0x68, 0x69, 0x89, 0x89, 0x57, 0x67, 0x78, 0x58, 0x85, 0x97, 0x95, 0x66, 0x67, 0x58, 0x68, 
0x87, 0x68, 0x55, 0x76, 0x78, 0x88, 0x88, 0x75, 0x68, 0x77, 0x77, 0x77, 0x66, 0x67, 0x76, 0x86, 0x67, 0x69, 0x78, 0x56, 
0x85, 0x85, 0x87, 0x75, 0x77, 0x66, 0x98, 0x89, 0x85, 0x66, 0x96, 0x66, 0x76, 0x67, 0x87, 0x78, 0x55, 0x58, 0x55, 0x68, 
0x68, 0x85, 0x57, 0x68, 0x77, 0x67, 0x79, 0x76, 0x67, 0x76, 0x78, 0x66, 0x76, 0x89, 0x67, 0x88, 0x67, 0x66, 0x86, 0x98, 
0x77, 0x85, 0x68, 0x96, 0x88, 0x66, 0x88, 0x56, 0x65, 0x66, 0x87, 0x88, 0x88, 0x98, 0x86, 0x96, 0xa8, 0x79, 0x99, 0xa6, 
0x5a, 0x67, 0x77, 0x76, 0x77, 0x69, 0xa8, 0x67, 0x68, 0x77, 0x99, 0x89, 0x86, 0x57, 0x69, 0x78, 0x69, 0x88, 0x67, 0x67, 
0x86, 0x69, 0x79, 0x77, 0x89, 0x96, 0x99, 0x87, 0x75, 0x87, 0x99, 0xaa, 0x86, 0x98, 0x86, 0x76, 0x66, 0x77, 0x97, 0x68, 
0xa6, 0x88, 0x99, 0x69, 0x98, 0x67, 0x56, 0x97, 0x87, 0x97, 0x68, 0x99, 0x67, 0x59, 0x77, 0xa6, 0x8a, 0x99, 0x57, 0x96, 
0x96, 0x68, 0x66, 0x59, 0x78, 0x56, 0x75, 0x66, 0x99, 0x89, 0x86, 0x98, 0xb9, 0x76, 0x57, 0x68, 0x98, 0x76, 0x66, 0xc7, 
0x68, 0x97, 0x98, 0x86, 0x88, 0x68, 0xa8, 0x77, 0x66, 0x86, 0x7a, 0x76, 0x57, 0x86, 0x97, 0x87, 0x77, 0x75, 0x58, 0x66, 
0x87, 0x97, 0x69, 0x97, 0xa5, 0x98, 0x56, 0x56, 0x78, 0x78, 0x97, 0x76, 0x96, 0x85, 0x78, 0x77, 0x88, 0x87, 0x98, 0x36, 
0x9b, 0x79, 0x94, 0x39, 0x87, 0x95, 0x85, 0x66, 0x95, 0x76, 0xa6, 0x67, 0x89, 0x99, 0x76, 0x67, 0x68, 0x79, 0x89, 0x6b, 
0x68, 0x67, 0x67, 0x96, 0x87, 0x58, 0x59, 0x63, 0xa6, 0x7b, 0x86, 0x99, 0x65, 0xaa, 0x39, 0x98, 0x28, 0x86, 0x59, 0x78, 
0x69, 0x66, 0x57, 0x88, 0x95, 0x6a, 0x98, 0x97, 0x86, 0x79, 0x47, 0x64, 0x97, 0x77, 0x88, 0x78, 0x86, 0x88, 0x7a, 0x9a, 
0x97, 0x67, 0x79, 0x75, 0x74, 0x89, 0x75, 0x87, 0x69, 0x88, 0x67, 0xd5, 0x83, 0x97, 0x55, 0x88, 0x75, 0x98, 0x48, 0x47, 
0x66, 0x68, 0x76, 0x66, 0x78, 0x68, 0x68, 0x86, 0x66, 0x76, 0x88, 0x65, 0x66, 0xa9, 0x99, 0x28, 0x7a, 0xb7, 0x85, 0x57, 
0xcc, 0x98, 0x85, 0x7a, 0x69, 0x87, 0xa4, 0x89, 0x9a, 0x89, 0x78, 0xa9, 0xc9, 0x77, 0x96, 0xa9, 0x57, 0x67, 0x68, 0x86, 
0x7a, 0x67, 0x67, 0x68, 0xb8, 0x99, 0x87, 0x97, 0x89, 0x78, 0x8b, 0xa7, 0xa2, 0x78, 0x7a, 0x42, 0x89, 0x96, 0x69, 0x76, 
0x55, 0x87, 0x8a, 0xa6, 0x56, 0x56, 0x5a, 0x85, 0x87, 0x67, 0x87, 0xa8, 0x87, 0x78, 0x6a, 0x76, 0x67, 0x67, 0x55, 0x76, 
0x88, 0x67, 0x56, 0x65, 0x88, 0x67, 0x78, 0x65, 0x86, 0x68, 0x87, 0x58, 0x87, 0x86, 0x79, 0x96, 0x78, 0x76, 0x77, 0x87, 
0x56, 0x66, 0x87, 0x68, 0x59, 0x77, 0x86, 0x78, 0x86, 0x77, 0x99, 0x55, 0x78, 0x87, 0x88, 0x67, 0x59, 0x56, 0x66, 0x77, 
0x95, 0x88, 0x66, 0x96, 0x86, 0x77, 0x65, 0x77, 0x68, 0x75, 0x85, 0x98, 0x86, 0x67, 0x88, 0x67, 0x87, 0x78, 0x57, 0x66, 
0x58, 0x75, 0x77, 0x67, 0x95, 0x86, 0x56, 0x86, 0x78, 0x66, 0x78, 0x77, 0x77, 0x67, 0x87, 0x57, 0x76, 0x67, 0x87, 0x76, 
0x68, 0x88, 0x58, 0x87, 0x66, 0x86, 0x66, 0x97, 0x68, 0x58, 0x75, 0x88, 0x58, 0x77, 0x88, 0x55, 0x55, 0x57, 0x68, 0x78, 
0x87, 0x76, 0x57, 0x57, 0x85, 0x89, 0x78, 0x87, 0x69, 0x67, 0x86, 0x78, 0x78, 0x77, 0x95, 0x75, 0x77, 0x96, 0x86, 0x89, 
0x89, 0x67, 0x98, 0x66, 0x67, 0x67, 0x75, 0x76, 0x98, 0x87, 0x77, 0x76, 0x76, 0x77, 0x66, 0x66, 0x69, 0x56, 0x67, 0x68, 
0x86, 0x66, 0x86, 0x87, 0x78, 0x67, 0x66, 0x87, 0x69, 0x58, 0x68, 0x87, 0x88, 0x69, 0x76, 0x77, 0x76, 0x67, 0x86, 0x67, 
0x78, 0x88, 0x68, 0x88, 0x76, 0x55, 0x66, 0x88, 0x57, 0x75, 0x67, 0x67, 0x79, 0x66, 0x88, 0x58, 0x85, 0x97, 0x86, 0x65, 
0x86, 0x57, 0x69, 0x88, 0x68, 0x66, 0x88, 0x77, 0x88, 0x68, 0x57, 0x98, 0x66, 0x77, 0x56, 0x78, 0x67, 0x58, 0x77, 0x66, 
0x66, 0x75, 0x68, 0x87, 0x66, 0x87, 0x87, 0x86, 0x86, 0x86, 0x87, 0x57, 0x87, 0x68, 0x78, 0x87, 0x76, 0x97, 0x56, 0x87, 
0x77, 0x56, 0x68, 0x89, 0x78, 0x78, 0x67, 0x58, 0x86, 0x58, 0x85, 0x85, 0x95, 0x88, 0x76, 0x68, 0x66, 0x97, 0x87, 0x68, 
0x86, 0x67, 0x67, 0x66, 0x75, 0x86, 0x76, 0x68, 0x87, 0x67, 0x66, 0x88, 0x85, 0x75, 0x76, 0x56, 0x66, 0x67, 0x57, 0x77, 
0x75, 0x75, 0x87, 0x68, 0x98, 0x69, 0x65, 0x86, 0x58, 0x56, 0x78, 0x67, 0x75, 0x67, 0x86, 0x95, 0x67, 0x89, 0x68, 0x68, 
0x75, 0x86, 0x87, 0x66, 0x58, 0x58, 0x86, 0x76, 0x8a, 0x88, 0x78, 0x87, 0x88, 0x87, 0x87, 0x87, 0x56, 0x69, 0x98, 0x66, 
0xa8, 0x77, 0x86, 0x67, 0x76, 0x86, 0x79, 0x9a, 0x86, 0x86, 0x86, 0x86, 0x6b, 0x69, 0x67, 0x75, 0x68, 0x86, 0x78, 0x98, 
0x68, 0x67, 0x79, 0x88, 0x55, 0x88, 0x88, 0x9b, 0x85, 0x98, 0x78, 0x68, 0x77, 0x95, 0x6a, 0x57, 0x86, 0x86, 0x98, 0x78, 
0x88, 0x68, 0x76, 0x98, 0x97, 0x77, 0x68, 0x89, 0x77, 0x88, 0x76, 0xb9, 0x8b, 0x98, 0x6a, 0x86, 0x79, 0x66, 0x67, 0x78, 
0x88, 0x78, 0x88, 0x77, 0x97, 0x77, 0x96, 0x66, 0x99, 0x86, 0x48, 0x87, 0x79, 0x86, 0x97, 0x98, 0x87, 0x88, 0x96, 0x87, 
0x95, 0x77, 0x77, 0x79, 0x95, 0x87, 0x89, 0x75, 0x69, 0x66, 0x77, 0x58, 0x78, 0x56, 0x4a, 0x78, 0x95, 0x67, 0x77, 0x97, 
0xc6, 0x79, 0x57, 0x57, 0x56, 0x69, 0x68, 0x69, 0x97, 0x86, 0x88, 0xa9, 0x95, 0x88, 0x89, 0x36, 0x8b, 0x97, 0xa5, 0x48, 
0x85, 0x88, 0x95, 0x86, 0x76, 0x76, 0x88, 0x79, 0x69, 0x69, 0x97, 0x57, 0x6a, 0x88, 0x99, 0x8c, 0x86, 0x68, 0x57, 0x97, 
0x88, 0x88, 0x7a, 0x33, 0x88, 0x78, 0x97, 0x87, 0x75, 0x9a, 0x3a, 0xa7, 0x38, 0x67, 0x79, 0x69, 0x79, 0x68, 0x57, 0x87, 
0x85, 0x7b, 0x69, 0x75, 0x78, 0x67, 0x47, 0x75, 0x75, 0x87, 0x96, 0x95, 0x89, 0x68, 0x89, 0xa9, 0x99, 0x59, 0x56, 0x88, 
0xa5, 0x59, 0x65, 0xa6, 0x9a, 0x78, 0x6a, 0xd5, 0x63, 0x88, 0x57, 0x78, 0x85, 0x77, 0x86, 0x56, 0x47, 0x77, 0x78, 0x87, 
0x67, 0x86, 0x85, 0x88, 0x76, 0x75, 0x99, 0x86, 0x98, 0x77, 0x87, 0x36, 0x97, 0xaa, 0xa6, 0x69, 0xad, 0x98, 0x83, 0x89, 
0x98, 0x56, 0x85, 0x78, 0x9a, 0x87, 0x96, 0xa9, 0x97, 0x58, 0x89, 0xaa, 0x56, 0x77, 0x67, 0xa8, 0x89, 0x77, 0x5a, 0x78, 
0x87, 0x89, 0x87, 0xb7, 0x7a, 0x69, 0x7b, 0x95, 0xa2, 0x86, 0x7b, 0x22, 0x9a, 0xb7, 0x68, 0x88, 0x46, 0x95, 0x7a, 0xa3, 
0x37, 0x78, 0x56, 0x94, 0x88, 0x66, 0x88, 0x96, 0x84, 0x99, 0x79, 0x77, 0x68, 0x67, 0x68, 0x69, 0x97, 0x67, 0x98, 0x76, 
0x58, 0x76, 0x75, 0x48, 0xa8, 0x67, 0x87, 0x66, 0x74, 0x75, 0x68, 0x77, 0x86, 0x78, 0x68, 0x76, 0x67, 0x79, 0x86, 0x78, 
0x77, 0x66, 0x67, 0x99, 0x77, 0x88, 0x58, 0x56, 0x86, 0x89, 0x56, 0x66, 0x89, 0x95, 0x94, 0x43, 0x88, 0x88, 0x87, 0x86, 
0x9a, 0x77, 0x87, 0x96, 0x77, 0x76, 0x65, 0x97, 0x86, 0x77, 0x68, 0x95, 0x67, 0x67, 0x66, 0x78, 0x75, 0x65, 0x77, 0x48, 
0x65, 0x87, 0x86, 0x76, 0x78, 0x97, 0x58, 0x77, 0x75, 0x75, 0x88, 0x77, 0x75, 0x89, 0x89, 0x49, 0x56, 0x57, 0x78, 0x77, 
0x68, 0x86, 0x65, 0x56, 0x68, 0x86, 0x56, 0x68, 0x69, 0x9a, 0x48, 0xa7, 0x7c, 0x88, 0x96, 0x77, 0xa5, 0x77, 0x57, 0x68, 
0xa6, 0x98, 0x75, 0x56, 0x47, 0x89, 0x95, 0x49, 0x47, 0x76, 0xa9, 0x88, 0x77, 0x87, 0x66, 0x96, 0x57, 0x79, 0x75, 0x66, 
0x77, 0x86, 0x76, 0xa6, 0x76, 0x75, 0x4b, 0xc7, 0x5a, 0x66, 0x89, 0x9b, 0x78, 0x66, 0x68, 0x66, 0x68, 0x76, 0x87, 0x65, 
0x86, 0x68, 0x77, 0x53, 0x87, 0x68, 0x78, 0x77, 0x97, 0x76, 0x66, 0xbb, 0x69, 0x76, 0x59, 0x59, 0x7c, 0x35, 0xa5, 0x66, 
0xd4, 0x98, 0x77, 0xa5, 0x94, 0x97, 0xa8, 0x78, 0x48, 0x85, 0x67, 0x67, 0x69, 0x67, 0x96, 0x7b, 0x77, 0x68, 0x87, 0x76, 
0x97, 0x76, 0x85, 0x66, 0x76, 0x97, 0x85, 0x68, 0x5a, 0x68, 0x9a, 0x68, 0x56, 0x78, 0x95, 0x29, 0x7a, 0x86, 0x88, 0x87, 
0x98, 0x98, 0x97, 0xb8, 0x98, 0x78, 0x99, 0x78, 0x87, 0x78, 0x86, 0x78, 0x88, 0x67, 0x75, 0x87, 0x66, 0x57, 0x68, 0xd6, 
0x77, 0x76, 0x68, 0xa6, 0x55, 0x88, 0x79, 0x86, 0x66, 0x96, 0x7a, 0x98, 0x65, 0x64, 0x88, 0x44, 0x35, 0x88, 0x78, 0x57, 
0x86, 0x67, 0x88, 0x78, 0x67, 0x86, 0x76, 0x96, 0x66, 0x67, 0x88, 0x47, 0x75, 0x85, 0x85, 0x49, 0x49, 0x77, 0x86, 0xbb, 
0x87, 0x46, 0x57, 0x96, 0xaa, 0x98, 0x65, 0x4b, 0xb9, 0x86, 0x98, 0x5a, 0x87, 0x86, 0x87, 0x47, 0x6b, 0x68, 0x67, 0x89, 
0x86, 0x68, 0x86, 0x66, 0x55, 0x89, 0x68, 0x76, 0x77, 0x67, 0x67, 0x78, 0x87, 0x67, 0x78, 0x87, 0x66, 0x86, 0x97, 0x86, 
0x76, 0x67, 0x66, 0x66, 0x86, 0x59, 0x86, 0x67, 0x86, 0x87, 0x68, 0x67, 0x69, 0x76, 0x68, 0x76, 0x75, 0x86, 0x56, 0x66, 
0x75, 0x78, 0x87, 0x67, 0x96, 0x86, 0x67, 0x68, 0x89, 0x57, 0x65, 0x79, 0x86, 0x68, 0x88, 0x97, 0x76, 0x67, 0x66, 0x57, 
0x79, 0x79, 0x57, 0x78, 0x78, 0x86, 0x67, 0x78, 0x69, 0x95, 0x66, 0x66, 0x78, 0x87, 0x76, 0x76, 0x88, 0x67, 0x88, 0x85, 
0x78, 0x65, 0x58, 0x68, 0x67, 0x77, 0x97, 0x56, 0x67, 0x77, 0x58, 0x68, 0x89, 0x67, 0x88, 0x65, 0x68, 0x67, 0x66, 0x87, 
0x89, 0x86, 0x65, 0x78, 0x75, 0x69, 0x58, 0x88, 0x88, 0x77, 0x57, 0x77, 0x96, 0x69, 0x68, 0x95, 0x56, 0x56, 0x66, 0x66, 
0x59, 0x86, 0x86, 0x87, 0x57, 0x66, 0x77, 0x86, 0x89, 0x68, 0x88, 0x88, 0x77, 0x86, 0x66, 0x66, 0x66, 0x57, 0x58, 0x69, 
0x67, 0x78, 0x86, 0x68, 0x88, 0x76, 0x97, 0x88, 0x96, 0x96, 0x67, 0x85, 0x79, 0x97, 0x67, 0x68, 0x78, 0x67, 0x65, 0x79, 
0x88, 0x75, 0x78, 0x86, 0x88, 0x66, 0x96, 0x59, 0x76, 0x76, 0x68, 0x65, 0x89, 0x76, 0x85, 0x68, 0x66, 0x67, 0x67, 0x68, 
0x69, 0x67, 0x97, 0x65, 0x89, 0x77, 0x66, 0x59, 0x86, 0x67, 0x77, 0x77, 0x66, 0x68, 0x66, 0x69, 0x56, 0x67, 0x87, 0x67, 
0x55, 0x99, 0x77, 0x56, 0x76, 0x76, 0x55, 0x68, 0x68, 0x88, 0x66, 0x88, 0x89, 0x88, 0x67, 0x77, 0x88, 0x76, 0x78, 0x76, 
0x65, 0x76, 0x96, 0x85, 0x86, 0x85, 0x77, 0x77, 0x86, 0x77, 0x86, 0x58, 0x68, 0x57, 0x87, 0x85, 0x68, 0x86, 0x77, 0x86, 
0x76, 0x66, 0x85, 0x78, 0x75, 0x78, 0x75, 0x67, 0x77, 0x88, 0x68, 0x76, 0x67, 0x57, 0x88, 0x77, 0x78, 0x66, 0x67, 0x68, 
0x77, 0x75, 0x96, 0x69, 0x87, 0x98, 0x69, 0x96, 0x55, 0x69, 0x98, 0x86, 0x86, 0x97, 0x88, 0x58, 0x68, 0x86, 0x96, 0x58, 
0x67, 0x88, 0x78, 0x68, 0x67, 0x56, 0x77, 0x57, 0x75, 0x78, 0x85, 0x67, 0x98, 0x76, 0x56, 0x77, 0x68, 0x69, 0x75, 0x68, 
0x68, 0x67, 0x76, 0x86, 0x76, 0x85, 0x85, 0x76, 0x76, 0x88, 0x67, 0x76, 0x87, 0x78, 0x68, 0x86, 0x66, 0x86, 0x66, 0x76, 
0x67, 0x89, 0x65, 0x97, 0x86, 0x66, 0x66, 0x86, 0x57, 0x76, 0x87, 0x86, 0x68, 0x77, 0x77, 0x76, 0x87, 0x57, 0x76, 0x86, 
0x76, 0x78, 0x78, 0x68, 0x66, 0x66, 0x88, 0x56, 0x77, 0x78, 0x76, 0x96, 0x95, 0x97, 0x77, 0x65, 0x69, 0x68, 0x66, 0x75, 
0x55, 0x79, 0x89, 0x68, 0x87, 0x75, 0x56, 0x88, 0x76, 0x67, 0x65, 0x56, 0x67, 0x86, 0x86, 0x75, 0x76, 0x77, 0x86, 0x78, 
0x86, 0x67, 0x66, 0x67, 0x88, 0x66, 0x68, 0x68, 0x75, 0x67, 0x68, 0x76, 0x98, 0x67, 0x77, 0x78, 0x88, 0x97, 0x58, 0x88, 
0x77, 0x77, 0x96, 0x97, 0x77, 0x56, 0x86, 0x56, 0x89, 0x67, 0x69, 0x86, 0x87, 0x67, 0x86, 0x76, 0x88, 0x96, 0x67, 0x85, 
0x56, 0x79, 0x88, 0x77, 0x66, 0x57, 0x87, 0x85, 0x75, 0x69, 0x57, 0x76, 0x56, 0x66, 0x65, 0x87, 0x55, 0x86, 0x87, 0x76, 
0x66, 0x59, 0x67, 0x87, 0x66, 0x76, 0x88, 0x97, 0x88, 0x78, 0x87, 0x87, 0x89, 0x68, 0x87, 0x95, 0x68, 0x98, 0x77, 0x57, 
0x86, 0x66, 0x68, 0x98, 0x88, 0x67, 0x55, 0x78, 0x75, 0x76, 0x86, 0x68, 0x85, 0x75, 0x78, 0x88, 0x88, 0x67, 0x78, 0x89, 
0x68, 0x69, 0x87, 0x68, 0x79, 0x78, 0x68, 0x68, 0x86, 0x66, 0x75, 0x86, 0x77, 0x87, 0x67, 0x78, 0x69, 0x75, 0x86, 0x78, 
0x67, 0x96, 0x86, 0x56, 0x87, 0x77, 0x77, 0x76, 0x85, 0x76, 0x75, 0x68, 0x66, 0x69, 0x76, 0x68, 0x67, 0x77, 0x85, 0x88, 
0x88, 0x56, 0x56, 0x86, 0x77, 0x67, 0x66, 0x56, 0x86, 0x65, 0x87, 0x68, 0x56, 0x86, 0x76, 0x98, 0x96, 0x88, 0x88, 0x76, 
0x86, 0x77, 0x86, 0x87, 0x59, 0x55, 0x66, 0x78, 0x58, 0x87, 0x67, 0x57, 0x85, 0x77, 0x87, 0x77, 0x87, 0x67, 0x88, 0x87, 
0x78, 0x77, 0x65, 0x97, 0x88, 0x87, 0x85, 0x87, 0x66, 0x66, 0x89, 0x85, 0x98, 0x56, 0x88, 0x75, 0x96, 0x98, 0x66, 0x79, 
0x77, 0x99, 0x67, 0x66, 0x76, 0x78, 0x65, 0x37, 0xa5, 0x76, 0x65, 0x88, 0x76, 0x87, 0x67, 0x68, 0x87, 0x89, 0x85, 0x78, 
0x95, 0x66, 0x88, 0x98, 0x77, 0x88, 0x78, 0x7a, 0x97, 0x77, 0x65, 0x67, 0x79, 0x89, 0x76, 0x65, 0x8a, 0x85, 0x85, 0x44, 
0x68, 0x78, 0x78, 0x77, 0x69, 0x96, 0x65, 0x87, 0x59, 0x79, 0x66, 0x85, 0x79, 0x78, 0x65, 0x87, 0x79, 0x88, 0x56, 0x87, 
0x78, 0xa6, 0x56, 0x69, 0x96, 0x64, 0xa5, 0x77, 0x58, 0x78, 0x57, 0x87, 0x86, 0x78, 0x86, 0x68, 0x68, 0x88, 0x68, 0x86, 
0x76, 0x77, 0x98, 0x65, 0x67, 0x65, 0x96, 0x27, 0x87, 0x95, 0x95, 0x76, 0x66, 0x89, 0x57, 0x79, 0x7a, 0x89, 0x95, 0x58, 
0xa8, 0x97, 0x67, 0x78, 0xa6, 0x77, 0xa5, 0x78, 0x48, 0x89, 0x67, 0x5a, 0x4a, 0x86, 0x97, 0x89, 0x86, 0x66, 0x78, 0xa9, 
0x68, 0x58, 0x88, 0x66, 0x68, 0x59, 0x77, 0xa6, 0x64, 0x68, 0x4b, 0xa5, 0x5a, 0x89, 0x88, 0x6a, 0x89, 0x78, 0x67, 0x96, 
0x85, 0x85, 0x69, 0x96, 0x87, 0x67, 0x66, 0x66, 0x86, 0x56, 0x77, 0x78, 0x88, 0x98, 0x76, 0x98, 0x66, 0x83, 0x47, 0x88, 
0x8b, 0x66, 0x96, 0x59, 0xa6, 0x86, 0x74, 0xa5, 0x96, 0x86, 0xa7, 0x75, 0x58, 0x73, 0x68, 0x68, 0x68, 0x87, 0xa6, 0x6c, 
0x98, 0x57, 0x76, 0x85, 0x77, 0x99, 0x66, 0x86, 0x88, 0x98, 0x87, 0x87, 0x78, 0x66, 0xaa, 0x87, 0x54, 0x97, 0x94, 0x0a, 
0xbc, 0x67, 0x98, 0x75, 0x78, 0x97, 0x77, 0xb7, 0x9a, 0x76, 0xba, 0x97, 0x88, 0x68, 0x88, 0x95, 0x5a, 0x98, 0x68, 0x87, 
0x76, 0x74, 0x67, 0xc6, 0x57, 0x65, 0x39, 0x88, 0x45, 0x57, 0x8b, 0x66, 0x65, 0x86, 0x5a, 0x66, 0x65, 0x64, 0x5a, 0x54, 
0x37, 0x88, 0x48, 0x45, 0x78, 0x79, 0x85, 0x68, 0x64, 0x85, 0x85, 0x76, 0x57, 0x76, 0x69, 0x57, 0x66, 0x97, 0x76, 0x59, 
0x5c, 0x97, 0x93, 0xbc, 0x64, 0x48, 0x88, 0x76, 0xa8, 0x76, 0x96, 0x7a, 0xa7, 0x77, 0x96, 0x8b, 0x88, 0x86, 0x77, 0x59, 
0x6b, 0x76, 0x77, 0x59, 0x65, 0x69, 0x66, 0x77, 0x97, 0x69, 0x68, 0x69, 0x45, 0x67, 0x57, 0x49, 0x87, 0x77, 0x84, 0x85, 
0x54, 0x75, 0x68, 0x78, 0x79, 0x78, 0x97, 0x66, 0x85, 0x75, 0x89, 0x87, 0x76, 0x86, 0x88, 0x9a, 0x95, 0x57, 0x77, 0x49, 
0x86, 0x76, 0x65, 0x58, 0x79, 0x87, 0x75, 0x63, 0x88, 0x79, 0x68, 0x77, 0x6a, 0x9a, 0x67, 0x88, 0x77, 0x76, 0x68, 0x74, 
0x75, 0x65, 0x76, 0x66, 0x99, 0x96, 0x65, 0x67, 0x88, 0x86, 0x77, 0x68, 0x64, 0x84, 0x74, 0x78, 0x89, 0x97, 0x87, 0x86, 
0x86, 0x87, 0x89, 0x77, 0x56, 0x86, 0x87, 0x78, 0x67, 0x68, 0x76, 0x86, 0x77, 0x68, 0x87, 0x66, 0x86, 0x77, 0x85, 0x87, 
0x86, 0x99, 0x56, 0x68, 0x69, 0x87, 0x96, 0x69, 0x87, 0x67, 0x75, 0x65, 0x97, 0x76, 0xa4, 0x57, 0x58, 0x68, 0x86, 0x59, 
0x56, 0x76, 0xa6, 0x88, 0x95, 0x87, 0x96, 0x86, 0x58, 0x87, 0x68, 0x68, 0x69, 0x69, 0x88, 0xb9, 0x56, 0x95, 0x79, 0x95, 
0x58, 0x98, 0x8b, 0x6a, 0x89, 0x66, 0x67, 0x88, 0x85, 0x78, 0x57, 0x68, 0x88, 0x68, 0x56, 0x65, 0x67, 0x76, 0x88, 0x47, 
0x87, 0xa7, 0x97, 0xaa, 0x47, 0x66, 0x78, 0x78, 0x6b, 0x46, 0xb7, 0x66, 0xb6, 0x79, 0x77, 0xa7, 0x94, 0xa5, 0x87, 0x78, 
0x77, 0x94, 0x98, 0x79, 0x76, 0x79, 0xb5, 0x7c, 0x88, 0x67, 0x65, 0x76, 0x86, 0x65, 0x66, 0x76, 0x56, 0x96, 0x97, 0x68, 
0x6b, 0x77, 0x99, 0x89, 0x84, 0x88, 0x94, 0x38, 0x8b, 0x68, 0x89, 0x78, 0x97, 0x66, 0x96, 0xa6, 0xca, 0x69, 0x89, 0x8a, 
0x97, 0x67, 0x85, 0x95, 0x69, 0x75, 0x57, 0x68, 0x66, 0x65, 0x87, 0xb7, 0x65, 0x58, 0x6b, 0xb8, 0x33, 0x85, 0x98, 0x65, 
0x65, 0x88, 0x57, 0x76, 0x74, 0x76, 0x87, 0x67, 0x55, 0x97, 0x66, 0x84, 0x69, 0x68, 0x86, 0x57, 0xa6, 0x98, 0x67, 0x76, 
0x48, 0x98, 0x56, 0x38, 0x67, 0xb4, 0x93, 0x67, 0x49, 0x87, 0x84, 0x9d, 0x67, 0x58, 0x77, 0x77, 0xca, 0x76, 0x77, 0x79, 
0xb7, 0x87, 0x98, 0x6c, 0x77, 0x66, 0x87, 0x48, 0x88, 0x85, 0x84, 0x87, 0x87, 0x86, 0x98, 0xa8, 0x89, 0x87, 0x76, 0x98, 
0x96, 0x99, 0x7a, 0x96, 0x79, 0x67, 0x97, 0x87, 0x89, 0x68, 0x98, 0x87, 0x76, 0x88, 0x98, 0x78, 0x77, 0x56, 0x68, 0x78, 
0x6a, 0x86, 0x87, 0x66, 0x77, 0x67, 0x85, 0x77, 0x68, 0x78, 0x8a, 0x77, 0x78, 0x78, 0x6a, 0x99, 0x87, 0x77, 0x87, 0x88, 
0x95, 0x77, 0x69, 0x77, 0x97, 0x76, 0x87, 0x69, 0x67, 0x86, 0x88, 0x97, 0x86, 0x96, 0x77, 0x97, 0x77, 0x69, 0x76, 0x96, 
0x5a, 0x69, 0x6a, 0x97, 0x96, 0x88, 0x77, 0x58, 0x99, 0x58, 0x66, 0x88, 0x9a, 0x89, 0x67, 0xa9, 0x97, 0x97, 0x48, 0x88, 
0x88, 0x96, 0x76, 0xa8, 0x97, 0x99, 0x88, 0x88, 0x88, 0x57, 0x86, 0x58, 0x75, 0x66, 0x78, 0x96, 0x49, 0x77, 0x78, 0x78, 
0x68, 0x45, 0x78, 0x68, 0x76, 0x88, 0x66, 0xa6, 0x97, 0x66, 0x66, 0x85, 0x78, 0x76, 0x58, 0x58, 0x75, 0x65, 0x59, 0x79, 
0xa8, 0x78, 0x87, 0x36, 0x78, 0x6a, 0x96, 0x48, 0x85, 0x86, 0x76, 0x75, 0x74, 0x95, 0xa7, 0x77, 0x8a, 0x77, 0x88, 0x67, 
0x59, 0x66, 0xa8, 0x89, 0x96, 0x87, 0x58, 0x85, 0x58, 0x86, 0x77, 0x36, 0xa8, 0x8b, 0x97, 0x99, 0x84, 0x79, 0x69, 0x88, 
0x39, 0x57, 0x88, 0x4a, 0x77, 0x58, 0x66, 0x67, 0x86, 0x89, 0x88, 0x77, 0x89, 0x59, 0x66, 0x64, 0x69, 0x59, 0x66, 0x77, 
0x89, 0x58, 0x58, 0x7a, 0x76, 0x68, 0x56, 0x67, 0x75, 0x68, 0x46, 0x86, 0x87, 0x66, 0x69, 0xe7, 0x63, 0x88, 0x65, 0x76, 
0x67, 0x77, 0x48, 0x35, 0x37, 0x88, 0x74, 0x66, 0x85, 0x89, 0x58, 0x76, 0x95, 0x98, 0x88, 0x65, 0x88, 0x9a, 0x89, 0x47, 
0x97, 0x89, 0x94, 0x5a, 0xcb, 0x96, 0x74, 0x7b, 0x87, 0x77, 0x85, 0x67, 0x88, 0x67, 0x75, 0x97, 0x8a, 0x67, 0x87, 0x78, 
0x68, 0x88, 0x96, 0x96, 0x58, 0x88, 0x89, 0x87, 0x98, 0x89, 0x96, 0xa9, 0x79, 0x79, 0x6b, 0xb6, 0x95, 0x78, 0x69, 0x22, 
0x78, 0xb7, 0x77, 0x79, 0x46, 0x66, 0x8a, 0xa3, 0x47, 0x67, 0x58, 0x94, 0x86, 0x56, 0x88, 0x86, 0x77, 0x99, 0x69, 0x97, 
0x87, 0x67, 0x66, 0xa7, 0x78, 0x68, 0x77, 0x76, 0x99, 0x87, 0x79, 0x99, 0x57, 0x68, 0x57, 0x76, 0xaa, 0x87, 0x96, 0x77, 
0x86, 0x69, 0x88, 0x69, 0x59, 0x77, 0x57, 0x57, 0x69, 0x86, 0x87, 0x64, 0x58, 0x96, 0x87, 0xa8, 0x68, 0x76, 0x77, 0xa8, 
0x57, 0x97, 0x99, 0x89, 0x87, 0x98, 0x79, 0x97, 0x95, 0x85, 0x6a, 0x56, 0xa6, 0x58, 0xa8, 0x59, 0x76, 0x68, 0x79, 0x88, 
0x95, 0x87, 0x6a, 0x67, 0x68, 0x8a, 0x87, 0xa7, 0x68, 0x79, 0x79, 0x87, 0x79, 0x96, 0x86, 0x57, 0x99, 0x56, 0x77, 0x68, 
0xa8, 0x76, 0x77, 0x87, 0x96, 0x57, 0x66, 0x77, 0x87, 0x86, 0x88, 0xc6, 0x88, 0x87, 0x67, 0x89, 0x77, 0x55, 0xa8, 0x58, 
0x83, 0x85, 0x58, 0x96, 0x69, 0x58, 0x88, 0x76, 0x77, 0x47, 0x57, 0x88, 0x86, 0x79, 0x67, 0x96, 0xb6, 0x67, 0x48, 0x74, 
0x87, 0x97, 0x97, 0x68, 0x86, 0x87, 0x68, 0x98, 0x96, 0x78, 0x79, 0x29, 0x89, 0x79, 0x74, 0x46, 0x76, 0x78, 0x67, 0x65, 
0x76, 0x88, 0x87, 0x66, 0x88, 0x88, 0x98, 0x79, 0x77, 0x98, 0xa9, 0x7a, 0x68, 0x88, 0x56, 0x96, 0x57, 0x87, 0x69, 0x56, 
0xa9, 0x69, 0xa7, 0x78, 0x84, 0xa8, 0x38, 0x86, 0x3b, 0x79, 0x78, 0x59, 0x8b, 0x57, 0x67, 0x75, 0xa5, 0x6b, 0x78, 0x76, 
0xa6, 0x78, 0x68, 0x86, 0x66, 0x57, 0x85, 0xa7, 0x77, 0x68, 0x88, 0x78, 0x78, 0x68, 0x87, 0x88, 0x64, 0x68, 0x87, 0x96, 
0x79, 0x86, 0x79, 0xb7, 0x45, 0x88, 0x75, 0x66, 0x66, 0x68, 0x59, 0x56, 0x44, 0x67, 0x66, 0x65, 0x75, 0x78, 0x85, 0x55, 
0x75, 0x97, 0x67, 0x67, 0x98, 0xaa, 0x96, 0x28, 0x99, 0x98, 0xa5, 0x37, 0xac, 0xa8, 0x63, 0x88, 0x97, 0x77, 0x96, 0x88, 
0x9b, 0x89, 0x68, 0x9a, 0xaa, 0x88, 0x88, 0x78, 0x86, 0x96, 0x67, 0x98, 0x99, 0xa6, 0x87, 0x88, 0x89, 0x67, 0xa7, 0xa8, 
0x6a, 0x68, 0x7c, 0xc7, 0x92, 0x87, 0x58, 0x42, 0xaa, 0xb8, 0x79, 0x66, 0x43, 0x97, 0x9b, 0x76, 0x46, 0x76, 0x69, 0x84, 
0x77, 0x68, 0x77, 0xa7, 0x66, 0x67, 0x77, 0x87, 0x85, 0x87, 0x58, 0x67, 0x58, 0x78, 0x76, 0x66, 0x87, 0x67, 0x87, 0x98, 
0x75, 0x85, 0x67, 0x85, 0x67, 0x76, 0x96, 0x86, 0x75, 0x77, 0x68, 0x56, 0x86, 0x65, 0x88, 0x86, 0x77, 0x67, 0x85, 0x76, 
0x77, 0x56, 0x68, 0x87, 0x87, 0x55, 0x58, 0x96, 0x58, 0x56, 0x66, 0x85, 0x74, 0x78, 0x86, 0x86, 0x88, 0x58, 0x79, 0x97, 
0x75, 0x85, 0x88, 0x59, 0x68, 0x87, 0x67, 0x77, 0x96, 0x88, 0x79, 0x76, 0x67, 0x65, 0x57, 0x67, 0x76, 0x94, 0x76, 0x74, 
0x65, 0x56, 0x77, 0x75, 0x46, 0x77, 0x48, 0x78, 0x77, 0x68, 0x85, 0x77, 0x55, 0x66, 0x97, 0x84, 0x68, 0x78, 0x78, 0x66, 
0x88, 0x78, 0x77, 0x86, 0x68, 0x56, 0x86, 0x76, 0x56, 0x75, 0x56, 0x58, 0x77, 0x46, 0x78, 0x58, 0x58, 0x46, 0x77, 0x76, 
0x77, 0x85, 0x88, 0x98, 0x99, 0x68, 0x68, 0x57, 0x68, 0x76, 0x67, 0x68, 0x76, 0x88, 0x58, 0x67, 0x57, 0x66, 0x77, 0x75, 
0x75, 0x65, 0x56, 0x68, 0x75, 0x55, 0x57, 0x67, 0x77, 0x76, 0x78, 0x98, 0x88, 0x78, 0x68, 0x78, 0x66, 0x58, 0x65, 0x87, 
0x67, 0x55, 0x87, 0x66, 0x86, 0x79, 0x67, 0x78, 0x35, 0x68, 0x58, 0x87, 0x66, 0x48, 0x86, 0x59, 0x85, 0x67, 0x78, 0x67, 
0x66, 0x78, 0x86, 0x86, 0x66, 0x78, 0x78, 0x66, 0x68, 0x58, 0x87, 0x88, 0x88, 0x66, 0x76, 0x57, 0x66, 0x86, 0x78, 0x78, 
0x88, 0x55, 0x85, 0x56, 0x77, 0x57, 0x46, 0x56, 0x45, 0x47, 0x77, 0x66, 0x46, 0x48, 0x36, 0x68, 0x45, 0x87, 0x75, 0x65, 
0x55, 0x76, 0x45, 0x94, 0x95, 0x58, 0x88, 0x88, 0x78, 0x85, 0x78, 0x86, 0x78, 0x86, 0x87, 0x79, 0x67, 0x68, 0x68, 0x56, 
0x62, 0x59, 0x78, 0x66, 0x78, 0x79, 0x75, 0x86, 0x77, 0x77, 0x74, 0x66, 0x66, 0x66, 0x88, 0x87, 0x68, 0x68, 0x65, 0x87, 
0x75, 0x66, 0x67, 0x56, 0x37, 0x65, 0x77, 0x77, 0x56, 0x68, 0x66, 0x88, 0x87, 0x77, 0x87, 0x68, 0x58, 0x66, 0x65, 0x85, 
0x76, 0x68, 0x88, 0x66, 0x67, 0x66, 0x89, 0x87, 0x78, 0x66, 0x56, 0x66, 0x69, 0x77, 0x78, 0x68, 0x68, 0x77, 0x57, 0x89, 
0x88, 0x76, 0x65, 0x75, 0x76, 0x86, 0xa9, 0xa7, 0x8a, 0x88, 0x97, 0x67, 0xa7, 0x87, 0x89, 0x77, 0x79, 0x87, 0x78, 0x68, 
0x65, 0x69, 0x88, 0x68, 0x7b, 0x76, 0x78, 0x75, 0x87, 0x77, 0x89, 0x76, 0x79, 0x87, 0x8b, 0x78, 0x56, 0x98, 0x88, 0x8b, 
0x67, 0x98, 0x79, 0x88, 0x75, 0x96, 0x7a, 0x36, 0xa6, 0x79, 0x8a, 0x98, 0x68, 0x86, 0x76, 0x78, 0x85, 0x75, 0x79, 0xaa, 
0x69, 0x6b, 0x77, 0x87, 0x9a, 0x99, 0x68, 0x99, 0x98, 0x68, 0x79, 0x87, 0x6a, 0x78, 0x76, 0x85, 0x79, 0x86, 0x86, 0x98, 
0x98, 0x67, 0x78, 0x87, 0x77, 0x75, 0x87, 0xa5, 0x77, 0x76, 0x5a, 0x89, 0x79, 0x57, 0xa6, 0x59, 0x76, 0x96, 0x87, 0x76, 
0x78, 0x58, 0x78, 0x89, 0x76, 0x77, 0x6a, 0x58, 0x87, 0x99, 0x8a, 0x85, 0xa7, 0x79, 0x48, 0x88, 0x89, 0x67, 0x66, 0x57, 
0x78, 0x76, 0x77, 0x87, 0x88, 0x96, 0x76, 0x29, 0x8a, 0x8a, 0x86, 0x3a, 0x85, 0x98, 0x74, 0x85, 0x76, 0xa6, 0x89, 0x86, 
0x9a, 0x58, 0x98, 0x58, 0x59, 0x89, 0xa8, 0x6a, 0x66, 0x66, 0x68, 0x96, 0x66, 0x86, 0x89, 0x65, 0xb8, 0x69, 0xa6, 0x86, 
0x76, 0xa7, 0x38, 0x88, 0x4a, 0x86, 0x68, 0x48, 0x68, 0x37, 0x76, 0x66, 0x96, 0x6a, 0x77, 0x77, 0x97, 0x66, 0x68, 0x55, 
0x98, 0x86, 0x76, 0xa8, 0x68, 0x68, 0x97, 0x98, 0x85, 0x49, 0x58, 0x98, 0x75, 0x69, 0x65, 0x67, 0x69, 0x67, 0x79, 0xe5, 
0x76, 0x96, 0x67, 0x95, 0x75, 0x69, 0x58, 0x38, 0x35, 0x79, 0x45, 0x75, 0x66, 0x75, 0x98, 0x76, 0x85, 0x98, 0x78, 0x86, 
0x77, 0x97, 0x76, 0x58, 0x69, 0x78, 0xa3, 0x38, 0xac, 0xa7, 0x83, 0x8a, 0x97, 0x85, 0xa6, 0x57, 0xb9, 0x69, 0x75, 0x9a, 
0x99, 0x86, 0x97, 0x98, 0x65, 0x66, 0x86, 0xa9, 0x7a, 0x85, 0x79, 0x66, 0xb8, 0x88, 0xa7, 0xa7, 0x7a, 0x79, 0x8a, 0xb6, 
0xc5, 0x77, 0x7b, 0x62, 0xaa, 0x87, 0x88, 0x96, 0x43, 0x97, 0x98, 0x84, 0x47, 0x66, 0x69, 0x95, 0x75, 0x67, 0x66, 0x86, 
0x84, 0x66, 0x68, 0x98, 0x86, 0x9a, 0x97, 0x47, 0x68, 0x77, 0x66, 0x77, 0x55, 0x66, 0x55, 0x67, 0x77, 0x97, 0x75, 0x77, 
0x65, 0x97, 0x65, 0x67, 0x67, 0x56, 0x76, 0x76, 0x86, 0x76, 0x87, 0x99, 0x75, 0x66, 0x77, 0x89, 0x98, 0x68, 0x76, 0x67, 
0x96, 0x77, 0x67, 0x67, 0x98, 0x68, 0x95, 0x66, 0x99, 0x87, 0x65, 0x78, 0x8a, 0x87, 0x66, 0x98, 0x67, 0x67, 0x76, 0x94, 
0x76, 0x56, 0x98, 0x78, 0x59, 0x65, 0x66, 0x67, 0x78, 0x94, 0x78, 0x67, 0x87, 0x65, 0x77, 0x69, 0x79, 0x96, 0x77, 0x97, 
0x78, 0x78, 0x98, 0x67, 0x55, 0x76, 0x68, 0x68, 0x57, 0x77, 0x78, 0x67, 0x88, 0x79, 0x68, 0x26, 0x88, 0x87, 0x86, 0x67, 
0x97, 0x98, 0x76, 0x78, 0x9c, 0x97, 0x98, 0x76, 0xb6, 0x97, 0x78, 0x96, 0x99, 0xa7, 0x86, 0x67, 0x78, 0x88, 0x88, 0x47, 
0x38, 0x69, 0xa6, 0x77, 0x88, 0x86, 0x68, 0x77, 0x78, 0x58, 0x68, 0x66, 0x76, 0x87, 0x66, 0xc7, 0x55, 0x67, 0x48, 0x96, 
0x78, 0x69, 0x7a, 0x9b, 0x6a, 0x57, 0x68, 0x97, 0x86, 0x87, 0x69, 0x76, 0x78, 0x86, 0x56, 0x56, 0x66, 0x88, 0x88, 0x48, 
0x77, 0x76, 0x65, 0xaa, 0x68, 0x86, 0x57, 0x66, 0x79, 0x46, 0x97, 0x49, 0xc4, 0x96, 0x86, 0x86, 0x97, 0xa9, 0x89, 0x68, 
0x57, 0x94, 0x88, 0x68, 0x57, 0x86, 0xb7, 0x8c, 0x67, 0x88, 0x97, 0x68, 0x97, 0x86, 0x75, 0x86, 0x67, 0x97, 0x97, 0x69, 
0x8a, 0x77, 0xaa, 0x67, 0x77, 0x95, 0x86, 0x3a, 0xac, 0x87, 0x88, 0x79, 0x8a, 0x75, 0x87, 0x98, 0xa8, 0x88, 0x99, 0x98, 
0x66, 0x87, 0x77, 0x98, 0x79, 0x95, 0x65, 0x79, 0x77, 0x74, 0x56, 0xa7, 0x84, 0x65, 0x7c, 0x95, 0x45, 0x55, 0x89, 0x55, 
0x67, 0x79, 0x47, 0x57, 0x44, 0x74, 0x78, 0x57, 0x56, 0x76, 0x76, 0x67, 0x68, 0x75, 0x67, 0x79, 0x76, 0x96, 0x85, 0x95, 
0x47, 0x86, 0x68, 0x56, 0x66, 0x84, 0x86, 0x49, 0x5a, 0x78, 0x86, 0xbb, 0x87, 0x45, 0x56, 0x68, 0xca, 0x78, 0x85, 0x48, 
0xa8, 0x89, 0x76, 0x5a, 0x96, 0x78, 0x55, 0x48, 0x88, 0x76, 0x65, 0x79, 0x86, 0x77, 0x65, 0x88, 0x86, 0x58, 0x65, 0x69, 
0x75, 0x65, 0x86, 0x69, 0x76, 0x66, 0x59, 0x66, 0x76, 0x65, 0x78, 0x57, 0x96, 0x78, 0x87, 0x86, 0x88, 0x88, 0x58, 0x87, 
0x58, 0x77, 0x87, 0x65, 0x89, 0x66, 0x76, 0x77, 0x66, 0x69, 0x66, 0x87, 0x77, 0x88, 0x86, 0x65, 0x66, 0x68, 0x88, 0x55, 
0x68, 0x75, 0x88, 0x87, 0x68, 0x55, 0x87, 0x75, 0x67, 0x87, 0x78, 0x75, 0x78, 0x87, 0x68, 0x66, 0x77, 0x88, 0x56, 0x65, 
0x88, 0x79, 0x78, 0x66, 0x66, 0x76, 0x57, 0x86, 0x86, 0x66, 0x67, 0x88, 0x88, 0x88, 0x65, 0x98, 0x85, 0x87, 0x58, 0x57, 
0x86, 0x69, 0x78, 0x68, 0x88, 0x67, 0x65, 0x57, 0x78, 0x56, 0x76, 0x87, 0x56, 0x88, 0x88, 0x76, 0x68, 0x57, 0x77, 0x86, 
0x87, 0x77, 0x58, 0x77, 0x78, 0x86, 0x66, 0x76, 0x66, 0x77, 0x65, 0x78, 0x87, 0x78, 0x78, 0x55, 0x86, 0x56, 0x55, 0x68, 
0x58, 0x67, 0x77, 0x66, 0x58, 0x68, 0x86, 0x75, 0x87, 0x77, 0x76, 0x78, 0x55, 0x88, 0x76, 0x76, 0x85, 0x86, 0x86, 0x88, 
0x86, 0x87, 0x68, 0x78, 0x68, 0x77, 0x96, 0x68, 0x88, 0x88, 0x88, 0x57, 0x67, 0x77, 0x76, 0x75, 0x78, 0x88, 0x57, 0x66, 
0x66, 0x57, 0x86, 0x98, 0x65, 0x86, 0x66, 0x89, 0x88, 0x76, 0x76, 0x87, 0x88, 0x88, 0x68, 0x86, 0x56, 0x76, 0x76, 0x87, 
0x85, 0x68, 0x86, 0x65, 0x89, 0x56, 0x66, 0x87, 0x75, 0x78, 0x55, 0x85, 0x77, 0x57, 0x65, 0x86, 0x87, 0x68, 0x67, 0x78, 
0x75, 0x66, 0x68, 0x86, 0x68, 0x86, 0x66, 0x76, 0x88, 0x68, 0x76, 0x78, 0x78, 0x69, 0x68, 0x58, 0x75, 0x67, 0x78, 0x67, 
0x88, 0x68, 0x78, 0x78, 0x57, 0x65, 0x86, 0x68, 0x55, 0x87, 0x87, 0x77, 0x77, 0x89, 0x76, 0x58, 0x76, 0x88, 0x76, 0x87, 
0x68, 0x86, 0x87, 0x86, 0x67, 0x86, 0x77, 0x56, 0x86, 0x86, 0x58, 0x58, 0x56, 0x78, 0x78, 0x76, 0x87, 0x85, 0x65, 0x77, 
0x76, 0x66, 0x89, 0x78, 0x68, 0x66, 0x98, 0x98, 0x88, 0x77, 0x85, 0x67, 0x68, 0x97, 0x86, 0x67, 0x78, 0x85, 0x87, 0x85, 
0x69, 0x88, 0x77, 0x68, 0x58, 0x58, 0x55, 0x79, 0x66, 0x69, 0x88, 0x88, 0x75, 0x85, 0x88, 0x87, 0x78, 0x78, 0x68, 0x68, 
0x76, 0x86, 0x98, 0x68, 0x88, 0x86, 0x89, 0x96, 0x58, 0x85, 0x56, 0x58, 0x88, 0x58, 0x79, 0x87, 0x57, 0x75, 0x77, 0x78, 
0x68, 0x66, 0x65, 0x69, 0x58, 0x69, 0x88, 0x97, 0x87, 0x66, 0x58, 0x57, 0x77, 0x66, 0x67, 0x66, 0x88, 0x86, 0x66, 0x68, 
0x77, 0x57, 0x87, 0x89, 0x77, 0x77, 0x88, 0x56, 0x76, 0x65, 0x77, 0x67, 0x87, 0x56, 0x68, 0x65, 0x65, 0x87, 0x77, 0x75, 
0x66, 0x58, 0x77, 0x66, 0x65, 0x88, 0x88, 0x67, 0x96, 0x76, 0x89, 0x56, 0x66, 0x88, 0x66, 0x65, 0x59, 0x65, 0x78, 0x66, 
0x67, 0x66, 0x66, 0x87, 0x86, 0x76, 0x78, 0x99, 0x67, 0x66, 0x76, 0x68, 0x88, 0x76, 0x88, 0x88, 0x98, 0x87, 0x77, 0x85, 
0x79, 0x96, 0x67, 0x58, 0x68, 0x58, 0x85, 0x76, 0x76, 0x77, 0x68, 0x87, 0x85, 0x98, 0x86, 0x96, 0x56, 0x58, 0x77, 0x67, 
0x68, 0x69, 0x75, 0x78, 0x78, 0x78, 0x65, 0x85, 0x57, 0x76, 0x87, 0x78, 0x67, 0x85, 0x76, 0x66, 0x87, 0x69, 0x85, 0x76, 
0x58, 0x87, 0x78, 0x86, 0x89, 0x76, 0x65, 0x76, 0x87, 0x79, 0x55, 0x85, 0x58, 0x86, 0x68, 0x88, 0x87, 0x56, 0x67, 0x67, 
0x77, 0x77, 0x66, 0x65, 0x65, 0x78, 0x68, 0x97, 0x86, 0x68, 0x86, 0x67, 0x68, 0x67, 0x79, 0x67, 0x78, 0x57, 0x95, 0x68, 
0x67, 0x58, 0x66, 0x77, 0x77, 0x68, 0x67, 0x65, 0x88, 0x75, 0x87, 0x85, 0x87, 0x88, 0x85, 0x78, 0x68, 0x77, 0x86, 0x86, 
0x55, 0x55, 0x88, 0x85, 0x87, 0x86, 0x57, 0x78, 0x75, 0x69, 0x66, 0x75, 0x75, 0x56, 0x56, 0x57, 0x79, 0x69, 0x65, 0x69, 
0x85, 0x78, 0x58, 0x85, 0x78, 0x68, 0x65, 0x76, 0x68, 0x87, 0x66, 0x76, 0x86, 0x76, 0x67, 0x65, 0x58, 0x87, 0x58, 0x86, 
0x79, 0x77, 0x76, 0x59, 0x97, 0x66, 0x68, 0x68, 0x87, 0x75, 0x77, 0x88, 0x77, 0x68, 0x56, 0x77, 0x79, 0x77, 0x77, 0x78, 
0x87, 0x88, 0x86, 0x65, 0x76, 0x88, 0x66, 0x67, 0x67, 0x85, 0x77, 0x97, 0x87, 0x87, 0x98, 0x66, 0x8a, 0x96, 0x99, 0xa6, 
0x5a, 0x87, 0x6a, 0x77, 0x87, 0x79, 0x79, 0x85, 0x69, 0x88, 0x97, 0x77, 0x69, 0x78, 0x68, 0x67, 0x7a, 0x97, 0x67, 0x97, 
0x79, 0x78, 0x96, 0xa6, 0x66, 0x79, 0x68, 0x96, 0x66, 0x89, 0x6a, 0x99, 0x74, 0x76, 0x79, 0x77, 0x67, 0x87, 0x68, 0x57, 
0xb6, 0x76, 0x98, 0x9a, 0x97, 0x77, 0x96, 0x98, 0x78, 0x86, 0x78, 0x77, 0x97, 0x88, 0xa9, 0xb6, 0x7a, 0x77, 0x87, 0x97, 
0x76, 0x78, 0x79, 0x89, 0x88, 0x89, 0x56, 0x66, 0x98, 0x97, 0x77, 0x79, 0xa9, 0x87, 0x55, 0x98, 0x68, 0x57, 0x67, 0xa5, 
0x7a, 0x87, 0x8a, 0x66, 0x96, 0x58, 0x76, 0x59, 0x65, 0x65, 0x5a, 0x86, 0x59, 0x75, 0x98, 0x57, 0x68, 0x85, 0x77, 0x68, 
0xa5, 0x67, 0x97, 0x98, 0xc6, 0x89, 0x47, 0x86, 0x86, 0x95, 0x68, 0x76, 0x96, 0x98, 0x87, 0x99, 0xb8, 0x99, 0x77, 0x57, 
0x7b, 0x77, 0x95, 0x37, 0x76, 0x68, 0x86, 0x64, 0x96, 0x75, 0x97, 0x98, 0x67, 0x87, 0x77, 0x76, 0x69, 0x76, 0xaa, 0x9a, 
0x97, 0x88, 0x79, 0xa8, 0x76, 0x57, 0x79, 0x35, 0x97, 0x7b, 0xb5, 0x78, 0x75, 0x89, 0x58, 0xb7, 0x29, 0x88, 0x67, 0x67, 
0x7a, 0x49, 0x69, 0x66, 0x97, 0x88, 0x79, 0xa5, 0xa6, 0x77, 0x56, 0x74, 0x68, 0x89, 0x75, 0xa7, 0x78, 0x88, 0x8a, 0x99, 
0x67, 0x58, 0x78, 0x97, 0xa6, 0x86, 0x75, 0x87, 0x78, 0x68, 0x59, 0xd7, 0x73, 0x98, 0x66, 0x79, 0x75, 0x87, 0x87, 0x66, 
0x67, 0x76, 0x75, 0x97, 0x76, 0x87, 0x87, 0x87, 0x86, 0x85, 0x87, 0x96, 0x68, 0x89, 0x75, 0x28, 0xa8, 0x89, 0xa5, 0x49, 
0xa9, 0x96, 0x83, 0x9a, 0x88, 0x66, 0x95, 0x78, 0x9b, 0x6a, 0x88, 0x98, 0xc7, 0x88, 0x99, 0x97, 0x88, 0x79, 0x78, 0x98, 
0x89, 0x85, 0x97, 0x78, 0xa7, 0x78, 0x99, 0xa9, 0x79, 0x4a, 0x5b, 0x96, 0xb3, 0x66, 0x7b, 0x43, 0x98, 0xb8, 0x87, 0x77, 
0x37, 0x96, 0x99, 0xa6, 0x46, 0x76, 0x89, 0x92, 0x97, 0x98, 0x67, 0xb6, 0x85, 0x98, 0x88, 0x97, 0x55, 0x77, 0x66, 0x78, 
0x76, 0x67, 0x66, 0x67, 0x76, 0x78, 0x57, 0x86, 0x77, 0x78, 0x77, 0x68, 0x99, 0x65, 0x98, 0x78, 0x55, 0x78, 0x86, 0x58, 
0x68, 0x78, 0x66, 0x58, 0x58, 0x86, 0x68, 0x77, 0x76, 0x88, 0x78, 0x78, 0x78, 0x66, 0x89, 0x57, 0x77, 0x87, 0x68, 0x66, 
0x67, 0x87, 0x75, 0x79, 0x85, 0x77, 0x78, 0x65, 0x56, 0x88, 0x77, 0x56, 0x77, 0x89, 0x56, 0x77, 0x66, 0x87, 0x67, 0x76, 
0x56, 0x66, 0x75, 0x79, 0x56, 0x68, 0x58, 0x55, 0x76, 0x75, 0x77, 0x65, 0x66, 0x79, 0x88, 0x65, 0x57, 0x76, 0x56, 0x96, 
0x67, 0x65, 0x58, 0x74, 0x59, 0x57, 0x66, 0x67, 0x67, 0x87, 0x67, 0x76, 0x57, 0x78, 0x87, 0x96, 0x76, 0x57, 0x87, 0x65, 
0x96, 0x88, 0x67, 0x58, 0x78, 0x68, 0x86, 0x56, 0x97, 0x66, 0x77, 0x65, 0x66, 0x89, 0x86, 0x88, 0x65, 0x57, 0x97, 0x56, 
0x86, 0x86, 0x57, 0x79, 0x66, 0x77, 0x87, 0x79, 0x75, 0x98, 0x85, 0x75, 0x59, 0x66, 0x77, 0x86, 0x78, 0x58, 0x87, 0x59, 
0x76, 0x87, 0x87, 0x58, 0x78, 0x86, 0x78, 0x76, 0x68, 0x66, 0x78, 0x77, 0x87, 0x66, 0x86, 0x65, 0x67, 0x68, 0x89, 0x56, 
0x97, 0x88, 0x86, 0x48, 0x65, 0x87, 0x76, 0x66, 0x67, 0x77, 0x88, 0x95, 0x66, 0x86, 0x66, 0x75, 0x56, 0x79, 0x76, 0x67, 
0x88, 0x77, 0x88, 0x76, 0x68, 0x67, 0x67, 0x55, 0x68, 0x67, 0x78, 0x77, 0x78, 0x68, 0x76, 0x77, 0x88, 0x66, 0x67, 0x78, 
0x66, 0x67, 0x78, 0x86, 0x56, 0x57, 0x77, 0x65, 0x87, 0x67, 0x88, 0x57, 0x76, 0x97, 0x96, 0x86, 0x85, 0x87, 0x77, 0x86, 
0x69, 0x67, 0x86, 0x67, 0x75, 0x77, 0x68, 0x56, 0x78, 0x79, 0x66, 0x87, 0x67, 0x58, 0x57, 0x86, 0x66, 0x77, 0x67, 0x85, 
0x76, 0x87, 0x65, 0x57, 0x78, 0x67, 0x68, 0x79, 0x66, 0x66, 0x68, 0x56, 0x45, 0x86, 0x76, 0x76, 0x69, 0x56, 0x75, 0x76, 
0x87, 0x58, 0x78, 0x87, 0x77, 0x68, 0x77, 0x88, 0x88, 0x55, 0x85, 0x76, 0x86, 0x88, 0x56, 0x87, 0x77, 0x66, 0x85, 0x49, 
0x66, 0x77, 0x87, 0x66, 0x76, 0x78, 0x88, 0x47, 0x77, 0x88, 0x87, 0x88, 0x77, 0x57, 0x77, 0x58, 0xa5, 0x79, 0x75, 0x66, 
0x77, 0x87, 0x78, 0xa7, 0x98, 0x76, 0x75, 0x87, 0x76, 0x58, 0x96, 0x89, 0x85, 0x87, 0x77, 0x69, 0x98, 0x98, 0x86, 0x79, 
0x77, 0x87, 0x64, 0x66, 0x97, 0x77, 0x77, 0x55, 0x79, 0x59, 0x87, 0x58, 0x7a, 0x88, 0x75, 0x87, 0x76, 0x68, 0x67, 0x65, 
0x66, 0x76, 0x85, 0x87, 0x98, 0x76, 0x77, 0x86, 0x96, 0x76, 0x87, 0x36, 0x97, 0x66, 0x85, 0x67, 0x78, 0x98, 0x79, 0x96, 
0x58, 0x89, 0x87, 0x75, 0x68, 0x98, 0x89, 0x57, 0x66, 0x86, 0xa7, 0x76, 0x88, 0x68, 0x87, 0x59, 0x98, 0x66, 0x87, 0x98, 
0x88, 0x97, 0x46, 0x78, 0x6b, 0x78, 0x97, 0x88, 0xb5, 0x75, 0x67, 0x75, 0x86, 0x77, 0x97, 0x76, 0x7a, 0x98, 0x88, 0x69, 
0x47, 0x69, 0x96, 0x9a, 0x76, 0x86, 0x89, 0xa6, 0x76, 0x78, 0x68, 0x68, 0x58, 0x86, 0x56, 0xd8, 0x75, 0x65, 0x6a, 0x95, 
0x68, 0x87, 0x89, 0x7b, 0x67, 0x89, 0x55, 0x68, 0x85, 0x88, 0x88, 0x88, 0xa8, 0x69, 0x78, 0x86, 0x78, 0x76, 0x56, 0x58, 
0x86, 0x87, 0x86, 0x98, 0x48, 0x76, 0x76, 0x76, 0x9a, 0x65, 0xa5, 0x67, 0xd5, 0x87, 0x76, 0x85, 0x95, 0x97, 0x78, 0x87, 
0x47, 0x75, 0x78, 0x79, 0x77, 0x68, 0x98, 0xac, 0x79, 0x67, 0x75, 0x85, 0x66, 0x78, 0x88, 0x55, 0x57, 0xa5, 0x86, 0x99, 
0x8a, 0x77, 0x78, 0x89, 0x66, 0x78, 0x97, 0x3a, 0x9b, 0x58, 0x89, 0x88, 0x8a, 0x97, 0x88, 0xc7, 0xa7, 0x59, 0x79, 0x89, 
0x66, 0x66, 0x76, 0x78, 0x68, 0x65, 0x86, 0x89, 0x86, 0x66, 0x68, 0xc7, 0x87, 0x55, 0x4a, 0xa8, 0x44, 0x66, 0x6a, 0x66, 
0x57, 0xa8, 0x78, 0x77, 0x64, 0x65, 0x6a, 0x75, 0x56, 0x89, 0x56, 0x55, 0x75, 0x77, 0x77, 0x77, 0x86, 0x77, 0x65, 0x98, 
0x36, 0x78, 0x79, 0x49, 0x75, 0xa4, 0x86, 0x4a, 0x49, 0x96, 0x74, 0x9b, 0x75, 0x56, 0x79, 0x77, 0xc8, 0x89, 0x77, 0x69, 
0xb7, 0x78, 0x86, 0x7b, 0x68, 0x98, 0x88, 0x56, 0x88, 0x87, 0x97, 0x86, 0x68, 0x67, 0x66, 0xa8, 0x87, 0x75, 0x79, 0x76, 
0x88, 0x87, 0x97, 0xb6, 0x79, 0x88, 0x67, 0x96, 0x99, 0x68, 0x68, 0x65, 0x96, 0x89, 0x86, 0x66, 0x76, 0x67, 0x86, 0x68, 
0x7b, 0x96, 0x79, 0x65, 0x56, 0x88, 0xa5, 0x86, 0x76, 0x96, 0x8a, 0x99, 0x76, 0x97, 0x8a, 0xa9, 0x64, 0x78, 0x98, 0x78, 
0x55, 0x75, 0x6a, 0x46, 0xa6, 0x58, 0x88, 0x78, 0x76, 0x97, 0x66, 0x86, 0x95, 0x85, 0x69, 0x89, 0x66, 0x7b, 0x87, 0xb8, 
0x99, 0x89, 0x79, 0x86, 0x97, 0x58, 0x86, 0x68, 0x8a, 0x55, 0x66, 0x79, 0x79, 0x66, 0x78, 0x86, 0x96, 0x86, 0x66, 0x98, 
0x77, 0x68, 0x65, 0xd6, 0x99, 0x88, 0x87, 0x89, 0x98, 0x56, 0x76, 0x86, 0x74, 0x76, 0x77, 0x77, 0x48, 0x66, 0x77, 0x56, 
0x66, 0x55, 0x5a, 0x97, 0x84, 0x67, 0x79, 0x78, 0xc8, 0x88, 0x57, 0x87, 0x77, 0x76, 0x57, 0x86, 0x78, 0x96, 0x77, 0x98, 
0x95, 0x97, 0x95, 0x37, 0x9a, 0x89, 0x87, 0x4a, 0x78, 0x86, 0x84, 0x74, 0x76, 0x96, 0x99, 0x78, 0x88, 0x69, 0x76, 0x79, 
0x49, 0x88, 0xa8, 0x9a, 0x78, 0x79, 0x69, 0xa5, 0x86, 0x67, 0x89, 0x65, 0x86, 0x7b, 0xa6, 0x86, 0x75, 0xb7, 0x37, 0xa6, 
0x59, 0x79, 0x87, 0x6a, 0x6b, 0x46, 0x48, 0x57, 0x77, 0x7a, 0x67, 0x76, 0x88, 0x59, 0x47, 0x73, 0x86, 0x88, 0x77, 0x77, 
0x89, 0x86, 0x98, 0x89, 0x89, 0x48, 0x65, 0x97, 0x94, 0x89, 0x68, 0x76, 0x7a, 0x88, 0x89, 0xc7, 0x86, 0x67, 0x46, 0x65, 
0x86, 0x6a, 0x69, 0x47, 0x74, 0x99, 0x66, 0x85, 0x88, 0x87, 0x67, 0x67, 0x76, 0x98, 0x66, 0x76, 0x88, 0x9b, 0x97, 0x48, 
0xa9, 0xaa, 0xa6, 0x68, 0xa9, 0x77, 0x63, 0x8a, 0x89, 0x58, 0x94, 0x69, 0x8a, 0x68, 0x74, 0xa8, 0x97, 0x76, 0x89, 0x88, 
0x87, 0x56, 0x86, 0x87, 0x89, 0x96, 0x77, 0x68, 0x76, 0x78, 0x77, 0xb6, 0x9b, 0x59, 0x8c, 0x95, 0xb3, 0x76, 0x7a, 0x53, 
0x98, 0x98, 0x6a, 0x88, 0x25, 0x97, 0x98, 0xc3, 0x46, 0x66, 0x69, 0xa5, 0x67, 0x69, 0x77, 0x86, 0x85, 0x78, 0x88, 0x68, 
0x85, 0x7a, 0x88, 0x68, 0x75, 0x69, 0x87, 0x99, 0x58, 0x56, 0x75, 0x59, 0x98, 0x56, 0x96, 0x75, 0x65, 0x77, 0x87, 0x89, 
0x96, 0x88, 0x67, 0x66, 0x76, 0x78, 0x67, 0x88, 0x74, 0x75, 0x67, 0x8a, 0x85, 0x86, 0x56, 0x66, 0x95, 0x77, 0x84, 0x67, 
0x78, 0x56, 0x67, 0x33, 0x6a, 0x58, 0x88, 0x78, 0x77, 0x78, 0x65, 0x89, 0x79, 0x68, 0x45, 0x66, 0x67, 0x89, 0x77, 0x66, 
0x88, 0x75, 0x67, 0x76, 0x77, 0x95, 0x67, 0x56, 0x97, 0x75, 0xa5, 0x76, 0x86, 0x69, 0x56, 0x86, 0x87, 0x77, 0x89, 0x78, 
0x65, 0x98, 0x67, 0x56, 0x77, 0x76, 0xa8, 0x95, 0x68, 0x76, 0x65, 0x37, 0x78, 0x88, 0x88, 0x78, 0x88, 0x98, 0x68, 0x76, 
0x79, 0x96, 0x77, 0x79, 0xa6, 0x96, 0x75, 0x97, 0xa8, 0x87, 0x96, 0x56, 0x4a, 0x76, 0x77, 0x69, 0x38, 0x76, 0x79, 0x88, 
0x86, 0x78, 0x69, 0x98, 0x76, 0x87, 0x85, 0x78, 0x46, 0x88, 0x68, 0xb5, 0x56, 0x84, 0x49, 0xb6, 0x4a, 0x66, 0x98, 0x8a, 
0x7b, 0x49, 0x55, 0x77, 0x66, 0x96, 0x67, 0x96, 0x98, 0x78, 0x58, 0x65, 0x66, 0x86, 0x87, 0x77, 0x87, 0x96, 0x84, 0xa8, 
0x46, 0x76, 0x59, 0x67, 0x8a, 0x57, 0x96, 0x66, 0xc5, 0x78, 0x77, 0x75, 0x84, 0x97, 0x87, 0x68, 0x49, 0x63, 0x96, 0x78, 
0x66, 0x68, 0xa8, 0x9b, 0x59, 0x77, 0x86, 0x77, 0x97, 0x88, 0x68, 0x66, 0x57, 0x86, 0x99, 0x88, 0x79, 0x67, 0xa9, 0x89, 
0x76, 0x98, 0xa4, 0x27, 0x9b, 0x56, 0x87, 0x97, 0x79, 0x87, 0x99, 0xa7, 0xba, 0x67, 0x87, 0x98, 0x97, 0x87, 0x87, 0xa6, 
0x78, 0x86, 0x97, 0x77, 0x66, 0x84, 0x89, 0xc6, 0x55, 0x66, 0x49, 0xb6, 0x26, 0x86, 0x7b, 0x84, 0x66, 0x98, 0x59, 0x76, 
0x36, 0x75, 0x6a, 0x47, 0x45, 0x68, 0x47, 0x74, 0x76, 0x78, 0x87, 0x67, 0x95, 0x95, 0x67, 0x88, 0x46, 0x66, 0x55, 0x57, 
0x86, 0x96, 0x84, 0x58, 0x5c, 0x77, 0x84, 0x9c, 0x86, 0x58, 0x78, 0x76, 0xcb, 0x78, 0x77, 0x68, 0xc8, 0x69, 0x76, 0x8a, 
0x97, 0x76, 0x77, 0x57, 0x5a, 0x68, 0x76, 0x87, 0x87, 0x55, 0x86, 0x76, 0x88, 0x56, 0x78, 0x86, 0x66, 0x68, 0x56, 0x86, 
0x78, 0x77, 0x86, 0x88, 0x66, 0x76, 0x87, 0x86, 0x69, 0x78, 0x86, 0x57, 0x78, 0x89, 0x86, 0x77, 0x57, 0x66, 0x78, 0x78, 
0x78, 0x58, 0x89, 0x87, 0x67, 0x66, 0x77, 0x78, 0x66, 0x78, 0x76, 0x78, 0x87, 0x77, 0x65, 0x96, 0x75, 0x66, 0x76, 0x87, 
0x76, 0x68, 0x66, 0x87, 0x58, 0x68, 0x88, 0x66, 0x58, 0x56, 0x98, 0x77, 0x76, 0x66, 0x77, 0x77, 0x57, 0x86, 0x76, 0x58, 
0x56, 0x69, 0x66, 0x56, 0x86, 0x69, 0x66, 0x78, 0x55, 0x76, 0x76, 0x76, 0x86, 0x95, 0x76, 0x88, 0x56, 0x85, 0x87, 0x68, 
0x87, 0x56, 0x85, 0x78, 0x79, 0x87, 0x67, 0x78, 0x85, 0x65, 0x58, 0x56, 0x87, 0x66, 0x56, 0x65, 0x86, 0x87, 0x75, 0x86, 
0x56, 0x57, 0x67, 0x78, 0x85, 0x87, 0x65, 0x78, 0x87, 0x97, 0x77, 0x58, 0x88, 0x75, 0x65, 0x56, 0x66, 0x57, 0x85, 0x75, 
0x77, 0x57, 0x67, 0x76, 0x67, 0x66, 0x88, 0x57, 0x66, 0x88, 0x86, 0x79, 0x75, 0x68, 0x86, 0x86, 0x77, 0x66, 0x86, 0x77, 
0x77, 0x99, 0x78, 0x57, 0x77, 0x88, 0x67, 0x75, 0x78, 0x67, 0x77, 0x85, 0x67, 0x79, 0x56, 0x87, 0x88, 0x57, 0x87, 0x78, 
0x65, 0x55, 0x56, 0x65, 0x86, 0x88, 0x65, 0x86, 0x78, 0x87, 0x78, 0x57, 0x56, 0x88, 0x96, 0x65, 0x77, 0x78, 0x57, 0x58, 
0x68, 0x67, 0x69, 0x66, 0x88, 0x65, 0x56, 0x85, 0x75, 0x67, 0x76, 0x97, 0x77, 0x87, 0x67, 0x68, 0x86, 0x58, 0x67, 0x78, 
0x67, 0x86, 0x56, 0x88, 0x68, 0x88, 0x88, 0x69, 0x68, 0x67, 0x87, 0x66, 0x76, 0x76, 0x77, 0x88, 0x68, 0x87, 0x67, 0x76, 
0x86, 0x86, 0x65, 0x67, 0x58, 0x77, 0x68, 0x67, 0x68, 0x87, 0x67, 0x85, 0x75, 0x66, 0x78, 0x75, 0x77, 0x89, 0x86, 0x87, 
0x77, 0x86, 0x79, 0x65, 0x96, 0x67, 0x68, 0x57, 0x57, 0x57, 0x67, 0x58, 0x68, 0x87, 0x78, 0x86, 0x86, 0x87, 0x77, 0x89, 
0x65, 0x55, 0x67, 0x77, 0x68, 0x66, 0x77, 0x87, 0x77, 0x76, 0x66, 0x78, 0x68, 0x66, 0x78, 0x76, 0x95, 0x58, 0x88, 0x88, 
0x79, 0x78, 0x78, 0x66, 0x88, 0x75, 0x77, 0x98, 0x78, 0x66, 0x77, 0x96, 0x98, 0x57, 0x97, 0x55, 0x78, 0x77, 0x96, 0x7a, 
0x68, 0x67, 0x78, 0x59, 0x6b, 0x67, 0x67, 0x87, 0x68, 0x97, 0x98, 0x78, 0x58, 0x96, 0x9a, 0x76, 0x87, 0x66, 0x78, 0x8b, 
0x64, 0xa7, 0x76, 0x76, 0x85, 0x78, 0x78, 0x37, 0xa8, 0x67, 0x88, 0x69, 0x88, 0x68, 0x76, 0x77, 0x75, 0x96, 0x69, 0x99, 
0x88, 0x7b, 0x96, 0xa7, 0x79, 0x79, 0x4b, 0x96, 0x97, 0x78, 0x78, 0x58, 0x86, 0x58, 0x68, 0x98, 0x8a, 0x86, 0x68, 0x96, 
